Ā
ā
Ă
ă
Ą
ą
Ć
ć
Ĉ
ĉ
Ċ
ċ
Č
č
Ď
ď
Đ
đ
Ē
ē
Ĕ
ĕ
Ė
ė
Ę
ę
Ě
ě
Ĝ
ĝ
Ğ
ğ
Ġ
!
"
#
$
%
&
'
(
)
*
+
,
-
.
/
0
1
2
3
4
5
6
7
8
9
:
;
<
=
>
?
@
A
B
C
D
E
F
G
H
I
J
K
L
M
N
O
P
Q
R
S
T
U
V
W
X
Y
Z
[
\
]
^
_
`
a
b
c
d
e
f
g
h
i
j
k
l
m
n
o
p
q
r
s
t
u
v
w
x
y
z
{
|
}
~
ſ
ƀ
Ɓ
Ƃ
ƃ
Ƅ
ƅ
Ɔ
Ƈ
ƈ
Ɖ
Ɗ
Ƌ
ƌ
ƍ
Ǝ
Ə
Ɛ
Ƒ
ƒ
Ɠ
Ɣ
ƕ
Ɩ
Ɨ
Ƙ
ƙ
ƚ
ƛ
Ɯ
Ɲ
ƞ
Ɵ
Ơ
¡
¢
£
¤
¥
¦
§
¨
©
ª
«
¬
ƭ
®
¯
°
±
²
³
´
µ
¶
·
¸
¹
º
»
¼
½
¾
¿
À
Á
Â
Ã
Ä
Å
Æ
Ç
È
É
Ê
Ë
Ì
Í
Î
Ï
Ð
Ñ
Ò
Ó
Ô
Õ
Ö
×
Ø
Ù
Ú
Û
Ü
Ý
Þ
ß
à
á
â
ã
ä
å
æ
ç
è
é
ê
ë
ì
í
î
ï
ð
ñ
ò
ó
ô
õ
ö
÷
ø
ù
ú
û
ü
ý
þ
ÿ
Ġt
Ġa
he
in
re
Ġthe
on
er
Ġs
Ġw
at
Ġo
en
Ġc
it
is
an
or
Ġb
es
ed
Ġf
ing
Ġp
ou
Ġan
al
Ġto
ar
Ġm
Ġin
Ġof
Ġh
Ġd
âƀ
as
ic
Ġand
Ġth
le
om
ion
ll
ent
Ġn
Ġl
Ġre
st
ve
Ġe
ly
ro
Ġbe
Ġg
id
ut
ac
ot
ĠT
ĠI
Ġthat
Ġon
ay
ĠS
Ġis
et
im
am
ad
ow
se
ig
Ġfor
âƀƙ
ĠA
ver
ur
ct
ld
ĠC
Ġu
Ġst
Ġy
Ġit
Ġhe
ir
ation
ith
Ġwh
ĠM
ce
ter
ol
Ġwe
il
Ġwith
Ġas
ĠB
ch
ill
nd
ĠP
Ġwas
ers
Ġyou
ke
Ġâƀ
Ġcon
Ġde
Ġr
her
if
ate
ag
Ġat
Ġha
ĠW
Ġse
ĠH
ore
Ġpro
ul
pp
ment
ri
Ġare
ĠD
Ġ1
us
est
ist
Ġcom
and
ĠR
op
ain
ĠThe
Ġ2
igh
rom
Ġ(
ort
od
Ġne
ĠF
um
un
Ġex
res
ab
âƀƝ
Ġnot
ĠN
Ġv
ess
Ġhave
ity
em
ould
Ġor
th
Ġby
os
ant
ĠG
ive
Ġfrom
Ġal
el
's
oc
art
Ġsu
ĠL
Ġsh
Ġthis
nt
qu
ight
pe
ust
Ġle
ies
ĠE
end
Ġch
Ġsa
out
Ġab
The
all
ie
ack
red
00
ĠâƀƜ
Ġhas
ally
ĠJ
Ġpl
Ġgo
ard
iv
Ġhis
ome
ap
ost
gh
ear
ĠO
Ġtr
our
ast
Ġj
ak
ud
Ġdo
Ġthey
Ġbut
Ġwor
rou
Ġcan
ge
Ġwill
Ġsaid
Ġwhe
ĠU
Ġk
ich
Ġall
ok
Ġ"
ide
Ġwho
Ġint
ame
ans
ther
ial
Ġout
ff
Ġtheir
ong
ect
pl
ice
ure
pt
one
Ġmore
age
ions
act
ike
Ġme
Ġup
ous
ine
Ġad
Ġabout
ated
ra
ber
Ġone
Ġwere
Ġso
Ġus
ime
og
ĠK
ep
ia
Ġhad
are
ub
cc
Ġwould
Ġcl
Ġ20
Ġim
Ġwhich
ind
ue
ake
Ġcont
iz
very
Ġag
Ġte
Ġoff
Ġcomp
Ġun
Ġbeen
ĠSt
so
Ġen
per
ign
au
ĠTh
ary
ace
Ġyear
ip
ew
Ġlike
ere
ven
ook
Ġinc
ays
Ġman
Ġpe
ry
ose
Ġres
able
ite
Ġper
ass
ord
Ġsp
ire
ĠIn
Ġother
mer
Ġsome
ile
ib
ence
ople
Ġ201
ks
ations
Ġover
ical
Ġthere
ress
Ġdis
ult
int
Ġnew
own
Ġalso
Ġthan
Ġar
Ġbec
ru
Ġthem
ance
ount
ough
Ġapp
port
ail
Ġpart
Ġyour
Ġwhen
ree
Ġwhat
orm
ond
Ġpeople
fter
Ġsc
ĠCh
av
ase
Ġqu
Ġany
Ġjust
Ġits
ĠY
ach
Ġtime
ĠIt
Ġkn
Ġher
Ġ3
ens
lic
Ġrec
reat
Ġmy
Ġget
Ġif
ĠV
ian
.âƀƝ
Ġinto
ound
Ġwork
Ġtw
irst
vel
ction
Ġno
du
ings
ory
ick
ors
Ġour
ition
ident
ob
Ġ-
Ġpre
ove
Ġplay
ang
ink
ause
wn
te
amp
ade
hing
ates
ark
Ġro
Ġpol
Ġshe
vers
Ġco
,âƀƝ
Ġafter
ne
Ġfirst
Ġcould
Ġhow
ĠHe
Ġ19
ious
nder
ild
Ġacc
Ġhim
aw
't
ons
Ġpo
Ġonly
Ġfe
Ġatt
ict
hed
Ġpr
Ġtwo
rit
ov
ish
Ġcomm
âƀƜ
form
Ġspe
Ġact
we
erv
Ġbl
ft
Ġbet
Ġdec
."
ning
Ġback
Ġmost
ces
ood
ck
ĠâƀƓ
Ġam
oy
Ġdid
rough
iff
ater
round
Ġagain
Ġ4
ual
day
ise
Ġunder
Ġdes
Ġwant
ull
sel
Ġcons
ĠâƀƔ
..
Ġbecause
Ġnow
lud
ents
Ġyears
man
tern
ublic
ec
Ġneed
Ġeven
Ġ$
iss
Ġinv
Ġknow
ĠWe
Ġsee
ments
ced
Ġadd
,"
ting
old
Ġind
Ġsec
fore
uch
Ġevery
urn
Ġ5
Ġsupp
Ġmake
pect
ĠUn
Ġem
Ġthese
ock
oll
Ġwhere
ject
In
ational
vern
xt
Ġbu
Ġlook
Th
ĠAnd
oss
Ġdon
Ġev
ump
ating
Ġway
Ġbeing
Ġrem
Ġright
ily
Ġmay
ng
row
lect
iew
Ġthen
Ġmany
Ġ[
Ġdiff
Ġdef
ason
Ġrel
Ġcall
ĠBut
ĠTr
ont
ied
les
ased
Ġinclud
Ġthink
aking
Ġreg
).
meric
Ġimp
Ġthrough
ath
ited
rib
Ġsy
Ġshould
Ġpres
Ġsay
ell
Ġfl
uring
Ġlast
Ġthose
ower
Ġvery
ty
other
Ġmuch
ities
ific
Ġstate
ĠThis
ative
Ġshow
tle
hen
Ġbr
ss
arg
Ġwell
oth
Ġph
ĠWh
Ġcount
als
und
Ġ200
Ġdoes
Ġdown
Ġown
arly
Ġend
Ġass
Ġbel
Ġuse
ics
ange
--
ts
Ġlong
ĠAmeric
ters
ince
Ġbefore
omet
gr
Ġmon
ward
Ġgovern
Ġstart
Ġreport
ible
Ġke
up
ues
ĠNew
Ġfin
Ġteam
ble
Ġmade
ife
olog
ener
),
Ġsuch
ren
com
oun
erson
ek
ix
Ġsm
âƀƔ
lp
ility
Ġgoing
ism
ful
Ġworld
ually
Ġstud
ists
Ġgood
Ġac
tain
It
Ġsub
Ġeff
Ġsur
Ġagainst
its
Ġgame
Ġset
ork
Ġ6
Ġgu
Ġpoint
Ġent
ys
000
gan
ars
li
stem
Ġprov
Ġstill
roup
Ġwhile
illion
Ġhelp
Ġlead
Ġmin
ween
ef
ax
ank
alk
imes
Ġsays
Ġob
ms
cy
Ġprodu
Ġgr
Ġinter
Ġinst
Ġstr
cess
Ġsim
io
self
Ġconf
Ġcol
Ġtake
ures
arch
Ġsame
Ġthough
Ġbetween
ollow
Ġoffic
ever
Ġcr
Ġdiffere
ool
uss
ution
land
Ġdisc
air
Ġop
ah
Ġed
Ġhigh
read
Ġnum
Ġlaw
Ġsign
way
Ġgovernment
gg
ĠRe
led
ner
hip
atch
hes
ames
any
Ġter
Ġsomet
cent
velop
ted
We
Ġref
Ġtrans
ten
Ġins
Ġrun
Ġser
Ġfound
Ġthree
ives
ave
Ġmem
Ġaround
Ġhere
ather
Ġmed
Ġreal
Ġused
ouse
Ġ10
ved
Ġexp
az
ĠAr
cept
oot
Ġsystem
ĠYou
ci
Ġreally
Ġmod
ving
con
cer
Ġgroup
Ġsupport
Ġ7
Ġcour
ets
ale
ins
Ġret
Ġhand
Ġpublic
Ġspec
pr
ĠLe
ying
Ġgreat
Ġcar
ense
Ġext
.[
ton
irect
Ġcur
Ġfam
ĠCom
alth
Ġhapp
Ġfact
ph
Ġexper
ĠThey
ĠTrump
Ġfr
Ġwom
ĠIs
Ġcap
Ġboth
Ġday
Ġfind
ĠAl
ular
Ġread
ines
oh
ices
Ġdet
Ġlit
Ġsl
Ġrep
uth
ered
Ġduring
ĠSh
ĠAs
Ġ0
Ġserv
Ġmonth
min
the
ision
Ġcre
Ġdevelop
Ġbig
Ġ8
Ġperson
akes
Ġfollow
ĠCl
Ġiss
ex
Ġtold
Ġsince
ared
med
ically
Ġweek
ages
ivers
Ġwar
Ġfew
orth
ording
Ġcent
Ġleg
aj
get
Ġpolit
ves
ash
Ġexpl
Ġlot
ric
ĠSe
Ġbelie
Ġgener
Ġtoo
Ġ9
der
ata
rent
Ġopp
Wh
Ġrequ
Ġcontin
Ġprot
iet
bers
anc
Ġfil
ention
ness
Ġcle
Ġresp
Ġput
ized
ĠIf
Ġanother
20
chool
Ġinf
Ġsomething
ĠDe
Ġdifferent
Ġcor
Ġloc
ute
Ġinvest
Ġsoc
Ġpower
Ġche
uc
Ġ'
Ġpass
Ġcommun
Ġlife
ĠFr
Ġplan
ody
Ġrele
ience
Ġhead
Ġthings
ned
Ġfar
Ġart
Ġposs
Ġmet
thing
ox
erest
Ġcamp
ross
arge
Ġvot
ier
This
view
Ġchild
ants
Ġask
Ġ.
Ġmight
Ġeach
ize
iness
Ġdep
Ġnever
Ġnext
ik
ield
Ġsecond
Ġmark
tt
Ġquest
Ġbus
Ġadv
ĠAn
Ġdem
ĠFor
Ġcome
Ġgot
ĠâƀƘ
Ġopen
Ġbest
ient
ital
Ġallow
ĠThat
rat
Ġseem
Ġpost
ple
nce
Ġfeel
ĠPro
ĠUS
ug
Ġpri
gram
Ġpercent
cl
Ġhome
Ġdist
Ġdirect
ired
Ġincre
Ġcontro
ĠRep
son
orn
less
osed
Ġresult
Ġhard
Ġcare
ately
Ġmillion
chn
Ġcomple
Ġplace
Ġwithout
Ġinform
Ġincluding
Ġimport
Ġav
conom
Ġhum
Ġide
Ġproble
Ġbuild
Ġtop
ama
Ġnumber
Ġcountry
gy
oney
aim
ĠBl
ret
ral
ably
uro
Ġstand
Ġgl
Ġel
riend
Ġfour
ished
ways
Ġpartic
Ġbetter
co
Ġtri
But
Ġrecent
Ġinterest
Ġmov
Ġlet
ration
Ġseason
Ġless
ead
Ġturn
Ġlittle
Ġbeh
Ġmil
Ġappro
ract
line
Ġbro
ling
ised
Ġcalled
app
10
Ġcase
Ġdr
ĠInd
Ġrest
Ġleft
Ġpop
Ġann
ĠZ
ency
ode
Ġmove
ina
Ġattack
ĠThere
Ġkeep
Ġfull
ering
Ġdidn
be
Ġfun
Ġmain
ajor
__
Ġeffect
inal
me
leg
Ġprev
Ġprogram
Ġusing
Ġtest
Ġpay
to
ature
Ġear
Ġval
Ġpolice
Ġwrit
Ġform
Ġeconom
Ġdata
Ġnews
Ġpos
Ġwin
ĠAmerican
Ġlevel
Ġsit
Ġchar
ains
iving
uck
Ġsmall
ined
ready
He
Ġschool
Ġlist
ology
rap
mit
ided
ploy
're
ger
Ġeas
Ġprocess
ird
Ġchange
Ġwomen
Ġcurrent
Ġrece
Ġprom
Ġhist
Ġdri
Ġ=
ians
reen
Ġpresident
Ġcompany
ĠSo
used
Ġmat
ruct
Ġalready
ohn
ĠUnited
wit
Ġty
Ġwhy
Ġbre
Ġunt
Ġmoney
Ġsol
Ġalways
Ġlater
Ġexpect
Ġtechn
Ġbusiness
ĠHow
Ġofficial
ron
ĠQ
ĠOb
stand
iversity
Ġbo
Ġbook
ĠPh
aign
Ġthing
Ġclass
Ġproject
ases
Ġclaim
Ġjob
Ġinformation
Ġorgan
aff
ĠShe
ards
Ġtalk
ĠBe
Ġdesign
Ġstory
Ġchang
Ġmajor
Ġable
Ġprof
Ġ--
...
lection
iven
ertain
Ġrese
Ġhealth
Ġvis
Ġpast
urs
Ġfree
here
outh
ĠAd
Ġoper
ption
Ġaway
ior
ĠCan
Ġmust
Ġcity
ample
rist
sc
ural
Ġhappen
uthor
Ġ18
Ġimportant
acy
urity
Ġkill
Ġsk
Ġest
ured
Ġold
Ġpat
ury
ending
Ġdoesn
ission
Ġleast
Ġgrow
Ġedit
Ġvar
ained
St
Ġcost
ĠGo
ney
ider
ides
els
Ġdays
Ġtell
Ġhop
Ġstre
Ġcampaign
side
Ġ12
Ġmen
Ġcame
Ġaff
Ġconst
resident
Ġenough
Ġview
ccess
Ġkind
ĠMar
oad
ĠSp
ern
Ġmaking
Ġlarge
Ġrecord
50
ush
Ġfriend
Ġmar
Ġfamily
âƀ¦
ley
Ġelect
eral
Ġpolic
Ġtax
ising
by
pped
ality
ator
ified
As
ived
arent
ror
Ġuntil
ional
Ġpolitical
Ġvide
Ġdeal
ee
ries
alf
augh
Ġve
Ġworking
ued
ĠRepublic
Ġtook
Ġdeb
bs
If
ister
Ġline
ĠJohn
aining
Ġair
----
Ġes
Ġintern
Ġfore
iol
ane
ocrat
Ġbecome
Ġactually
aps
ony
Ġmean
work
Ġfund
ĠSc
ware
19
ember
ĠPl
Ġformer
Ġoften
ĠEuro
ott
ann
Ġwon
Ġgive
oint
Ġaccording
Ġever
most
eng
year
wh
aring
Ġgames
ison
Ġhuman
Ġbas
Ġword
ization
Ġreturn
Ġtimes
Ġorder
ĠRuss
Ġbit
ĠDem
Ġname
11
gin
Ġsever
ĠAll
Ġdev
icle
uture
for
ither
iqu
Ġpar
Ġ199
ĠMc
Ġwr
ĠCon
raft
Ġsing
Ġperform
ĠSy
idd
Ġmarket
Ġfac
Ġcharac
There
ĠOr
ĠAt
ĠMay
Ġra
Ġdoing
Ġappear
ER
ched
Ġplayers
Ġla
Ġnight
Ġlear
aken
rop
ats
mber
Ġtoday
Ġearly
Ġ15
Ġseen
//
Ġhaving
Ġ,
Ġpot
Ġchildren
Ġevent
Ġmedia
Ġsocial
Ġcrit
ĠPresident
Ġwhether
Ġseveral
Ġcontrol
idence
Ġmeet
sh
Ġmilit
Ġpress
Ġwent
artment
ene
Ġfive
Ġyoung
ories
Ġsure
Ġprop
iously
Ġequ
Ġquestion
Ġocc
Ġlikely
vert
une
Ġmembers
br
ands
Ġcertain
ium
Ġeng
Ġwater
ĠYork
Ġexample
ots
ĠCol
Ġside
Ġant
Ġarg
Ġdone
enn
Ġvers
Ġinvol
ĠMr
ĠStates
ĠEurope
ended
let
Ġalong
Ġshort
Ġsuccess
ential
Ġmonths
ball
Ġhour
Ġ11
Ġsex
iver
ially
And
lf
empt
Ġwithin
Ġdesc
imate
Ġcourse
Ġfight
ster
urch
ubl
Ġamong
Ġactiv
uff
âƀƓ
ague
Ġonce
Ġfuture
Ġinvestig
ulation
rew
Ġpossible
ĠObama
Ġcho
nect
Ġunderstand
iting
Ġconcer
ĠOn
Ġ]
ones
ortun
Ġproblem
ĠBr
Ġpriv
Ġmeans
Ġviol
ĠCar
Ġauthor
itive
ĠNo
ggest
Ġavail
oci
ourn
my
Ġknown
Ġproduct
Ġnon
ivid
Ġthought
Ġyet
gress
Ġacross
Ġprotect
Ġlocal
ald
ler
Ġhold
ĠTe
Ġfail
ĠWhen
ĠState
inc
Ġcommunity
Ġreason
Ġorig
Ġsuggest
Ġ&
12
Ġmakes
verage
not
por
back
Ġ2016
Ġi
book
Ġasked
ederal
orld
Ġreported
You
aged
ensive
Ġgiven
Ġstrong
Ġprob
Ġmus
Ġothers
Ġbelieve
Ġvideo
iber
Ġben
Ġgetting
ĠHouse
ances
Ġannoun
Ġlight
ored
ober
ĠUniversity
Ġ30
ĠCo
itions
Ġident
iron
Ġsent
Ġcut
Ġlim
Ġca
ĠChrist
iety
30
urther
Ġsour
Ġcreat
Ġcond
ĠX
rest
ams
've
Ġnet
ashing
Ġbat
ament
Ġnational
.,
Ġclose
Ġstarted
Ġsaf
Ġdeath
aster
Ġavailable
arm
Ġhig
For
Ġbased
Ġissue
of
Ġindust
ĠDemocrat
ĠMin
Ġlow
Ġfollowing
resent
Ġaccount
Ġland
use
ĠCent
Ġemploy
Ġlove
Ġ2015
Ġ#
Ġhistory
Ġago
orts
selves
Ġmom
Ġparty
ability
Ġseries
eb
Ġcomes
Ġtrying
uly
utes
ĠAm
Ġalmost
gether
ument
Ġtogether
ination
AT
ĠAmerica
pro
Ġidea
ief
Ġaccess
Ġfoc
hers
ilar
ĠFl
reed
ails
Ġcommit
itional
Ġisn
ĠSen
Ġclear
Ġ16
ĠOne
Ġtrad
though
ring
ĠWhat
Ġpract
Ġadded
Ġimpro
Ġexperience
erence
Ġfilm
15
Ġhalf
ustom
ged
Ġhit
af
ĠBro
witter
rict
Ġanal
inton
ograp
unch
Ġ2014
Ġrul
ividual
Ġlooking
Ġsix
Ġlive
Ġanything
Ġarea
Ġcomplete
erman
minist
Ġmiss
rael
ĠEx
ĠComm
Ġfav
Ġris
ai
nes
Ġpresent
ote
rug
Ġsaying
raw
aid
ĠCanad
Ġvict
IN
cially
Ġbad
ows
uge
Ġtaken
ert
Ġentire
oto
ĠPr
ators
ev
Ġbill
Ġcompet
ĠEng
Ġmor
Ġbehind
ien
Ġaut
ĠTo
'm
Ġcourt
play
Ġtry
Ġtre
Ġmilitary
Ġz
Ġnear
osp
Ġmult
What
Ġface
wards
Ġ14
Ġsecurity
Ġer
ĠPol
sy
Ġproper
Ġdiscuss
Ġthreat
Ġtot
Ġstudy
Ġsingle
Ġrather
Ġindividual
ĠAf
ĠBrit
ĠWar
ĠÂ
ttp
Ġquick
ĠDon
Ġmind
ĠSec
lement
ales
amed
atic
An
ĠNorth
aper
Ġpubl
Ġpolicy
Ġmess
ris
par
Ġblack
Ġwanted
Ġfall
irc
**
off
Ġfood
Ġsum
Ġsomeone
lling
ids
On
Ġ|
Ġ/
Ġcult
Ġspecial
Ġcomb
Ġkey
ĠMan
Ġplayer
Ġredu
ĠGr
Ġbring
Ġ13
Ġcompan
Ġ17
ply
ĠDep
Ġattempt
ĠNational
Ġtaking
ĠBar
When
ON
ify
olution
Ġ:
viron
Ġfoot
ĠCal
://
Ġelse
Ġpret
Ġbody
Ġspace
elt
rote
over
dd
Ġprobably
16
icult
.)
Ġfront
Ġcou
Ġnothing
Ġsw
ashington
ĠIm
Ġconnect
ches
ĠWorld
Ġresearch
14
ming
ĠClinton
ĠCity
Ġcoming
Ġpoints
ĠIsrael
RE
Ġhowever
Ġdescrib
go
Ġjo
Ġsignific
Ġsimilar
yn
reme
cing
Ġbenef
lier
ĠAust
Ġdecision
Ġeither
aces
Ġcoun
ault
So
Ġmass
mb
ĠHar
Ġsus
Ġtarg
ully
ana
Ġfeat
That
Ġimm
Ġconv
Ġexist
irl
Ġenc
Ġ2013
Ġrights
Ġservice
ĠSu
asing
ung
sw
IS
Ġfire
Ġdoc
Ġwrote
Ġfurther
Ġhouse
rodu
Ġfig
Ġchall
ww
Ġban
Ġthird
Ġwa
Ġcreate
Ġstop
Ġfield
now
Ġpick
AN
ape
ively
Ġmeas
Ġrepl
Ġcompl
ĠWith
Ġissues
pping
Ġbegin
Ġsuper
amer
Ġstep
ried
ently
Ġwhole
Ġrelations
Ġseems
Ġ)
Ġcompanies
pecially
Ġdue
Ġexec
Ġcand
Ġeverything
Ġfederal
ĠGu
Ġstates
Ġey
Ġroom
aul
Ġtra
Ġwatch
oon
ĠGe
Ġcustom
Ġleaders
13
uation
ĠHowever
pite
ĠJan
ĠWashington
Ch
lam
Ġself
Ġrole
ran
ilt
Ġsound
Ġlab
att
head
Ġdam
ivil
Ġofficials
Ġstri
Ġ2012
lu
iday
ibility
Ġreleased
ĠInst
eal
Ġbegan
ĠDav
ĠApp
ĠSouth
Ġopt
obal
Ġstudents
Ġtreat
Ġfinal
Ġcharacter
Ġposition
Ġmatter
Ã©
ender
Ġener
lim
Ġoutside
ery
sec
ades
Ġdou
vironment
Ġdevelopment
Ġstatement
Ġhimself
Ġ2017
Ġabove
like
Ġstat
Ġinit
Ġbreak
Ġ100
Ġamount
Ġprovide
Ġhours
Ġitself
Ġthemselves
Ġoffice
Ġrepresent
Ġaction
ĠPart
Ġdi
Ġbecame
Ġ198
Ġgeneral
Ġcontinue
Ġcountries
ĠIntern
Ġneg
iod
Ġaddress
Ġ25
Ġgun
aced
ask
Ġtrue
Ġspecific
ograph
umb
arter
reg
Ġlarg
Ġsignificant
lish
Ġsimply
ĠAss
ĠRes
Ġwasn
'll
Ġinterview
acebook
ili
Ġground
Ġrad
oid
ogn
Ġdifficult
Ġrunning
ĠJust
Ġevidence
Ġadminist
BC
Ġcop
17
ream
Ġdrug
Ġversion
ogle
Ġbar
ĠEd
Ġagree
eks
iddle
Ġbuilding
ĠChina
Ġneeds
Ġprofess
angu
Ġgroups
right
Ġtyp
Ġrespons
Ġcommon
Ġshows
Ġeveryone
Ġdom
Ġdest
Ġneeded
Ġball
Ġwoman
ĠGerman
Ġlat
Ġbelow
Ġtem
light
ournal
Ġmusic
Ġexc
Ġrelease
ift
Ġinj
Ġpretty
ĠMed
ĠAb
AR
ribut
Ġinclude
Ġsaw
Ġdeep
Ġap
body
18
Ġplayed
Ġquite
Ġindustry
Ġcharg
Ġmag
Ġenergy
Ġplaying
Ġmot
Ġ50
Ġcandid
Ġsense
Ġphys
Ġlate
Ġalleg
Ġwhite
ĠHis
ival
Ġfriends
Ġgen
Ġlegal
atur
Ġanim
isc
bo
yle
ĠAfter
How
AS
where
Ġabs
lev
Ġinstead
Ġred
Ġbillion
Ġlost
Ġespecially
Ġvalue
ĠMus
ĠWest
Ġhost
Ġhom
osing
oring
ĠNews
time
ager
Ġple
istic
Ġweeks
epend
ĠNot
ccording
omm
Ġforward
ique
Ġdeter
Ġelection
Ġrecently
Ġjud
Ġtrack
Ġsuff
Ġvote
ĠTwitter
Ġobject
irt
lt
medi
Ġperiod
Ġchanges
Ġopportun
ĠWhite
ĠOct
Ġlo
Ġlonger
arc
oke
eed
Ġep
Ġpain
Ġsoon
Ġsite
Ġ{
hod
ript
ached
Ġaccept
ĠCong
____
Ġshoot
Ġeconomic
Ġhope
irm
oe
Ġmoment
Ġdecl
lege
Ġconsum
ĠWill
Ġpie
Ġtit
Ġcheck
oph
Ġpotential
ij
Ġblock
ĠMarch
ole
Ġwrong
duct
ners
ĠSept
ĠDepartment
Ġhigher
onse
Ġcred
Ġonline
Ġfocus
Ġ24
Ġconsider
key
Ġeduc
ancial
ĠMy
ns
iding
Ġcirc
Ġworks
Ġrelig
Ġshare
Ġparent
cial
Ġheld
25
Ġpred
ĠDr
Ġwalk
Ġwebs
Ġled
ularly
==
Ġreve
lear
Ġstay
ĠThese
overed
alt
Ġstru
ĠRepublican
Ġrisk
Ġwords
ĠAug
Ġrev
Ġsold
Ġreview
icro
Ġcontract
Ġresults
Ġservices
Ġlaws
They
Ġcode
cil
ĠMich
Ġwind
Ġfunction
Ġaud
Ġce
ĠSyri
put
aut
Ġtotal
fect
Ġarticle
Ġage
Ġapplic
Ġminutes
urd
ĠMe
Ġpersonal
ilities
Ġanyone
uary
ients
itution
asons
ĠJune
Ad
ateg
Ġprim
anger
Ġtarget
ĠSte
fer
Ġden
Ġearlier
ule
Ġfavor
Ġexpress
haps
Ġdead
Ġansw
Ġupd
Ġpopular
che
Ġcomput
Ġvol
pril
Ġnecess
ham
Ġhy
Ġrate
ES
aging
Ġtechnology
apan
Ġrespect
ĠPe
val
Ġenvironment
Ġ2011
Ph
Ġreceived
Ġexpected
ude
ends
Ġgoal
ĠPar
Ġcreated
Ġbase
Ġsurpr
Ġanti
ĠSm
ĠJuly
eter
tee
Ġproblems
uel
Ġways
Ġport
iple
action
Ġprivate
ĠDo
Ġscient
Ġincrease
ray
reet
Ġannounced
Ġcomment
isl
Ġcannot
Ġeasy
Al
Ġshot
ĠCongress
Ġquestions
bit
Ġforce
aterial
hern
Ġimpact
na
Ġet
ĠMond
ples
Ġpack
Ġ+
ĠFacebook
Ġpur
Ġlangu
atives
ĠGod
ĠEn
Ġinvolved
omb
aving
ills
60
lex
hood
onst
ĠAustral
Ġdiv
uesday
Ġexecut
ctor
Ġmodel
itiz
Ġsen
Ġspeak
Ġstaff
Ġexact
Ġcivil
ires
Ġnearly
Ġtype
ourt
okes
ees
Ġoriginal
Ġcases
Ġcontent
Ġ197
Ġrelationship
Ġterror
ĠGoogle
To
Ġleave
ĠFriday
Ġresponse
Ġcapt
Ġinside
Ġ<
Ġphot
lled
ech
Ġfans
ĠApril
rem
ĠRed
Ġinternational
Ġcoll
cast
Ġheart
Ġaverage
Ġbroad
Ġarrest
Ġusers
ĠCount
Ġcal
At
rel
Ġcell
Ġworth
Ġsoft
Ġur
Ġliving
ĠEm
bor
Ġnation
ips
ky
Ġkilled
Ġreports
Ġ2010
ãƁ
ging
Ġbecom
Ġsource
ĠMonday
ĠTuesday
Ġsubject
Ġworked
atural
ests
Ġestab
Ġimmedi
EN
Ġrespond
Ġglobal
Ġassoci
joy
ellig
Ġclub
ops
ĠAmericans
ael
Ġobs
ites
ĠPer
ĠPal
Ġchance
Ġoil
ĠAct
Ġability
ĠNe
Ġtakes
rought
Ġweap
hel
Ġprice
ĠJapan
ological
Ġdirector
izing
Ġworkers
Ġterms
Ġroad
mon
Ġpublished
Ġdel
ĠWhile
Ġtou
Ġphone
rain
Ġcollect
Ġfinancial
Ġmid
osition
Ġdecided
ises
OR
ĠRussia
ĠSome
ĠWed
Ġmother
Ġsqu
Ġlack
Ġdefin
ovember
Ġ40
Ġgirl
Ġstore
Ġgave
Ġbuy
Ġinflu
ĠCalif
Ġlog
Ġhappened
ino
Ġrequire
ĠNow
Ġemer
Ġfem
".
Ġcapital
clus
Ġforeign
Ġcurrently
ĠOff
based
ĠSan
Ġgoes
ĠBy
oved
ĠGeor
vertise
Ġsituation
Ġindic
Ġoffer
Ġwhose
Ġ@
Ġtal
Ġmaterial
Ġlives
unt
Ġaffect
rown
ought
Ġplans
nesday
Ġarri
Ġmember
Ġpict
ursday
ĠFeb
Ġparticip
ruction
Ġrecogn
Ġturned
Ġmethod
Ġevents
ĠJanuary
ĠHill
Ġnetwork
One
Ġteams
ĠSund
Ġbank
Ġmeeting
40
rect
Ġnorm
Ġintrodu
Ġsimple
fully
ĠIslam
Ġill
ĠAg
Ġhuge
ĠSeptember
oud
Ġregard
Ġareas
Ġcy
order
ĠCor
ese
ĠTV
Ġcouple
Ġapproach
Ġcareer
aur
ĠAfric
ĠGl
load
",
Ġdeli
Ġrace
lin
Ġperformance
Ġpage
ety
apt
ĠNovember
Ġtool
ĠDavid
Ġfelt
Ġquickly
Ġmis
Ġnumbers
oor
Ġemail
Ġ21
aily
Ġord
ĠEl
istan
Ġadministration
Ġhon
ĠWednesday
Ġvictim
ĠPaul
Ġvia
Ġimprove
Ġengine
chie
--------
Ġfre
Ġpull
ĠAng
Ġround
bl
Ġbuilt
Ġ22
Ġpers
ĠEuropean
Ġdig
ened
ĠThursday
Ġfather
ornia
Ġloss
avy
Ġthous
Âƭ
Ġhttp
ructure
Ġproduction
Ġboy
ume
Ġheard
down
Sh
Ġeconomy
âƀƝ.
Ġenjoy
ĠAugust
Ġtrade
ĠSch
face
Ġwebsite
iment
Ġsecret
Ġcover
Ġreveal
Ġwide
Ġboard
Ġmatch
ĠCourt
AL
Ġallowed
Ġhands
Ġspent
Ġtravel
Ġlower
Ġrepe
atory
Ġpoll
Ġste
Ġincluded
cember
ĠOctober
Ġneigh
Ġlegisl
orters
uses
Ġbehav
iction
Ġknew
Ġtext
Ġwants
Ġtown
ights
ĠBritish
Ġsepar
ences
estern
Ġvisit
ĠCanada
anks
ctions
With
Ġperfect
Ġgets
ze
ession
Ġmovement
ishing
ground
agement
Ġtried
Ġcause
?âƀƝ
gest
Ġ}
Ġforces
ĠSunday
Ġens
After
force
ceed
Ġattention
Ġparticular
Ġbi
][
ening
Ġveh
Ġbud
Ġfear
Ġpopulation
Ġvarious
ĠUK
Ġreach
ma
Ġlooks
Ġ23
ĠCalifornia
Ġbrought
Ġvo
ĠKore
Ġlink
ibly
);
urning
arily
ĠIS
200
Ġprevious
ED
Ġmention
ĠRussian
Ġmorning
ĠQu
cle
idered
eg
'd
Ġfair
Ġgrowth
aker
ĠSw
undred
99
sequ
yond
Ġprogress
Ġfell
raz
alled
Ġsong
iam
ĠCont
AC
Ġtraining
field
hold
uk
Ġsize
ĠBlack
cies
ĠDecember
idents
Ġcontact
ledge
ĠHer
Ġdemand
While
Ġimage
Ġhor
Ġrac
Ġhot
ification
OS
Ġleader
set
ecause
Ġrules
Ġprep
Ġliber
Ġsearch
Ġess
ĠPost
Ġcitiz
Ġupon
Ġstrugg
ĠStreet
Ġlatest
come
Ġindepend
US
uments
inks
arth
Ġfeatures
Ġcoach
ondon
ĠPark
iant
Ġfast
Tr
oo
sych
Ġtalking
ĠJew
omp
Ġaddition
ges
Ġstar
Ġwond
ĠSenate
IT
ĠPat
Ġspeed
Ġexam
Ġconsidered
raq
icles
aries
Ġreb
bed
Ġlevels
eth
ĠTimes
ĠCounty
elligence
Ġslow
Ġinvestigation
ps
ille
Ġconduct
aph
ĠParty
22
ĠKing
Ġmedical
Ġmach
imately
vent
Ġachie
Ġlanguage
aturday
Ġcard
Ġsn
unk
Ġsort
Ġcritic
ope
ĠTex
ĠCenter
Ġpen
Ġund
wo
ĠIndia
Ġpaper
ysis
IC
Ġ2008
pir
Ġconserv
Ġparents
imin
Ġsexual
Ġsystems
Ġprior
ha
uit
asc
Ġdoll
Ġwritten
uf
Ġbox
Ġspokes
igr
Ġseek
Ġsens
het
Ġdocument
idge
eared
Ġincreasing
Ġhear
ani
atform
Ġdraw
Ġseven
Ġson
ĠMuslim
Ġeffort
ruary
Ġjobs
ĠIran
Ġextreme
Ġprevent
Ġlearn
ining
Ġserious
Ġregul
rast
Ġinn
Ġrange
Ġ...
room
Ġviolence
Ġeight
ĠMark
80
ources
ĠIraq
itch
OP
Ġsurve
Ġcompletely
Ġconc
Ġ2009
Ġmessage
ico
tr
Ġâ
She
Ġobv
Ġinteresting
reedom
Ġscreen
abor
Ġopportunity
eff
Ġclimate
24
ext
Ġmajority
ĠKe
anced
Ġparticularly
Ġdoub
Ġjournal
ĠRom
Ġdespite
Ġclaims
ĠChar
Ġanswer
Ġsociety
ĠLondon
Ġdefense
Ġcarry
entially
aming
Ġguy
Ġextra
ension
mp
ĠDonald
isions
Ġattacks
Ġrequired
erve
rench
illed
Ġbiggest
vertisement
ĠEast
Ġexactly
iers
Ġpaid
ĠMore
ibr
Ġexperien
Ġaren
lying
uclear
inese
Ġmodern
Ġremain
Ġquarter
Ġofficers
ett
Ġhundred
Ġcross
Ġexcept
utions
ari
Ġtable
Ġpractice
Ġnatural
inally
Ġmiddle
erc
Ġ27
Ġcertainly
Ġdro
add
oses
ĠSaturday
Ġstories
ĠNet
Ġhistor
Ġgas
Ġproducts
Ġsurv
Ġlooked
Ġsometimes
nces
Ġstuff
Ġrout
Ġscience
Ġfinally
Ġuser
AM
Ġsummer
Ġmovie
Ġblood
ospital
aves
Ġcommunic
Ġaw
ously
Ġlay
Ġchanged
Ġones
Ġleading
Ġdescribed
ĠSand
Ġimag
Ġterm
ĠFebruary
fl
Ġprison
Ġconvers
ny
Ġdetails
icks
Ġstarting
ĠSpe
Ġquality
Ġoccur
Ġpan
hib
Ġshowed
Ġnamed
Ġgiving
Ġult
Ġremains
ĠMcC
uing
Ġregion
pper
Ġprovided
Ġcosts
akers
ĠSoc
arr
Ġdamage
Ġmob
Ġdanger
Ġfit
aught
ĠTH
ĠTur
Ġchief
Ġpoor
Ġpath
ĠMor
ida
Ġeducation
Ġmultiple
Ġcontinued
enge
ĠInt
Ġgrowing
No
Ġdemonst
ĠChe
Ġ*
Ġparts
yl
Ġ26
Ġwriting
Ġcomments
Ġ28
Ġment
Ġmaintain
Ġsafe
Ġassist
Ġthinking
ĠDes
inary
ĠRepublicans
ĠEven
Ġpurp
Ġrequest
Ġwrite
Ġfix
Ġitem
Ġpurch
ables
Ġdied
ĠDemocratic
ĠCoun
FL
ago
Ġready
coin
Ġwouldn
Ġimplement
23
Ġincreased
Ġculture
fort
Ġefforts
Ġvoters
ux
pre
Ġcamer
Ġmill
aly
....
oper
Ġreading
mitted
iminal
Ġfile
Ġusually
Ġcalls
Ġspot
Ġeffects
Im
ĠGener
zz
Ġperhaps
ban
Ġalone
arian
iles
ĠFirst
Ġalthough
Ġtowards
ĠLeague
de
Ġconsist
ĠBill
ĠTexas
Ġselect
Ġguys
Ġstandard
ĠMichael
Ġsubst
Ġcele
Ġbeyond
Ġdirectly
Ġplatform
ĠChinese
Ġ(@
Ġhous
using
itute
Ġspeech
Ġreality
icated
Ġkids
ĠJames
Ġavoid
Ġthroughout
Ġfootball
Ġstudent
ara
Ġcouldn
rowd
BI
Ġunf
ford
Ġimmediately
oul
Ġrob
Ġincludes
Ġcat
Ġconcept
egr
Ġcenter
Ġchoice
Ġscene
Ġcomplex
anch
Ġadditional
sp
ĠMon
Ġchalleng
ĠCons
Ġwife
Ġclos
urt
Ġtro
Ġrecomm
Ġresearc
Re
Ġepis
hest
itor
All
Ġver
ĠMinister
Ġsle
Ġcorpor
Ġâƀ¦
Ġdesigned
ĠSer
urg
agon
Ġremember
Ġsoftware
Ġsafety
ĠIndian
wise
Ġgone
Ġil
astic
ports
Ġcast
Ġsell
Ġtoward
Ġagency
Ġten
Ġofficer
aches
Ġfigure
Ġpiece
Ġbrain
omen
Ġbattle
ĠJack
men
Ġcounter
Ġdebate
airs
ression
ston
Ġthousands
adem
Ġswe
rupt
Ġopin
Ġahead
icient
Now
imum
Ġrelative
irth
Ġletter
Ġreceive
Ġpressure
ĠÐ
ĠBo
Ġblog
ilies
ampions
Ġ>
Ġsil
Ġmoved
Ġlaunch
Ġappears
Ġoption
ĠPlay
Ġpassed
Ġut
Ġprec
Ġstage
roy
oes
Ġ60
Ġclean
ĠServ
olute
ĠII
atever
berg
OT
Ġproperty
27
Ġhelped
amb
Ġdrive
ĠApple
just
Ġalleged
ĠGreen
Ġtwe
new
Ġdisapp
Ġtour
Ġmeaning
Ġrock
Ġdog
Ġx
Ġcris
itation
ĠAssoci
Ġsuspect
Ġdate
ĠRich
aughter
Ġmoving
Ġscore
ĠDemocrats
Ġorganization
Ġsat
Ġconditions
Ġtouch
Ġdark
Ġcommand
ĠThen
Ġign
?"
Ġreasons
Ġbudget
Ġpark
more
Ġnuclear
Ġmyself
Ġnom
Ġdeg
Ġhappy
Ġdevice
Ġdifference
rief
ĠSim
Ġmaybe
chan
Ġbeginning
AD
Ġcopy
Ġnature
Ġfailed
wood
Ġfan
Ġcharacters
yan
Ġcomputer
Ġencour
Ġaim
ĠMart
Ġtitle
Ġwall
Ġcompared
Ġleague
ocked
ĠSuper
ivity
Ġestim
ĠVal
ĠStar
Ġcollege
Ġeyes
Ġshown
ĠEnglish
Ġcentury
Ġpowerful
ĠDay
lease
ource
Ġbal
aint
Ġlimited
Ġyes
Ġband
Ġcontribut
Ġpositive
Ġforced
Ġsche
Ġnecessary
Ġrefer
Ġcandidate
Ġstra
Ġdisp
35
cient
Ġbooks
Ġtrust
AP
ĠFrench
Ġlargest
26
Ġarch
enty
Ġsal
ĠHere
Ġconference
ĠRober
aud
Ġnote
Ġanalysis
ufact
Ġspending
Ġpresidential
45
ĠOf
Ġcitizens
orks
Ġschools
igration
ĠSyria
Ġthrow
venue
ĠBen
Ġaware
Ġmeant
Ġexecutive
Ġeventually
My
Ġphysical
Ġfollowed
Ġfeature
Ġtreatment
Ġcrowd
Be
ĠTor
ĠWind
Ġfirm
Ġstreng
Ġconfir
Ġmix
Ġbott
ero
Ġcorrect
orney
Ġ29
ares
ĠDis
Ġgrad
Ġreligious
Ġeasily
Ġautom
Ġesc
Ġpus
band
board
Is
Ġcool
etro
Ġ196
Ġfamilies
Ġilleg
ressed
craft
cul
rated
Ġactions
Ġoverall
ĠAir
ĠMex
Ġallows
Ġgives
Ġfeed
ĠÂ£
):
Ġsusp
ube
Ġyourself
By
Ġdraft
bum
ken
Ġsmart
Ġappeared
Ġdetail
Ġincome
iring
Ġanaly
ĠBel
Ġsigned
New
encies
Ġcentral
Ġideas
Ġang
ĠGovern
Ġsenior
Advertisement
Ġfrequ
Ġweapons
ID
ĠBre
Ġhar
Ġdisplay
Ġpromot
Ġnice
Ġcredit
Ġdecades
Ġpsych
Ġpolitics
Don
Ġcrime
OM
EC
Ġuses
inn
Ġdoor
Ġdise
uty
ĠInternational
Ġunique
28
Ġaltern
Ġlif
According
Ġdrop
Ġsales
mar
Ġdeveloped
Ar
resh
Ġcustomers
ET
Ġbenefits
Ġconflic
urance
Ġrelated
Ġcrisis
ĠSchool
Ġmist
erry
iable
Ġpredict
Ġnoted
ĠCap
29
ĠAustralia
ĠEU
Ġtruth
box
part
Ġgoals
iny
Ġindividuals
Ġcharge
ĠEarth
Ġbeaut
Ġcontinues
onents
ĠUnion
ĠArab
Ġobserv
Ġrap
Ġchallenge
Ġsto
nown
Ġapparent
ĠAngel
itely
ĠSmith
Ġlic
Ġprojects
Ġpeace
Ġmeasure
ĠPolice
oti
Ġintelligence
ĠChristian
Ġpreviously
ĠGermany
Ġfully
Ġrule
Ġmanager
Ġbrother
Ġrates
Ġadvant
Un
change
Ġexpand
Ġclearly
Ġreform
Ġlines
net
Ġsuccessful
riage
Ġhighly
Ġlarger
ounds
21
Ġtraff
Ġspread
iance
Ġseemed
ĠCouncil
Ġstraight
Some
Ġcriminal
ĠComp
Ġminor
Ġemb
ki
ĠGeorge
Ġprograms
iced
attle
owers
ĠFranc
Ġincident
Ġresources
ĠTom
Ġgreater
Ġprimary
IA
inated
antly
Ġknowledge
Pro
Ġstudies
while
dom
Ġsave
orter
Ġweb
ategy
ean
Ġkept
Ġattract
ĠFlor
olic
Ġspir
Ġemot
que
Ġcolor
Ġfeet
ĠCr
sey
Ġrare
Ġreached
ĠAnt
secut
Ġarm
ĠHigh
levision
ĠInternet
ĠBrown
oday
iders
osh
Ġfavorite
Ġplaces
rs
ĠRec
Ġregular
wide
ota
vere
Ġmanufact
Ġlaun
ĠDef
100
Ġsend
Ġprem
ĠHam
roll
lick
icit
Ġknows
Ġshooting
Ġactivity
Ġpun
Ġsources
Ġnormal
icago
bon
term
ingly
onent
ser
ville
Ġstatus
Ġfighting
Ġvoice
Ġrise
ocks
Ġfine
Ġowners
Ġcaused
Ġclaimed
ĠMac
Ġenem
Ġliter
ĠRob
ĠUp
ĠGeneral
aith
EO
Ġoptions
Ġ2007
Ġintegr
ength
usion
Ġspend
ĠGold
ado
Ġcities
miss
Ġorganiz
ING
Ġended
iled
Ġresearchers
Ġcalling
Ġshut
Ġreflect
ĠLa
mission
mark
org
âƀƝ,
oles
70
roid
Ġprices
ĠEvery
Ġalbum
ĠFrom
ifying
Ġemployees
Ġfemale
ĠEngland
ya
www
Ġvirt
Ġhaven
Ġraised
mittee
Ġele
Ġjump
uana
33
Ġsupposed
itness
Ġhappens
Ġadding
Ġpolicies
Ġnames
Ġcharges
Ġpros
Ġtrou
ica
ribution
Ġbasic
iverse
uman
Not
ĠMag
Ġconcerns
Ġtraditional
Ġwait
inger
Ġplant
Ġabsolute
Ġacqu
Ġhospital
Ġfunding
ram
ĠBay
Ġprint
Ġslight
Ġcommer
rol
Ġpatients
Ġauthorities
Ġminister
Sc
Ġcreating
Ġfreedom
ĠAP
Ġmechan
Ġscen
ĠMo
Ġstyle
Ġseeing
Ġgrand
.âƀƙ
Ġbeat
Ġlik
ona
rian
Ġstation
ĠScott
see
Ġpush
ijuana
Ġbehavior
Ġbeg
Ġleaving
Ġcry
Ġimpl
Ġbirth
Ġir
Ġactual
EL
Ġensure
Ġoffered
pen
Ġagreement
ĠFlorida
Ġeth
soft
ĠHillary
Ġposted
Ġgold
ĠSun
Ġweekend
Ġgreen
ĠMost
ĠBer
ĠReg
Ġadult
alse
Ġweight
OU
.'
acing
Ġdetermin
Ġvac
Here
Ġrevealed
ĠWell
Ġapplication
Ġmostly
Ġvalues
Ġpropos
itude
ĠAlex
aby
Ġwilling
earch
Ġrank
Ġadop
ĠAccording
Ġestabl
Ġeye
Ġrecords
ection
âƀ¢
500
Ġenforce
http
Ġpicture
Ġbelieved
pri
Ġmer
uild
Ġbrief
ĠLet
Ġlearned
ĠLaw
Ġinstall
Ġstrategy
Ġappl
SA
igned
Ġchoose
istry
Ġdire
Ġwonder
Ġqual
Ġmassive
Ġdevices
Ġbenefit
Ġwild
Ġparties
ĠChicago
Ġlawy
ĠPeople
Ġuns
cher
Ġcars
ĠTrans
ĠPort
cont
ĠPhil
Ġarrested
Ġmount
Ġwhatever
Ġwat
ĠOh
ĠFrance
Ġstreet
Ġ;
Ġprovides
Ġwhom
Ġassault
90
liament
Ġasking
Ġinfluence
ties
Ġjudge
Ġlose
Ġfat
Ġfeeling
Ġoperations
Ġproduced
Ġtemper
ste
Ġcritical
ĠSecret
ĠLou
Ġnegoti
point
Ġmission
Ġenter
ĠBush
Ex
Ġimages
Ð¾
ĠStud
Ġconfirmed
Ġshowing
IL
Ġdistrict
ription
Ġruns
Ġpattern
gen
Ġtend
ĠMat
Ġborder
Ġresidents
orial
rav
Ġdebt
However
ĠÃ
aked
no
Ġcru
Ġteac
mine
ĠCommittee
udd
Ġopposition
Cl
Ġcelebr
ĠWall
ĠHealth
Ġsection
Ġdefend
Ġetc
estic
Ġproduce
icial
ĠCommission
Ġdrink
Ġindependent
ĠMod
ront
cell
ĠWhy
Ġbrand
ented
ags
ugg
Ġcore
ĠPress
Ġtick
Ġdigital
ĠBit
Ġhero
Ġadvoc
ae
Ġdollars
ocr
rial
Ġeffective
Ġsolution
ĠMal
Ġvill
Ġinterested
ĠSam
ĠKorea
BA
Ġhighest
ords
Ġmemory
Ġopening
Ġworse
Ġlearning
Ġresponsible
Ġtrial
Ġdaily
Ġkick
Ġtheory
ĠOther
Ġoffers
ĠPalest
Ġreplace
Ġrestrict
ĠGet
Ġmur
ĠOffice
Ġagreed
Ġtelevision
ĠFrancis
cience
ĠMicro
ĠBecause
Ġoccas
ST
illing
CC
Ġtrain
Ġinvestment
Ġvs
Ġtypes
iation
ĠWestern
aks
icians
Ġchair
Ġmiles
Ġmillions
uries
Ġchem
ĠJustice
ĠDel
Ġgenerally
Ġbasis
Ġproposed
Ġ80
ĠMike
ĠMil
ĠCup
These
ipe
Ġheavy
Ġexplained
Ġmap
ĠOur
AA
rad
Ġder
Ġbur
oly
Ġpartners
ander
ĠAdd
Ġopinion
win
Ġdefe
Ġonto
Ġprotest
Con
________
Get
Ġassociated
Ġload
rig
azing
ĠNFL
rate
oom
44
ĠFound
Ġmale
Ġbecomes
Ġreject
outhern
====
ĠSecurity
vest
Ġcoal
Ġobtain
Ġdestroy
Ġadvantage
Ġassum
ĠLiber
Ġcondition
Ġannounce
Ġhundreds
Ġachieve
Ġopened
eline
Ġunderstanding
odes
ĠJohnson
coming
icip
Ġsurround
ading
orthern
bert
well
la
upp
Ġinitial
ĠAtt
ĠBig
Ġsleep
36
Ġship
Ġmarriage
Ġmanagement
ĠWindows
Ġthus
Ġlimit
Ġborn
32
Ġbecoming
known
Ġphoto
Ġeasier
FC
ĠGreat
Ġrat
Ġlegislation
Ġcontrovers
Ġunlike
Ġelectric
ĠMany
Ġcamera
witch
Ġaccused
Ġspl
Ġneighbor
Ġdouble
Ġice
Ġspecies
lant
Ġshared
Ġjoin
Ġillegal
Ġ31
ĠLab
Ġ2006
Mr
Ġharm
Ġmachine
Ġserved
ĠJer
GB
Ġextremely
olf
Ġactive
Ġ35
Ġserve
Ġdocuments
ĠIslamic
Ġframe
za
Ġstrik
level
ĠDist
Ġaudience
BS
Ġlocation
ĠAM
Ġscientists
Ġbottom
Ġvictims
ĠArt
orrow
Ġwealth
Ġprofessional
Ġresist
ih
Ġreduce
Ġbelief
Ġnine
Ġsolid
Ġwinning
Ġmarijuana
ears
ĠUk
Ġnegative
75
iful
Ġcommunities
Ġreturned
ortunately
Ġbed
Ġincred
ĠPM
ĠInstitute
met
tered
Ġchurch
PS
Ġdepartment
irgin
ĠSanders
Ġran
Ġvictory
rey
Ġpurpose
Ġ90
ĠCommun
Ġamb
lands
Ġvehicle
Ġinternet
Ġleadership
ios
ĠHall
istics
Ġbomb
Ġmobile
ghan
Ġinstance
ipped
38
Ġseparate
Ġexisting
Ġnotice
Ġhearing
Ġdie
Ġexplain
Ġdoubt
Ġfaith
Ġteach
house
ĠYour
atically
Ġepisode
Ġwatching
Ġcomfort
ĠCanadian
ĠBank
Ġnotes
Ġradio
ĠEv
Ġfresh
ĠFin
Ġunc
Ġviews
ĠInc
Ġputting
asy
Ġsupporters
Ġconservative
Ġpurs
Ġargument
omas
Ġmicro
ario
acity
Ġlaunched
scrib
works
OL
Ġappeal
iliar
Ġitems
Ġcommittee
resp
ĠMad
which
Ġdefinitely
Ġdangerous
iller
PA
zen
Ġcoverage
Ġdirection
ĠOver
Ġcharged
Ġfloor
Ġsun
Ġmax
ography
34
EM
ĠCarol
ĠChurch
ĠFox
Ġissued
Ġdrugs
Image
ipp
Ġtask
Ġbackground
Ġcompetition
Ġtrend
Ġstated
vention
andom
ada
Ġtraffic
ĠFBI
Ġcommercial
ĠDirect
urb
itt
NA
Ġspoke
Ġsett
inct
Ġtransfer
Ġsuggested
Ġstructure
Ġsites
Ġhus
Ġnorth
ĠSince
ĠLike
Ġrestaur
ampionship
Ġlabor
Ġdecade
Ġrepeated
ĠGame
Ġreact
oman
Ġcards
Ġanimals
going
Ġnovel
ctors
but
ribute
Ġdaughter
anted
ĠSl
Ġdriving
Ġclosed
Ġworst
Ġcontain
Ġentirely
Ġded
ĠBritain
ady
gency
Ġdriver
ĠWil
Ġdisease
Ġtelling
iling
Ġsmaller
Ġdiscovered
Ġnor
Bl
akistan
Ġrefere
ĠPri
Americ
ĠLos
ius
Ġhack
hem
equ
!âƀƝ
ference
ĠQue
spe
Ġfalse
Ġcash
Ġconcerned
ulf
Ġplays
Ġsurface
semb
Ġsupported
annel
ulated
Ġtools
oyal
Ġcompar
Ġtransport
ĠChris
Ġexperiment
Ġfinding
night
Ġcateg
ãƂ
Ġaspect
##
Ġbusinesses
Ġ70
ĠUN
ait
Ġfarm
Ġplease
Ġolder
azon
how
Ġactivities
Ġrequires
phone
CH
Ġgay
ĠJones
do
ibrary
Ġstrength
48
Ġwel
andon
Ġinsurance
Ġconsequ
37
Ġlargely
Ġmurder
NN
ici
55
Ġexerc
Ġcaught
Ġcandidates
kins
ĠIsraeli
Ġallowing
icy
Ġblue
ĠAre
Ġannual
ĠKen
ĠTre
Ġtesting
ossible
Ġstrateg
ĠSup
Ġraise
Ġstock
arant
overy
ĠRobert
izes
Ġdecisions
Ġaccur
rick
Ġcontext
Ġfuel
ĠAc
SP
lor
osure
ĠUkrain
Ġconcern
Ġafford
Ġbelieves
Ġconstruction
Ġtruly
****
ĠTy
ĠMiss
Ġge
Ġjustice
igrants
Ġgeneration
Ġhighlight
Ġunit
rim
Ġpresence
ĠJewish
anging
!!
ĠSil
Ð°
tery
Ðµ
ception
ĠAfrica
Ġguess
ancy
Ġwitness
itable
Ġholding
ĠGree
Ġestablish
Ġlength
Ġplanning
bre
ava
ĠAfrican
Ġsequ
cknow
Ġrefuge
Ġplaced
Ġcatch
ĠAfghan
Ġsan
inter
ĠAssociation
Ġtells
âƀƘ
Ġscale
ey
Ġspokesman
Ġtim
nel
Ġrough
Ġattend
olly
ĠVer
Ġcells
Ġjoined
ĠPre
Ġmentioned
Ġinterests
Ġabuse
pective
ĠJim
More
Ġhasn
ĠPC
Le
Ġiniti
Ġenforcement
Ġkid
ĠGOP
Ġintroduced
Ġdeliver
Ġconflict
ĠMer
ĠMicrosoft
Ġphil
âƀƔâƀƔ
Ġupdate
Ġmissing
ros
Ġproviding
Ġwaiting
Ġcancer
39
Ġrecommend
ocracy
Ġestablished
isation
Ġeat
bour
ĠYes
Ġoccup
ĠFrank
ĠJeff
ĠAngeles
Ġremoved
Ġ2005
ula
Ġoffensive
ĠFore
ĠInstead
icon
Ġinjury
Ġsports
47
Ġfant
Ġdiscussion
vant
Ġoperation
Ġdownload
Ġuseful
Ġnewsp
Ġconversation
Ġhomes
ronic
Ġsouth
Ġcook
ĠCEO
Ġassess
ĠGroup
itz
formation
lig
Ġbanks
onto
Ġstopped
ĠStep
ĠConst
Ġobvious
ications
Ġmeasures
Ġmodels
ĠKh
Ġfourth
ĠMP
Our
season
DA
what
Ġbul
anda
Ġ2018
Ġfiles
Ġgirls
ĠLouis
Ġstick
cks
azine
mail
umn
Ġmanaged
iter
apped
ĠPalestin
oted
Ġfigures
oms
ĠTim
ĠLeg
Ġidentified
Ġgraph
ĠJud
ĠSal
Ġfinished
Ġfunds
Pl
ĠPakistan
real
Ġsetting
Ġconclud
Ġprefer
Ġhair
Ġcommitted
ĠMexico
49
Ġskills
kin
Ġappropri
Ġspirit
ĠRock
Ġveter
Ġfocused
Ġarrived
ĠTHE
Ġhousing
ĠVirgin
Ġkeeping
Ġtherefore
Ġacknow
Ġdetect
ulate
Des
Ġpartner
Ġexclus
igan
ĠAndroid
enses
ups
Ġearth
Ġtransl
outs
place
Ġtough
ĠJapanese
Ġ2000
Ġrelatively
Ã¡
ĠSupreme
owl
wing
Ġidentity
Ġfeels
rd
ĠMet
Ġotherwise
Ġsurvey
RA
ĠRyan
ocal
ication
itutional
Ġprotection
agn
Ġexchange
Ġowner
isf
Trump
Ġsteps
ĠInter
Ġtrip
imb
Ġhusband
ĠMont
Ġtweet
Ġconnection
ĠArmy
Ġslightly
ĠProf
eah
ka
Ġweak
ĠGovernment
verse
":
Ġcircum
Ġelements
Ġclick
ĠRichard
Ġstrike
Ġphotos
ga
Ġmere
Ġdefensive
dden
gar
Ġgain
Ġfle
Ġdepend
ucky
Ġcollection
onym
hens
Ġkilling
Ġroll
ighter
Go
Ġcorner
ĠMartin
ancing
odies
Ġsuggests
uct
Ġaggress
with
prof
Ġguard
Photo
Ġgender
makers
ĠCollege
Ġcommission
ĠAlthough
range
Ġdat
ĠSur
46
ĠIr
ĠDec
Ġmental
icide
Ġamazing
rees
ĠSub
hi
Ġplanet
ĠTeam
rency
ĠOut
Ġbigger
Ġfailure
ym
ĠJose
Ġsupply
Why
ania
ĠNor
Ġstarts
gers
Ġsides
hedul
iser
Ġfamiliar
Ġremind
Ġsust
Ġspect
ils
uate
Ġspeaking
ano
Ġtalks
Ġhappening
mas
gypt
Ġorganizations
Ġhate
Ġwindow
Ġarmy
ĠGood
ĠJoe
Ġnone
uke
Ġtaxes
Ġplanned
ĠPet
Ġthanks
ĠMary
Ġstruct
Ġpit
Ġdecide
Ġsudden
Ġwish
lo
Ġcrew
Ġcarried
Ġappoint
oston
Ġpet
awn
eless
agues
ynam
Ġregist
TC
Ġmulti
idering
Ġhelping
Last
Ġaward
Ġstandards
Ġ32
ĠFire
Ġrevolution
Ġenvironmental
].
ĠWeb
arsh
ĠThomas
olit
Ġscript
pm
ola
Ġseconds
gn
run
ĠResearch
Ġscientific
ĠBern
Ġimmigration
Ġstanding
ĠTheir
Ġ45
stream
ocol
Ġque
Ġbeer
Ġdomestic
imal
adium
Ġpair
uters
ĠAlso
ĠSecretary
ĠUs
Ġacadem
Ġcold
Ġvariety
Ġmarkets
Ġsch
fe
HL
Ġterrit
Ġdropped
Ġaccounts
!"
ĠAtlant
Ġfiled
erous
acks
illa
Ġbalance
Ġimpossible
ĠTer
aven
Ġinteract
Ġneighborhood
Ġdegree
Read
Ġturns
ores
itect
Ġpossibly
Ġappre
Ġoperating
Ġprinc
Ġalternative
Ġunion
Ġvotes
Ġvul
ader
Ġprofessor
Ġtack
ĠService
Ġincreasingly
ayer
ruit
Ġapply
Ġfellow
Ġcuts
stein
Ġhonest
ĠPrime
Ġunivers
Ġserver
vis
Ġdevelopers
arks
ĠSyrian
Ġapparently
abb
aren
Ġlived
Ġchanging
Ġworry
rastructure
ĠCarolina
Ġtests
Ġunits
Ġrich
ĠTwo
cious
icted
From
aded
Ġhumans
IM
ĠFoundation
ĠMos
Ġagencies
Ġsounds
ashed
Ġtwice
Ġultimately
obby
Ġlosing
Ġphilos
Ġauthority
Ġsoldiers
ãƃ
Ġanimal
gu
ĠImages
Ġsettle
Ġath
Ġschedul
Ġmut
Ġcolle
Ġcorporate
Ġabsolutely
Ġhealthy
Ġpaying
och
Ġequip
iams
Ġdeveloping
Ġsea
ĠTime
Ġcloser
ĠDen
Ġinnov
related
Ġseeking
Ġregarding
coh
roud
Ġskin
Ġexpensive
ansion
Ġpossibility
Ġbeautiful
Ġreligion
Ġapart
ĠCentral
Ġfundament
Ġexperts
Ġsolar
65
Ġyards
Ġvast
Ġwriter
Ġflight
ĠDistrict
ĠLast
Ġdeploy
Ġadjust
Of
Ġinternal
Ġtast
ĠUnder
ĠLat
31
ĠPeter
apers
Ġimagine
ĠJon
IV
Ġapplications
iot
ologies
Ġvision
look
state
osen
ĠFrancisco
ĠToronto
den
Ġsitting
ĠPlan
Ġtrail
Ġunless
ĠUSA
ĠJes
isted
Ġheat
Ġ2004
Even
Ġresponsibility
Ġcapacity
IP
atures
ĠMiddle
Ġerror
aine
ias
Ġsymb
Ġfol
Ġarms
Ġpil
Ġgar
pire
Ġcovered
idden
ĠBur
Ġfamous
ĠCamp
Ġforms
uzz
ND
Ġuniversity
Ġguarant
Ġtight
Ġpresented
ortion
oving
enced
ĠST
ĠEgypt
Ġearn
ĠPut
Ġconvention
under
Just
ĠPublic
Ġsurprise
Ġattorney
Ġelections
Ġestimated
Ġfif
ĠAri
Ġteen
Ġinstit
Ġvehicles
rible
ĠAmazon
road
Ġintended
Ġrid
Ġodd
Ġhelps
Ġoccurred
person
Ġstreets
uster
hand
ini
ĠBoston
ĠSol
Ġ=>
="
ĠMur
Ġsport
sen
Ġdetermine
ressive
ĠBitcoin
Ġexpert
alls
Ġconsult
uration
Ġbroken
Let
lets
Ġfired
Ġton
Ġflow
Ġdomin
ĠGal
porary
eder
LE
Ġshall
Ġreserv
Up
Ġtroops
ION
ĠThose
Ġhyp
Ġnar
terday
Ġpieces
ĠChief
Ġprepared
ĠMass
ĠCath
Ġrapid
gl
orage
ĠJo
Ġlocated
ĠSocial
Ġbaby
----------------
Ġconclus
Ġbringing
anche
ĠProt
Ġprove
Ġspecifically
ĠAny
Ġpotentially
Ġsector
Ġrandom
Ġjail
OW
Ġselling
Ġgovernments
ĠOnce
Ġscr
Ab
Ġequal
class
war
Ġfaster
Ġheav
ĠSpr
Ġboost
useum
vey
Ġclin
Ġproposal
oty
Ġfactors
Ġplenty
TH
Ġequipment
Ġcouncil
Ġera
Ġinfrastructure
Do
Ġstress
phas
Ġstars
ĠJournal
ĠRub
endment
ĠVirginia
Ġbreat
Ġprosecut
Ġvoted
Ġoffering
Ġcarbon
inent
Ġexpressed
Ġvulner
Ġcombat
ĠParis
Ġbroke
()
ureau
Ġclot
ours
Ġruling
ĠFederal
Ġretail
ĠGuard
Ġrefused
Ġdram
ĠDan
Ġelected
ĠOpen
ĠRiver
Every
Ġsecure
cean
Ġseasons
Ġconducted
,'
ht
Ġchallenges
Ġremove
isher
ĠSant
Ġmethods
Ġweapon
noon
Ġpointed
ĠIsland
Ġmaster
Ġremained
ĠAustralian
Ġprime
ENT
Ġtrig
Ġpositions
ĠCru
Ġdin
ĠMel
Ġcriticism
ipping
First
ocking
ĠMedic
ĠPlease
rog
onom
IG
Ġsale
olved
ĠFe
Ġcultural
that
Ġweren
Ġsignificantly
Ġbrow
etic
Ġoriginally
rie
ĠDuring
Ġaffected
Ġappearance
Ġcas
Ġtourn
Ġfacing
Ġgreatest
Ġfinish
ĠLee
Ġstret
yr
Ġyouth
Ġtele
ĠWho
ĠCur
Ġpercentage
ĠPhoto
col
Ġdetermined
Ġsigns
Ġinvolve
95
cel
Ð¸
64
Ġthank
Ġbought
Ġ500
lyn
ĠSing
standing
Ġchemical
ashion
Ġshape
Ġvir
Ġregime
Ġgrew
pired
Ġremaining
ĠSteve
lymp
Ġminimum
ĠSaud
reens
Ġindeed
Ġdream
rier
Since
Ġmarg
Sp
ĠBoth
>>
Ġmode
Ġherself
Ġvoting
ĠColor
Ġobviously
ĠForce
Ġreduced
ordin
ĠNov
Ġwood
ĠRem
Ġrecorded
Ġargued
Ġ1990
Ġrevenue
Ġtact
ĠRo
Ġwearing
aling
ighters
Ġleads
edia
Ġhun
Ġpoliticians
Ġplus
Ġcontrast
Ġswitch
Ġhandle
Ġpurchase
Ġthr
Ġsubs
Ġconcent
Ġproced
ÑƂ
Ġagent
arp
ĠWilliams
Ġappreci
Ġexperienced
Ġhurt
top
Ġexcited
Ġvideos
Ġhttps
cohol
Ġsupporting
DP
ĠHaw
mm
ownt
ĠFree
Ġsurprising
Ġminute
odd
Ġexplos
Ġbelong
Ġconsumers
Ġidentify
Ġconsidering
ĠPac
ĠConserv
ller
apter
Ġaircraft
Ġrent
Ġaid
CL
Ġpulled
gment
Ġbasically
Ġdifferences
ogue
ĠBook
Ġglass
Ġafternoon
Ġshift
Ġdiss
ĠRad
Ġdepart
Ġends
essions
Ġturning
Ġbound
Ġfilms
Ġspring
Ġprospect
ruption
ket
ĠCharl
hab
Ġmort
05
life
Ġtreated
Ġaccident
,[
01
Ġmotiv
Ġlisten
Ġseat
ĠPower
uts
Ġcombined
Ġconstruct
Ind
Ġseriously
Ġprivacy
apping
Ġevening
hered
hy
Ġopportunities
asp
Ġstruggle
Ġ195
Ġpanel
Ġenemy
Ġlots
Ġcompleted
ĠDaily
Ġvisual
His
Phone
pet
Ġtalked
Ġcart
Ġhopes
oral
Ġpassing
Ġid
Ġapps
osite
PD
Ġcalcul
Another
Ġwidely
ensions
Ġemergency
ĠHol
ĠShow
Ġsuit
Ġelement
amm
Ġast
anged
SS
aled
ucks
Ġpowers
ato
ĠRel
ĠBBC
ĠOlymp
Ġburn
TV
Ġdiscl
Pe
Ġplants
Ġflat
ĠSpace
Ġliberal
raud
obe
Ġopposed
Well
Ġproceed
ompl
Ġcopyright
oking
ĠProject
Ġadvance
Ġfactor
Ġdistance
Ġ2003
ivered
Ġdismiss
plom
Ġattempts
Ġtun
ĠMatt
ĠRoad
abilities
Am
ributed
ĠIN
Ġtrouble
unction
Ġhol
Ġcollabor
Ġdefault
sts
idel
ĠBet
Ġzone
ĠJackson
Ġupgr
rawn
ita
Cont
Ġreaction
Ġstorm
Ġreporters
ĠMem
Ġfrust
PR
nell
mosp
adow
Ġwrites
mond
aints
Ġtypically
ĠToday
lines
respond
UT
Ġpages
Ġinstruct
ternal
eds
Ġreference
Ġpackage
Ġbodies
zer
Ġmatters
free
42
Ġdenied
care
edd
App
Ġquant
Ġdisappoint
Ġsem
Ġexplo
ĠNAS
Ġoptim
ache
Ġquiet
Ġentertain
Ġmal
Ġresponded
Ġapproved
ĠTurkey
Ġsatisf
aped
Ġbroadcast
esters
Ġinstitutions
Ġadvert
Ġstands
ĠDirector
Ġsets
estival
Ġelimin
isters
razy
Ã¤
Rep
ĠPenn
Ġvalid
host
Ġrenew
ĠOhio
elly
0000
Ġsplit
Ġsevere
ĠWilliam
Ġsac
Ġcapable
Ġ2001
Ġ//
Ġpitch
abin
aniel
Ġcaption
Ġcloud
Ġloved
Ġtechnical
Ġgiant
pass
Ġcann
Ġtradition
rant
Ġprompt
Ġbull
Ġconfident
uous
Ġconfidence
Ġnumerous
Ġreportedly
ĠMa
Ġfaces
],
writ
Ġweather
Ġfly
Ġtransition
rid
Ġ36
ĠSystem
ĠAfghanistan
Ġgra
ĠSqu
Ġcreation
De
Ġperspective
Ġunable
Ġforget
ĠLabour
ĠYet
43
astern
employ
oken
ĠMedia
angers
II
unte
Ġcraft
Ġsubstant
Ġcooper
Ġviolent
Ġsuffered
ilit
Ġcoast
Ġmand
ampion
Ġpictures
Ġexperiences
Ġapprox
abled
Ġroute
88
sex
Ġflag
Ġadvice
ĠAndrew
usiness
Ġdeclared
ĠWal
Ġordered
ĠHuman
razil
Ġcrimes
Ġcoff
Se
Ġproud
ishes
Ġreporting
Ġmessages
Ġcircumst
Ġfindings
ĠLin
Res
Ġeval
ulations
Ġexcell
Over
Ġdeclined
Ġexplains
Ġdelay
Ġ\
ĠFollow
Ġnewspaper
ounded
Ġconnected
ilty
Ġshouldn
evin
oves
Ġongoing
can
Ġvan
dule
Ġmovies
Ġpicked
ionally
resents
77
Ġadmitted
Ġdelivered
During
Ġguns
ĠML
ĠScot
Ġwalking
Ġagents
called
Ġprin
tion
Ġeditor
Ġthoughts
Ġmarried
ĠTra
Ġauth
Ġemails
Ġappropriate
Ġemphas
uations
Ġedge
Ġarchitect
ĠGrand
Ġleaves
Ġupdates
Ġaccompl
OD
Ġgather
ĠMuslims
Ġforg
ansas
ĠWood
Ġquarterback
Ġsession
ooth
41
ĠTechn
Ġpool
ĠScience
cos
Ġinjured
arn
Ġpublicly
ellow
ĠSov
Ġstatements
Ġperman
Ġlegit
arl
nergy
MA
Ġconfirm
ĠLake
Ġourselves
Other
Ġrealize
Ġrot
Ġdrivers
ĠAv
ĠDou
TA
mates
,âƀƙ
Ġarmed
essor
Ġdial
cons
Ġlawyer
ourney
Ġrail
Ġreaders
reland
Ġsad
Ġcontains
Ġargue
ĠRev
Ġtalent
Ġfilled
ĠSum
Ġallegations
Ġactivists
ĠChristmas
Ġdynam
Ġ1980
ĠMichigan
date
ĠBack
ĠRon
Ġcrack
Ġtransform
Tube
ĠIll
Ġbuildings
ĠRead
long
Ġwear
Many
Ġterrorist
Ġsam
Ġtree
Ġexercise
enda
Ġlabel
Ġeffectively
Oh
Ġpractices
ala
Ġsubsequ
ĠJul
ĠSher
uls
Ġflo
TS
Ġfish
ette
enture
Ġshop
Ġexamples
ĠHy
Ġpatient
ĠGen
ĠSeattle
Ġobjects
Ġtech
ĠSee
Ġsecretary
asure
Ġrain
Ġmissed
Ġcauses
illy
rum
Ġdebut
ĠRod
gia
Ġessentially
66
amin
Ġmoral
orders
ador
word
acter
ĠWork
def
arters
ĠUkraine
Ġcentre
Follow
ĠVict
bur
ĠStan
ĠID
icing
Ġinjuries
ĠPhot
Ġmotor
ĠiPhone
Ġartist
Ġclient
Ġbond
Ġthinks
iat
orse
ouston
Ġpure
Ġhell
Although
ĠSaudi
Ġfacts
Ƃ¬
Ġdesire
agers
aza
Ġske
orry
Ġlinked
Ãƭ
Ġgovernor
Ġmaterials
Ġperformed
Spe
Ġfranch
esome
Ġsuc
Ġphilosoph
Ġinitially
iest
ĠSign
Ġnecessarily
ĠBat
ĠFer
Ġexpansion
Ġscheduled
water
ERS
Ġwarned
Ġdiplom
Ġadvanced
Ġing
Ġexplan
Ġvari
Ġeverybody
Ġjoint
Ġdecre
Ġresolution
Ġincreases
enger
Yes
Ġaccepted
Ġincor
Ġmyster
Ġfaced
Ġbare
illance
ĠMount
Ġannouncement
Ġfollows
Ġnations
Ġplayoff
ĠLife
Ġabandon
ĠSecond
Ġradical
Ġathlet
Ġneither
Ġyesterday
gent
Ġdatab
Ġnearby
Ġdistribution
otic
Ġapplied
irty
Ġmagazine
Most
athan
rich
Ġmir
Ġconsequences
Ġdoctor
Ġlisted
Ġfort
uy
ĠColumb
Ġatmosp
American
Ġsurprised
Ġoffense
Qu
itors
ĠCNN
ĠRE
Ġspons
Ġbegins
ĠWeek
Ġthreats
sembly
Ġrepresents
ĠJews
ĠGM
ĠAff
Ġenh
Ġmoves
Ġremark
ĠTO
Ġpra
Ġsongs
kay
Ġchart
Ġbehavi
omin
Ġride
Ġadds
Ġwithd
Can
ÃƂ
Ġimproved
Ġphen
ĠBlue
Ġbot
Ġwarm
Ġaf
Ġalcohol
rip
ĠAT
Ġoutput
law
Ġflood
ĠDevelop
ĠHen
whel
edy
Ġshots
Ġfill
ĠVol
Ġalt
Ġstood
Ġbrings
Ġpushed
Ġguilty
ĠRomney
ĠKim
Ġsubscrib
85
Ġentry
ocratic
ĠBrazil
Ġdemocracy
Ġboys
Ġ33
Ġrow
ĠSwed
Ġconfig
Ġrestaurant
ĠNBA
Ġlawsuit
ĠDev
ĠIreland
acle
Ġmanufacture
Ġreceiving
Ġrein
ĠBarack
Then
Ġtrib
Ġtotally
ĠOnly
Ġdiscussed
Ġsought
Ġrising
Ġentered
ĠISIS
ĠBoard
Ġconsistent
Ġhistorical
twitter
ideo
Ġstorage
Ġcorrespond
Ġplane
Ġcombination
Ġscored
Ġinput
Ġ300
Ġsymbol
Ġbright
Ġbutton
irds
Ġsucceed
stood
Ġcreative
Ġinvestors
Ġsquare
Ġarticles
Ġ2002
Ġisland
mes
Ġdeaths
Ġfunctions
Ġnetworks
Ġclasses
Ġunlikely
alty
Ġheads
ician
Ġboss
Ġnative
icious
Ġlie
Ġsav
ĠLib
Ġroughly
Ġconsumer
ĠStr
ĠWhe
ĠWalk
ĠPrem
fortunately
ĠMs
Ġstring
ĠMaybe
Ġheavily
ĠAnother
Ġfairly
Ġtemperature
arden
Ġkit
Ġexistence
ĠIts
ĠAsia
Ġcontest
Add
Ġplot
issions
dis
ĠCub
Ġresident
usal
Ġtargets
ĠBob
Ġresc
ĠKorean
ican
duc
Ġlock
Ġyounger
Man
',
Ġcolleagues
PU
Ġlibrary
Ã¶
Ġrally
Ġparliament
Ġprotests
Ġanywhere
oked
ĠSports
ĠSky
Ġbike
zona
Ġbreaking
ii
Ġgrab
Ġsym
Ġstores
Ġexpression
Ġwaste
Ġchain
Ġblow
Ġwarning
Ġimportance
Ġdefined
Ġbuying
Ġmanage
Ġprohib
Ġclassic
Ġcere
Ġsnow
Ġadults
Ġillust
ĠEach
See
Ġmarketing
Ob
Ġlinks
Ã³
iques
Ġshif
born
andal
ĠClub
Ġtow
ĠHist
Ġfraud
OC
Ġfacility
ollywood
erences
Ġhardware
Ġschol
Ġallegedly
Ġ37
Ġregulations
pret
Ġdoctors
Ġbon
ĠColorado
Ġcurrency
Ġhousehold
Ġreplaced
agan
Ġessential
opy
Ġempt
onna
ĠRam
Ġsomewhat
ĠDiv
press
86
Ġnav
Ġfavour
power
Ġpromise
ĠDC
ĠBoy
Ġlaugh
ena
Pol
ĠRights
Ġholds
Ġopposite
ocket
ÑƁ
Ġmoments
west
Ġhat
tering
Ġopponent
Ġbug
ĠFar
cho
Ġcampus
Ġacts
Ġrum
etroit
Ġversions
Ġmotion
Ġmetal
hips
Ġevolution
ometimes
Ġvice
anish
Ġrelevant
Ġsees
ĠImage
Ġbag
Ġindustrial
Ġzero
IR
Ġsick
Ġdownt
oma
Ġclosely
ĠAnn
hetic
Ġemotional
chen
game
IF
ĠYouTube
ĠYear
va
Ġfewer
Ġdivision
olve
Ġadm
Ġharder
Ġcustomer
Ġhoping
ologist
Ġtom
ĠBrook
Donald
En
ĠValley
Ġhur
ĠGra
Ġmechanism
ittle
ml
ĠHouston
ĠElect
inem
Ġreturns
NC
atell
Ġvolunte
Ġparticipants
Ġextent
Ġintention
po
alian
esc
ellect
Ġexcellent
ĠSoviet
Ġacknowled
Ġsyn
ulous
oming
ĠMot
Ġbatt
ĠGames
Ġsquad
greg
Ġcircumstances
pan
Ġfashion
Ġisol
Ã¼
otal
Ġimmediate
ĠEric
Ġsuffering
ĠWatch
str
Ġlies
Ġtiny
Ġauthors
Ġ38
Ġgrown
ĠGar
iger
efully
Ġimmigrants
Ãƃ
print
ora
Ġkinds
utch
Ġ49
ĠDie
Ġcheap
Ġmine
Ġdetailed
ordan
ĠHel
name
Ġfeatured
ĠWik
ĠEr
ĠSar
ayers
Ġmeat
Ġunus
ĠAut
Ġcompetitive
Ġdescribe
Ġformed
ĠHome
ĠIP
friend
nic
certain
Ġcarrying
Ġtournament
Ġtermin
Ġtrick
Ġrelationships
Ġfundamental
kel
Ġwave
Ġcycle
obb
Ġcrazy
ĠCy
Ġsigning
ĠWay
Ġguide
Ġwins
ĠCatholic
Ġearned
08
Ġdecline
Ġregional
nam
ensus
style
Ġembr
Ġstrange
ĠPalestinian
ĠJesus
ĠLong
Ġancient
Ġfrequently
06
Ġacting
ĠPutin
Ġmanner
Ġefficient
rome
Ġpushing
ĠCIA
Ġcomfortable
ĠCard
Ġpip
ORE
Per
Ġsharing
Ġwire
Ġskill
ĠEconom
ockey
chers
Ġinstru
ĠEll
Ġowned
bar
Ġcommitment
Ġalongside
ĠOF
uated
anes
ĠLord
09
ĠDavis
rison
Ġcontroversial
Ġartists
Ġreferred
weight
Ġegg
Ġmouth
Ġrepeatedly
Ġ48
ĠTop
ï¿
Ġ34
FP
awa
Ġattempted
Ġfemin
umber
Ġupdated
foot
Ġcert
ua
Ġpregn
ĠOld
Ġschedule
vin
xy
ĠPS
amily
adel
Ġdedicated
Ð½
ĠAL
Ġsentence
Ġupcoming
ĠRight
ĠNY
ĠDown
ĠDi
Ġcolumn
hus
Ġdepth
Ġpled
Ġvirtual
uable
Ġjourney
Ġstruck
Ñƀ
Ġdesk
Ġstudio
Ġrealized
ĠEnergy
Despite
ceived
%)
ographic
ko
ugh
Ġmedic
DS
Ġserving
iami
Ġwalked
rive
iveness
Ġking
Ġring
Ġreput
you
Ġurban
phy
07
ĠCle
ĠCharles
ĠWild
Ġtargeted
Ġchannel
Ġassets
luding
Ġtort
Ġinspired
Ġhotel
ĠArizona
Ġposts
Ġnewslet
Like
Two
ĠSupp
Ġuniverse
Ġagenda
Ġcausing
Ġwatched
Ġsuicide
Ġstream
Ġoverwhel
ĠPy
Ġusual
Ġsurveillance
ĠMen
Ġintent
sole
People
Ġliqu
Ġsister
Ġopponents
Ġchairman
Ġdu
ĠWars
ĠCruz
Ġmainstream
gor
bel
Ġlatter
Ġhall
Ġsurrounding
Ġfolks
Ġknowing
Ġorders
ĠInf
Ġremote
Ġ75
Ġsand
Ġliterally
ĠJava
Ġobserved
ĠAgain
Ġsubsid
Fr
ĠDefense
Ġinfl
Ġapproval
acc
ĠVan
iments
Ġbasket
rence
burg
Ġteachers
azi
avor
izz
Ġwinter
iciency
alle
Ġexciting
aze
iro
aylor
ĠTal
Ġformat
boy
Ġcongress
Ġprotected
ati
Ġnoticed
Ġsimpl
Ġdealing
ĠYoung
rations
ĠChild
Ġprecise
67
xual
Ġdeeply
ipl
Ġcommunication
Ġgang
Ġsending
Ġforth
ĠJr
Ġfasc
Ġbattery
Ġwal
mun
Ġsky
Ġnarr
Ġfixed
post
abis
Ġaside
Ġrequirements
Int
Ġproperties
rors
Ġalive
Ġnarrow
Ġwake
allas
Ġpassion
ĠArch
onymous
Ġeating
Or
ensity
Ġmistake
woman
Ġexplore
Ġcoffee
ĠPan
Ġ1970
Ġrape
Ġvolume
Ġpromised
Ġdiet
acking
Ġrisks
Ġexhib
ĠPolit
ĠFort
Ġsweet
May
âƀƙ.
ĠEnter
ĠWat
Ġneut
Ġinvolving
Ġwage
Ġselection
ĠMax
Ġtested
ether
Ġflu
ulture
Ġdefeat
Ġnorthern
Ġreward
Ġwelcome
ĠCast
Ġextended
Ġputs
Ġterritory
Ġphenomen
Ġunemploy
Ġrefugees
Ġsample
Ġheight
Ġapproximately
ĠKevin
59
Ġblame
ĠBrad
Ġanyway
ums
ĠDetroit
Ġdestroyed
obile
ta
Ġimpressive
ĠStephen
asks
Ġgod
Ġproof
Ġgap
Ġdry
ï¿½
Ġcrash
Ġunknown
Ġlocations
04
igg
Ġselected
apse
Ġwest
anges
gery
stone
ĠFil
Ġattacked
Ġmaximum
ĠMiller
ĠWilson
ĠTit
Ġpromote
Ġshel
aser
Ġmerely
Ġfranchise
arry
lv
Ġrequests
Ġsho
Ġretire
Ġsuddenly
Ġslowly
Ġprotesters
Ġdisag
dro
Ġteacher
ixt
Ġtypical
ogan
ĠWomen
ĠIns
ingu
Ġconver
list
Ġchose
ĠCamer
ĠClass
ĠLu
Ġmatches
Ġprote
Ġlicense
Ġproperly
Ġassume
oration
Ġdiscover
03
Ġwid
ĠPR
ĠMic
Rel
Ġworried
Ġmoder
fire
Ġabortion
owered
Ġallies
ao
Ġoblig
Ġterrorism
02
Ġsupports
ĠÎ
uilding
ÃƃÃƂ
inson
verty
Ġarguments
Ġadapt
Ġtheme
Ġconfront
Ġfacilities
Ġsustain
gender
Ġeast
Ġpal
Ġrecognize
igure
Ġfuck
ÃƃÃƂÃƃÃƂ
lies
Ġequival
mo
Ġobtained
Ġpoverty
Ġrub
ĠItaly
Ġnomine
Ġdeals
Ġfees
alo
itarian
osis
ĠHollywood
Ġunderstood
Ġcontrolled
VER
ĠBest
ĠDam
Ġtopic
Ġcritics
ĠSociety
ĠAgency
axy
ĠFord
Ġsole
ĠJersey
arity
Ġvillage
Ġdiagn
ĠAdminist
raid
68
Ġlikes
celer
han
sters
ĠFour
Ġevil
Te
Ġpunish
Ġdress
cript
Ġped
ĠGeorgia
Ġbunch
ĠCompany
Ġjournalists
John
Ġexposed
Ġregions
redit
ocation
Ġscheme
Ġcommunications
Ġtransp
Ġstim
Ġlimits
Ġsomehow
Ġstrongly
Ġhonor
Ġdrag
Ġresistance
lls
aire
aug
Ġchampion
ĠLabor
Ġconstant
Ġphase
ĠNASA
asts
ĠCarl
pool
Ġprofit
Ġtruck
Ġcondem
Ġescape
Ġpersonally
ĠNight
ĠDun
rimination
ĠLand
Ġbid
ĠNHL
ĠStand
Ġvacc
Ġdeck
CA
nesota
iform
Ġfalling
GBT
ĠNetwork
Ġsomewhere
ems
cers
Ġemployee
Ġharass
ads
Ġbear
ĠCD
iner
Ġcomparison
orted
ciples
Ġpolls
owa
Ġinqu
ĠLove
pected
Ġsouthern
oric
Ġdecent
cow
ĠSpanish
Ġencourage
Ġemissions
Ġ39
ĠKn
ĠView
enders
Ġempty
ĠMiami
Ġhits
oster
ĠCam
Ġdefinition
57
Ġpic
wan
Ġdirected
pes
Ġflex
zens
ĠOk
Ġmeetings
ĠEnd
ĠBell
Ð¾Ð
Ġcomprom
Ġwinner
intend
icken
Ġgotten
ĠDaniel
ĠTurk
Ġelectricity
aun
Ġchosen
Ġofficially
Ġbench
Ġstretch
Ġdatabase
Com
ĠDespite
Ġintellect
Ġspin
igation
Ġstronger
Ġdeleg
Ġpurposes
ĠDNA
Ġcutting
ĠTurn
Ġfold
rary
Ġextensive
Ġamounts
Ġdesper
Ġtrees
Ġanx
Ġideal
ĠAsian
Ġthread
Ġfifth
ƈƒ
UR
Ġgoods
Ġcolon
Ġdeveloper
Ġclaiming
unning
Any
Ġretain
Ġsoul
Ġcaptured
ĠThough
Ġfinds
Ġdriven
Ġpayments
asters
ĠJordan
ras
CS
Ġties
Ġreasonable
Ġdogs
âƖ
Ġsomebody
Ġending
ĠNations
Ġchoices
Ġble
Ġseats
ĠServices
ĠThank
Ġpod
Ġengage
Ġdrawn
Ġsight
CE
Ġparam
ĠDar
Ġthreatened
Ġruled
eping
ĠAttorney
ĠIrish
ura
ĠSea
Ġtrading
owed
Ġprimarily
Ġaspects
Ġfighters
ML
Ġanswers
Ġperfectly
irms
ĠAcadem
Ġincl
Ġrival
Ġparking
Ġrejected
ĠGall
Ġconstantly
ĠHun
fast
Ġpayment
ĠCat
Ġdistinct
Ġflying
Ġrig
Ġtechnologies
ĠReal
</
Ġcomponents
Police
Ġadmit
ĠScotland
Ġelsewhere
ĠDark
Ġconstit
Ġtur
Ġanymore
lder
Ġicon
Ġfields
Ġestimates
EW
sea
Ġsolutions
Ġresulting
78
ĠBru
Ġawesome
Ġencoun
Ġprovince
mod
Ġworldwide
Ġactor
Ġregularly
ĠMoore
Ġcourts
Ġnarrative
ĠUt
Once
Ġboot
Ġenemies
Ġmixed
regon
ĠOS
ĠDisney
sm
icer
Ġhouses
Ġnobody
ĠSk
inations
Ġcontrols
ĠWater
Ġletters
ez
apes
agram
iana
imp
Ġ42
Ġmurd
Ġmayor
Ġloan
Ġoutcome
ĠMS
Ġcontem
sell
Sec
vy
ship
ĠLight
onic
isan
Ġapartment
ĠSteven
Ġcoalition
Ġcontributed
ĠBas
Ġtank
Ġconcluded
ĠAdam
Ġexists
ĠTw
Ġfounder
ĠBrian
earing
ĠLew
Ġatmosphere
Ġprofile
Ġbrew
ĠId
Ġsituations
ĠChampionship
ĠAuthor
rates
Ġincredible
ĠConstitution
Ġsignal
otes
ĠRog
Ġaccurate
300
ĠVictor
otten
Ġunp
ĠWhere
ker
ĠSouthern
."[
Ġemployment
Ġclients
Dr
Ġkeeps
Ġinformed
Ġcontinuing
inity
Ġbaseball
Ġgenerate
Ġticket
Ġconven
Also
ĠConf
Ġweird
Ġtied
lock
adelph
Ġcategory
Ġinfect
ilarly
acked
Ġangry
ĠOrgan
Ġroutine
aron
Ġkil
Ġraising
ifer
Ġmachines
Ġregistered
Ġproved
there
Ġdemands
Ġgaming
ĠItalian
Ġincredibly
Ġcrucial
Ġstuck
ĠCivil
ĠDallas
cr
Ġterrible
56
MP
Ġfeedback
Ġupper
Ġplastic
Ġimper
Ġnewly
ĠJoseph
Ġconsumption
Ġdozen
Ġenthus
Ġestate
ali
rage
Ġinnoc
Ġmanip
ĠTem
Ġconscious
Ġbills
ĠCross
ĠSpain
ifications
Today
Ġwriters
Ġexcess
inding
Ġaggressive
Ġreporter
Ġcompens
Ġreturning
Ġstead
Ġprogramming
ĠThanks
Ġrepresented
Ġconclusion
98
Ġrus
ĠBowl
ĠAR
MS
Ġorigin
Ġassistant
adelphia
Ġroster
ĠMinnesota
Ġorganized
ria
Ġpenalty
lers
Ġdrinking
Ġpaint
Ġsatell
Ġgro
ĠProgram
Ġcapture
ni
Ġconspir
Ġinterpret
Ġexplanation
iscal
58
Ġcounty
iscons
essed
mont
ima
Ġ%
anny
gorith
emen
isconsin
Ġassistance
ĠRoman
Ġcomplaint
Ġru
Ġnut
LA
Ġmagic
Ġtall
ĠOper
Ġgranted
Ed
Because
ĠContin
star
Off
ĠParliament
Ġcomplicated
Ġaudio
Ġchances
Ġextract
rypt
ĠGi
Ġ1999
Ġhel
ĠEduc
era
Ġshares
Ġsuccessfully
esy
........
ĠIT
zy
Ġpilot
ĠEp
ĠHot
Ġmyth
Ġrecovery
ĠTest
Ġtechniques
Ġiron
ĠCare
ĠZeal
ĠSC
Ġscenes
ĠFre
Ġveteran
ĠWin
Ġ($
Ġdegrees
actions
ked
Ġsympt
thew
Ġlawmakers
Ġwestern
Ġoperate
Ġads
rating
Ġhabit
Ġaimed
Inst
anchester
Ġphr
rep
rete
Ġtaste
idency
Ġengaged
Ġprivile
Ġ55
========
Ġrating
Ġteaching
ĠOs
Ġacademic
itar
Ġtherap
Ġpasses
Ġdollar
hent
Ġautomatically
ĠPacific
Ġmonit
Ġblocks
abama
Ġattended
Ġpermanent
Ġsurvive
uan
Ġanticip
Ġenable
ĠLook
Ġextrem
ĠForeign
chain
%.
Ġmarked
itals
Ġhidden
Ġaccomp
Ġtitles
ĠSenator
ĠNBC
Ġtaught
aed
ĠLinux
Ġbom
Ġindex
everal
Ġelite
ibilities
Ġlawyers
from
Ġdepending
Ġvaluable
Ġinstalled
Ġchampionship
Ġroot
Ġcompre
mal
ĠBull
Ġdowntown
Ġequivalent
Ġsolve
rific
Ġduty
ĠSpecial
ĠBusiness
Ġ64
Ġpace
HS
Ġreputation
Ġuncertain
Ġphones
uine
Ġoverse
bal
ĠTaylor
Ġpersonnel
Ġpin
reams
aturally
Ġsufficient
Ġvisited
Ġwarming
Ġprinciples
Ġvulnerable
Ġenjoyed
Ġfake
ĠNick
Ġadvis
Ġnegotiations
inder
Ġgenerated
Ġexposure
Ġrecording
Ġcollected
Ġregardless
Ġdict
EA
Ġbitcoin
Ġelev
ãƀ
active
ĠKelly
ĠAnth
Ġcup
Ġpatterns
Getty
ĠTake
))
ĠAvenue
ĠJosh
bro
Ġdisaster
Ġcable
Ġ65
Ġchat
Ġworker
Ġmainly
Ġracial
quarters
ĠCoast
ĠViet
month
Ġpounds
Ġ150
ĠCall
Ġportion
Ġafraid
Ġinspir
ĠAh
Ġdefence
Ġbes
ĠEastern
da
ĠTony
Ġtracks
Ġbusy
Ġgrant
Ġshit
Ġintense
ĠSeries
ĠLGBT
orne
ĠStill
athy
Ġfunny
Ġapolog
Ġsurgery
ĠMoscow
mann
ĠColl
Ġpossession
Ġprominent
ĠMars
Ġcomic
ĠGer
ashes
97
ules
ĠRay
Ġthin
Ġengineering
Ġtroub
ĠKurd
this
Ġprocesses
ĠNation
fall
ĠKent
ĠCome
Ġentit
Ġâƀƙ
Ġunusual
raph
etary
Ġdescribes
Col
world
96
Ġresulted
Ġemerged
Ġtaxp
Ġgall
iler
Ġdim
Ġpropag
ĠIowa
ĠOregon
Ġcoordin
Ġcorruption
Ġstations
ĠInvest
Ġfought
ĠAD
Ġbrut
Ġextension
ref
Ġblind
Ġadopted
prise
ye
Ġcompete
Ġrecru
ĠZealand
Ġhadn
Pr
Ġ400
Ġmail
Ġeverywhere
ĠBalt
Ġcrypt
ĠHom
ba
Rec
Mean
herent
icate
ĠAli
Ġcontracts
front
Ġneuro
ĠLo
ĠDead
ĠRick
Ġfeelings
Ġfirms
idelines
âƀƙ,
Ġminority
Ġspr
cles
HA
Ġadvertising
tes
Ġrarely
Ġdiscipl
making
ĠNorthern
Ġsanctions
gun
ĠVeg
scape
ĠPhiladelphia
upid
Ġcameras
Ġexplicit
Ġstrict
viously
log
Ġenorm
Ġfinance
Ġcited
ifies
ĠBefore
Ġshortly
UL
ĠPolicy
olt
Ġexpectations
Ġimplementation
ogen
Ġrecip
cling
ĠGreek
Ġthick
Ġthousand
antic
ĠMu
Ġloud
istent
Ġaffili
urrent
orough
ĠNavy
Ġinev
rell
cus
Ġphotograph
Ġmedium
azz
ĠWisconsin
Ġscenario
ĠFood
ĠLive
Ġsup
ilton
Ġplug
Ġveget
Ġho
Ġvisible
LC
Ġlights
Ġcreates
Ġpriority
Ġven
Ġbridge
eland
inking
Ġobst
Ġagric
ATE
Ġpermission
ĠFoot
Ġalgorith
izon
Co
elect
Ġparticipate
aska
Ġwing
who
asion
Ġbrowser
ĠGlobal
Ġtag
ĠOl
ĠHas
Ġmel
Ġacceler
Ġdozens
ĠKingdom
Ġhistoric
Ġcomputers
Ġlaid
Ġbasketball
Ġlosses
text
ĠSaf
ĠAsh
76
ogether
Ġunw
::
Ġtor
ĠAmendment
Mar
Ġstrikes
Ġprinciple
ĠDevelopment
Ġformal
EP
igen
54
Ġscoring
obs
athered
Ġ44
Ġcounsel
found
++
Ġshock
Ġwonderful
ĠSP
Ġbehalf
abs
Ġuncom
profit
52
enth
Ġinterface
Ġestablishment
Ġtoler
ĠHenry
ĠGreg
amber
car
ĠMajor
ĠThus
Us
Ġgained
Ġfee
lete
she
Ġfounded
etime
Ġfoundation
jo
51
ĠESP
ilipp
Ġclubs
Ġcannabis
Ġju
Ġairport
ĠKey
ystem
Ġborrow
olis
weet
BO
Ġmanufacturing
Ġrely
ĠHit
aus
ĠPay
ĠAlabama
Ġgenuine
ĠRoyal
rators
Before
uer
Ġcomponent
Ġridic
osexual
Ġwheel
rative
ĠOak
Ġjournalist
Ġrelief
ĠSn
Ġsaved
Ġhole
Ġyield
Ġheaded
Ġcyber
Ne
ĠMoh
ependent
Ġgift
bell
Ġfault
Ġwithdraw
Ġindicate
Ġdrawing
Ġuniform
umer
ĠRand
ĠVis
arlier
Ġstable
Ġships
Ġ->
Ġbanned
Ġmagn
ĠMid
Ġfootage
Meanwhile
rous
Ġdoors
lan
Ġrecognized
Ġ1960
Ġcontaining
pread
ĠFC
Ġriver
ami
Ġstruggling
Sub
Ġspark
ĠAcademy
Ġwalls
Ġachieved
opher
ounced
Ġneighb
aning
Ġplate
Ġedition
ĠHT
portion
mate
Ġmovements
Ġdeliber
uce
teen
Post
Ġsharp
ĠAS
ĠSnow
ulating
ĠThree
Ġepisodes
Ġneutral
ĠPremier
ĠRet
ĠFund
Ġexception
etts
Ġproducer
________________
ĠFred
Ġdestruction
Ġ1998
oured
Ġbeliefs
Ġ47
ĠReview
Ġlegend
Ġpump
ĠMcG
Ġbacked
umin
Ġliked
Ġhired
idespread
cription
Ġroles
Ġlanguages
Ġprofession
Ġentering
osa
ĠVR
Ġinterviews
Ġhang
isp
ĠKir
eman
Ġtox
Ġphilosophy
ĠAdministration
Ġarrange
oen
interest
Ġflaw
Those
ĠNob
sylv
imore
Ġstadium
ĠAtlanta
ĠJac
Ġreduction
Ġdinner
ca
ja
Ġbath
ĠReport
iel
uper
ĠTurkish
400
Ġaver
Ġfinger
ĠNote
ĠConference
Ġtackle
Ġcha
burgh
Ġgonna
ĠDiego
ĠPoint
Ġcrop
ĠCentre
Ġfarmers
ĠManchester
Ġnominee
Ġ41
53
aching
ĠJason
Ġbarely
ATO
Ġstructures
Ġcontained
Ġsynt
ĠOtt
Ġdelivery
Ġconvin
%,
Ġprocessing
Ġdiscrimination
Ġincent
riers
ĠFair
erved
RS
ĠData
then
ĠArm
abinet
Ġintellectual
ĠRadio
amsung
Ġ46
ĠBry
ĠOK
ĠField
Me
ĠDid
Ġupset
ĠPerhaps
ĠMir
ĠEducation
sylvania
away
President
Ġchallenging
Ġproven
Ġrestrictions
rik
Ġforever
ho
https
olen
Ġelectronic
Ġhitting
ĠHay
Ġeuro
Ġunex
Ġreviews
ĠFed
ĠChristians
Ġ43
ĠNC
Ġconvicted
Star
Ġillness
Ġsmooth
page
Dav
ĠHor
Ġretired
Ġindicated
usive
Ġproducing
ĠAbout
ĠHarry
Ġrapidly
Ġrose
Ġhide
fr
Ġcorporations
Ġocean
iy
ĠRus
aying
owing
Ġlistening
ĠReuters
ĠUFC
ĠSat
Ġtechnique
Ġmo
yard
sels
Ġloyal
ĠNic
lessly
Ġrobot
Ġclimb
Ġnotion
Ġbegun
87
Ġutil
Ġrecognition
Ġren
ouver
engers
Ġperpet
Ġassociation
Ġmilk
inf
Ġasks
Ġwebsites
Ġdescription
ĠPack
Ġtickets
ĠPen
achus
Ġflash
Ġbra
Ġsuggesting
enny
ĠJudge
Ġexclusive
Ġreaching
Ġprepare
iti
ĠKansas
Who
ione
Ġbail
Ġfrag
Ġprogressive
Ġburd
Ġexceed
Ġequally
ĠHard
Ġhardly
Ġwidespread
ĠABC
Ġcampaigns
ĠMayor
Ġcontribute
udes
ologists
Ġbranch
Look
ĠRose
Ġgrass
Ġinitiative
ĠMarket
Ġethnic
Ġexternal
ikes
ĠCirc
uma
rient
Ġsensitive
Ġpractical
usted
elf
Ġunclear
Ġnormally
Ref
Ġrepresentative
pat
ls
89
thon
Ġwelf
ĠFull
Ġreducing
appy
Ġfriendly
bec
Ġcarefully
ĠArabia
ĠRef
lad
ester
ĠLy
PM
ĠLuc
Ġracist
Ġinvent
rical
ouch
PG
ĠCO
ĠNext
Ġrespectively
senal
rator
Ġtail
imm
ĠMcCain
ĠBernie
ancouver
Ġoverwhelming
Ġviewers
ĠBeach
stract
Ġwelfare
arrass
ĠFurther
Ġconvinced
UN
Ġsmoke
umes
Ġcollapse
Ġinvolvement
ĠLind
Ġthrown
pload
Ġconnections
heast
Ġterrorists
ĠBattle
Ġstrategic
Ġhook
Ġ00
ĠLatin
Ġrecover
omething
igrant
ĠOnt
Ġwine
Mc
inois
ĠMusic
rolled
Ġminds
Ġvital
Ġsettlement
Ġstatistics
Ġlists
Ġvary
ĠSir
Ġfeaturing
ĠESPN
ecut
ĠDig
achusetts
Ġbehaviour
Ġindependence
worth
Ġfantasy
Ġdevast
nedy
core
uties
Ġinvited
Ġcomplaints
Ġjoining
Ġscores
dem
Ġfiscal
Ġdeeper
abil
ĠPennsylvania
ifest
Ġsteal
Ġanger
Ġdeputy
Ġelig
Ġwars
ĠSquare
ĠTenn
Ġinvestigate
ĠTown
Ġsugar
Ġconstitutional
ĠIII
Ġscholars
ĠPit
ĠiOS
Ġanybody
Ġsubjects
ĠAND
Ġarray
Ġalien
FA
ĠUlt
ĠGov
Ġlobby
Ġownership
Ġframework
Ġunemployment
ĠDivision
Ġtransgender
bn
Ġimprovements
ĠSS
Ġmenu
Ġpeak
Back
Ġscreens
ihad
Ġinject
Ġluck
iversary
Ġdefine
Ġtasks
ĠXbox
Ġdemocratic
Ġscandal
icking
Ġjury
acon
ĠAnton
Che
ĠMinistry
Ġcos
ĠEs
Ġcomprehens
osit
ĠKat
Ġremem
Ġdiscovery
unior
Ġregister
Ġcasual
Ġcitizen
RI
Ġfab
Under
een
Ġroads
Ġdisagree
Ġfailing
ĠNever
ĠLittle
ĠJay
Ġdynamic
Ġserves
ĠCameron
ĠBrother
ĠMah
Ġtestim
Ġgathered
ĠStone
ĠInformation
Sm
Ġsoph
oding
Ġimplemented
Ġcontroversy
Ġcollective
Ġtrained
anna
ĠNSA
Ġneighbour
Ġfears
leveland
Ġsamples
Ġfiction
Ġprosec
agg
Ġestimate
ĠCommunity
69
ĠIce
ĠMedical
Ġ1997
ĠPhilipp
Ġreferring
Ġtip
Ġcaptain
Will
Ġ1996
Ġspaces
cific
ĠWalker
Ġversus
Ġlegs
ĠSanta
'.
Ġtemporary
PC
Ġnoise
ĠHD
Ġovert
Ġincorpor
Ġtone
Ġvisitors
Ġreven
Ġcivilians
Ġwages
Ġhypot
Ġsin
Ġremarks
Ġawareness
ĠON
ĠSpring
Ġrecommended
Ġstupid
ĠAllen
Ġheading
Ġhandful
Ġregulation
icket
ĠAction
ĠCore
Ġplatforms
Ġaccus
ĠAnthony
Ġaffairs
Ġtouchdown
Ġrural
Ġattacking
gener
Ġextend
Ġultimate
Ġattached
ĠVegas
Ġdiscussions
ĠRen
Ġhorse
ĠBrew
mad
Ġreprodu
Ġgenetic
Ġexpanded
Ġattempting
phones
ĠMatthew
Ġraces
including
iry
ĠQueen
Ġraw
Ġignore
ĠColumbia
serv
ĠPent
ĠGuardian
hour
ĠCook
ĠiP
itionally
Ġgear
Ġsymptoms
ĠPatrick
Ġsuffer
Ġsettings
ĠMake
âƀƔâƀƔâƀƔâƀƔ
alling
Ġsalary
case
Ġlicens
mary
GO
Ġtweeted
angel
Ġpublication
Ġbrill
Ġfactory
Ġsuspected
Ġpurchased
aret
Ġintervention
Ġeastern
Ġholiday
type
2014
Ġtheat
esh
About
Ġdispl
Ġranked
ĠBudd
Ġneck
ĠAustin
ĠConservative
ĠMuseum
ective
ĠRoy
")
Ġcro
Ġenormous
Sen
####
intendo
Ġcogn
Ġlogic
ultural
ictions
Ġimprovement
ĠAPI
Ġviewed
Ġingred
Ġentertainment
Ass
Ġlegitimate
ĠProfessor
ommod
Ġpresum
ĠAlbert
ĠMassachusetts
ĠBall
Ġ2019
Ġwww
News
Ġactors
Ġsubstantial
Ġhumanity
Ġinvolves
Ġresource
arms
Ġbrothers
Ġliquid
Ġrational
Ġseemingly
Ġsorry
Ġlayer
Ġloans
Ġrook
Ġinvestigating
Ġabsence
Ġproviders
Ġtomorrow
Ġfallen
Ġbureau
Ġgrounds
Ġcoaches
Ġstake
Ġresign
Ġouts
rec
Ġadvocates
ĠâƂ¬
RC
Ġinvestigators
Ġconspiracy
Where
Ġmedicine
Ġdramatic
Ġfulf
Ġmonitor
ĠChair
EST
repre
Ġovers
Ġchapter
ĠSeason
Ġcoc
oval
GE
lah
ĠHo
.-
Ġactivist
plete
ped
Ġboat
ĠCheck
aka
ĠControl
Ġjur
Ġsuspended
Ġpapers
Script
ĠGreece
Ġopinions
ĠSuch
ĠRoss
Ġmissile
ĠGolden
Ġceleb
ĠRevolution
2016
Ġstayed
Ġcovers
ĠRa
ĠHead
iverpool
Ġdiversity
otype
Ġbars
Part
Ġgam
Russ
Ġembarrass
xit
Ġoffices
ĠAcc
rets
ourse
claim
ĠPot
hot
ĠIranian
ammed
Ġdisrupt
cover
ĠWW
Ġpreced
Ġpoly
Ġforest
wered
Ġcareful
mat
reprene
vard
Ġamid
ĠHistory
79
ĠHospital
isting
ĠAle
Ġauthent
quest
ĠIllinois
ĠCBS
ĠSony
uction
Ġham
geon
Related
dit
ĠAp
74
72
rine
Ġtransportation
ĠVancouver
ĠGaza
Ġhanded
Ġprotocol
Ġconsistently
Ġmountain
Ġ52
Ġreads
ĠStat
Ġpref
Ġclothes
Ġattitude
iability
ĠShare
ĠKennedy
Ġporn
Ġprincip
ĠFreedom
Ġdepends
Ġmining
Ġpetition
Ġnoting
Ġwarrant
des
Ġconce
Ġcolors
Ġlowest
ĠAnderson
ĠTri
Ġaddressed
ĠFamily
bi
unes
Ġentr
Ste
ĠStadium
xx
Ġthrowing
Ġje
Ġfruit
Ġvirtually
!)
Ġstone
Ġfoss
ĠMean
Ġguarantee
Ġreferend
Both
??
Ġspeaks
ĠBaltimore
inch
Ġsteel
Ġclosing
Ġreader
dri
FF
Ġbuff
Ġpersonality
Ġappreciate
ĠCre
ĠIraqi
Ġsurf
ĠEnvironment
Ġnerv
iences
maker
Ġkm
keep
Ġhandling
Ġprofits
ordon
Ġgrav
Ġmarks
low
Ġtries
ĠBroad
Ġcontributions
ĠEngine
ropri
zed
Ġspiritual
Ġconversations
Ġfantastic
ĠTro
Ġlands
Ġconsole
ila
Ġhorror
ppers
".[
icity
Ġgains
Ġcovering
Ġtea
ivals
ĠHarris
Her
Ġhint
Ġastron
aval
Ġshoulder
scale
Ġwrest
Ġguest
ĠExt
Ġaccommod
uted
uits
Ġdepression
ĠCA
Ġ_
ĠLewis
Ġlucky
ĠBang
Ġencouraged
flix
amac
Ġjudges
Ġincidents
ĠCleveland
Ġdrew
Ġsubsequent
ira
Ġspoken
ĠHoward
annels
ĠBad
Ġbrown
Ġbacter
Please
ixed
Ġrhet
Ġranks
ĠGetty
Ġphotograp
Ġinflation
Ġinner
ĠIntelligence
ĠPo
itting
ĠBa
Ġmaps
abeth
ĠPatri
ported
ijing
plate
Ġdivided
Ġ1995
ĠNATO
********
Ġparalle
Ġdrama
ĠMexican
Ġdistributed
Ġgal
Ġinnovation
Ġswing
unicip
Ġcust
ĠUnfortunately
Ġpremium
Ġvoter
Ġpermit
Ġrevel
ĠKong
Ġtrem
Ġdance
Ġclim
pled
ĠLas
Ġefficiency
Ġpromises
ĠIndeed
Note
eding
ĠCH
ĠWhich
Ġballot
Ġ51
pie
ĠAdv
Ġtemperatures
ĠSamsung
Ġportray
Ġspokesperson
Ġlocked
Ġlying
Ġimproving
Ġthrew
Ġjoy
Ġdump
Art
Ġmusical
PP
Ġmistakes
dated
Ġshout
ĠStart
Ġhomeless
conf
Ġreplacement
eries
Ġcomedy
Ġchecks
ĠWithout
ĠMoon
Ġinstrument
ounce
ĠConnect
Ġacknowledged
Ġbarrel
Ġresponses
Ġprotecting
backs
ĠDet
Âƒ
Ġsilver
Ġcopies
heim
Ġles
ĠAC
Ġdad
Ġbreaks
ĠPlus
ĠBuff
Ġcommonly
Ġlets
Ġlegacy
itage
Ġprotein
Ġmathem
Ġjoke
amacare
erted
hop
arre
Ġpassengers
2015
Ġyellow
ĠMarvel
Ġnaturally
Your
ĠScient
Ġnomination
Source
Ġmeasured
aping
oded
alia
ĠUse
Ġabandoned
Ġmad
ĠPrince
Ġstudied
800
ĠFootball
helsea
Ġdiverse
argo
Ġacquired
ieties
ĠLyn
Cons
esty
Ġsoil
ĠMarsh
Ġdemonstrated
Ġblast
Ġrear
Ġfunded
Ġheadquarters
hesis
yo
Ġstolen
Ġscan
Ġcounts
Ġtape
Ġpartnership
Ġmidfield
ĠNOT
Ġ(âƀƜ
Ġupgrade
ĠCost
ĠAtlantic
yer
Ġmarch
Ġordinary
ĠAud
ĠNev
Ġrom
aware
Ġliterature
Ġplain
Ġstages
Ġâƀ¢
Ġassert
Ġ1994
high
ĠAI
Ġhelpful
Ġarrive
Ġexit
Ġscope
Ġfalls
63
dog
Ġignored
BM
Ġtwenty
eters
ĠMaster
Ġclock
Ġcompe
inction
Ġvirus
ĠTrib
Ġreferendum
Ġinequ
Ġunions
ĠDoes
assador
ĠGun
Ġconservatives
Ġrif
Ġgrid
Ġsymp
Ġfestival
Ġfro
Ġshopping
Ġwaters
ĠPop
Ġcapabilities
ĠBron
Ġax
lahoma
Ġusage
ĠHind
iate
zing
ĠEmpire
aeda
ĠAbb
ington
ĠIndiana
iley
Ġtransactions
erg
Ġhoped
Ġdistract
ĠAst
Ġguitar
VE
ĠEag
Ġsty
Ġramp
Ġassessment
ctic
Ġuniversities
ĠDave
Ġmoon
Ġmonitoring
ormal
acket
bridge
Ġrepresenting
Facebook
Ġratio
ĠDeath
encing
ught
62
ĠProv
Ġconventional
comes
UST
orge
Ġtrave
ĠSet
Ġtracking
door
ntil
ĠSometimes
61
only
shire
Ġhung
ĠSus
Ġreliable
Ġtie
Ġproposals
Ġskept
ĠHell
Ġreplied
ĠRos
fund
uh
Ġcriticized
Ġappearances
rimin
ĠHa
ecutive
ela
Ġracism
Ġinsisted
organ
Ġintroduction
Ġ2020
Ġappointed
dney
ĠBureau
olph
agic
ĠPass
cut
Ke
ĠLine
Ġbeauty
Ġconcrete
Ġreceiver
Ġsupplies
Ġperforming
made
ji
Ġbub
Ġexch
rite
Ġvisiting
ĠTechnology
ĠDenver
ocument
EE
omes
ĠCapt
theless
RL
Ġletting
AND
Ġdeficit
Ġclassified
ĠGalaxy
Ġauto
HT
Ġrender
Ġabsor
ĠOrig
Ġswim
Ġaccomplish
Ġprogramme
Ġpresidency
crib
Ġblocked
ĠSweden
archy
Ġdust
ĠUtah
Ġdrove
Ġlandscape
Ġcance
ĠPortland
plus
Ġdismissed
ĠLA
Ġhyper
Ġabroad
Ġbonus
ĠJam
ĠTour
har
Ġsequence
Ġpredicted
Ġsenator
Â°
ĠAge
Ġdomain
ĠCode
Ġec
Ġmuseum
Ġwarn
ĠAssociated
acco
Ġpersons
NS
Ġdub
iano
aga
Ġrequested
Ġtrigger
ĠOntario
Ġhockey
ĠCorpor
Ġartific
Ġdates
Ġtestimony
Ġcenters
Ð»
Ġrocket
irts
Ġves
Ġtransit
Ġcongressional
Ġentitled
ultane
Ġspokeswoman
ĠFront
ĠNintendo
ĠAlexander
Ġrescue
ĠCooper
mony
Ġassign
ĠBon
Ġequality
Ġpatch
Ġurged
Ġbread
ĠOlympic
Ġdocumentary
Ġveterans
Ġclar
fol
93
ais
king
ĠâƀƝ
pton
Ġrecall
Ġpopulations
94
ĠLow
Ġbreath
Still
92
rooms
Ġwhenever
Ġviolation
Ġtactics
Ġwider
71
ounding
ĠKar
Ġtargeting
Yet
through
Ġpursue
Ġsalt
">
Are
izabeth
Ġfiring
don
ĠMill
Ġacid
Ġmole
inating
Ġrestaurants
Ġcompare
73
fare
Comp
orous
ennis
Ġwedd
Ġemployed
ĠRoberts
Ġcontrad
ĠBible
Ġpolitically
Ġphrase
Ġsatellite
ĠCro
Ġsurvival
Ġretirement
Ġbanking
ĠForm
Ġbrilliant
isons
ĠGirl
atar
Ġchannels
Ġservers
ĠBeijing
Ġsoccer
trans
aver
ĠMach
they
Ġintroduce
ĠJustin
Ġexperiments
enez
Ġprisoners
rapped
Ġcig
ĠWH
afe
jud
Ġfighter
600
Ġscientist
OK
ĠYOU
usalem
ĠList
Ġsubmit
Ġapproached
ĠAward
Ġmonthly
ĠLiverpool
Ġdesigns
Ġrepresentatives
Ġtitled
ordinary
Ġquote
Ġpopularity
olves
Ġabilities
oenix
Ġcul
ĠPD
Ġmembership
Ġinvestigations
Ġfocusing
mans
Ġhosp
Ġbab
ĠBridge
Though
ĠMaryland
Ġsaving
pa
Ġrush
ĠGovernor
Ġshadow
ouri
bow
ĠHur
ĠBase
Ġobjective
berry
ĠTed
emed
erts
ederation
Ġmit
Ġprepar
Ġtips
ĠWas
Ġpipeline
David
Ġchildhood
ika
Ġratings
Ġthorough
Ġentreprene
enter
ĠVill
ĠDutch
was
break
Ġactively
ĠHarvard
Ġpig
ĠSom
Ġdemanding
Ġloose
asty
ĠBra
Ġunexpected
CO
Ġsmoking
Ġsmell
Ġdeny
Ġuniversal
Ġforecast
Ġargues
Ġphenomenon
Ġoverseas
mers
olds
Ġsettled
walk
ĠBeck
Ġgenerations
Ġweekly
Ġchicken
Ġpreparing
Ġ95
Ġsmartphone
Ġproducers
Ġbutt
ĠPA
Ġlegislative
Ġanxiety
Ġdisturb
ĠHave
Ġinnocent
minute
ĠClick
Ġmortg
Ġcelebrate
Dem
ĠUr
iki
Ġprovision
ĠDO
Ġkeys
ded
Ġshame
Ġarguing
ĠDesign
held
Ġquestioned
Ġforcing
ĠCow
ĠHop
ompson
agh
âƔ
Ġbroader
Ġencounter
SL
Ġflags
Ġfool
Ġmac
Ġ53
Ġdeadly
Ġfur
84
Ġreverse
oz
Ġweigh
ĠEdward
ĠAmong
Ġtens
Ġ~
Ġmos
Ġwealthy
ĠObamacare
Ġunpre
Ġmaintained
Ġsurely
Ġshield
ĠProp
ocolate
oret
Ġsecondary
isa
aved
Sim
Ġsavings
irlf
Ġroof
Ġstability
Ġcivilian
Ġtab
elson
Äƃ
ĠCarter
Ġreveals
mind
Ġmini
Ġalarm
Ġanniversary
Ġsorts
ois
ĠAk
vernment
El
Ġtonight
Ġreleases
ĠHon
Ġrooms
irlfriend
isk
ĠGulf
Ġoutrage
Ġprosecutors
ĠLeft
Ġdisorder
inals
Ġexha
orious
Ġshr
Ġrelax
Ġwindows
Ġthreatening
Ġdifferently
Ġharassment
Ġquoted
Ġhealthcare
Ġsubmitted
Ġarbit
Ġlunch
step
itter
ĠRun
Ġreforms
Ġtorture
rection
Ġfate
Ġstored
Ġokay
ĠBelg
Ġpropaganda
Ġspots
Ġinstructions
ĠVietnam
Ġsevent
Ġrounds
Ġodds
Ġ1992
aa
Ġaer
html
tenance
Ġerrors
ested
ĠOklahoma
Ġhydro
icism
GA
Ġdelic
ailed
ĠLiberal
Ġsilence
ĠGraham
acts
ĠWarren
Ġgraduate
ĠSab
Ġaffordable
Ġcircle
sect
ĠBloom
Ġcooperation
Ġpicks
Ġsear
itary
ĠSarah
ĠFall
orship
ĠExpl
Ġstriking
Ġpuzz
Ġpersu
Ġstreaming
Ġcomprehensive
race
Ġimportantly
Ġcow
Ġpossess
Watch
Ġfing
Ġexecution
ĠRuby
lined
rows
Ġintim
Ġstruggled
ĠPerson
Ġassass
ĠSilver
ĠLeader
uten
ahu
Ġgent
Ty
ĠPrice
Reuters
ishop
Ġdeserve
ĠJerusalem
Ġlanding
Ġcalm
Ġalter
Ġceremony
Ġassumed
Ġdemonstrate
Ġdifficulty
83
Ġages
Ġpron
Ġdying
Ġhal
Ġdistingu
asury
Ġstepped
ethe
Ġborders
Ġchest
ĠWolf
ĠLt
Ġadventure
Ġpointing
ova
Ġwaves
Ġkilomet
essee
ierce
ĠNetflix
atern
Ġautonom
eals
Ġprecisely
Ġarchitecture
Ġgreatly
ĠDeb
Ġpromising
Ġconsent
bury
Ġconsideration
ĠTen
Ġdrives
Ġdialogue
ĠMain
Ġtremend
ĠBud
asant
Ġnewsletter
Ġrookie
Ġawarded
ĠMeanwhile
after
Ġrepeat
ĠStory
Ġcontribution
ĠTele
Ġburning
iev
party
Ġsimultane
ĠScottish
ĠVice
Ġdonations
ĠIndust
akh
Ġinterf
itol
ĠMagic
Ġvoices
Ġanalyst
ĠBruce
ĠTech
ceptions
Ġgif
Ġfrequency
ĠCommon
Ġprocedure
Ġwanting
ĠPres
Ġexecutives
Ġplayoffs
lee
oice
Ġstaying
apolis
Ġbirds
Ġbias
VD
ĠHong
ĠAz
izer
Ġinches
Ġtrillion
omy
holders
Ġhighlights
Ġsemi
Ġremarkable
Ġwhereas
EX
ributes
ĠPalestinians
Ġknee
open
ĠJonathan
Ġans
raig
Ġimplications
scribe
Ġformation
Ġsuperior
Ġstrategies
itual
ĠBerlin
Step
ĠLink
stal
div
ĠSydney
ĠMORE
Ġcategories
ĠArk
Ġfet
Ġfollowers
Ġcream
Story
portation
FO
Ġcontacted
Ms
Ġjudgment
annon
Ġsmile
Ġinfo
Ġemerging
igious
rif
js
onder
omed
yes
bered
vision
ĠEff
vertisements
iffs
hatt
Ġaccessible
Ġcrimin
TP
Ġphysically
Ġassigned
Ġ54
ĠAndre
Ġguidelines
Ġdefeated
Ġwounded
Ġtrials
Ġstem
Ġmanaging
Ġspell
Ġministry
Ġgrade
Ġcoinc
Ġriding
Ġindicates
Ġcenturies
Christ
cest
ĠAffairs
Ġopens
aki
Ġpharm
lla
->
Ġmeaningful
Ġtiss
erent
ĠMrs
Ġease
child
Ġmargin
ĠStore
Ġclothing
Ġâƈƒ
ĠTes
ĠSix
ĠCapital
Ġparticipation
cedented
Mus
Ġrevers
aria
Ġpoison
ĠBrexit
Ġ120
ĠYemen
Ġlapt
Ġcompeting
Ġmemories
ĠCS
Ġtheories
Ġrecipe
Ġgross
umble
author
hard
91
Ġpassage
sl
Ġaged
ĠCredit
Ġbin
Ġdrone
Ġblank
Ġdispute
Ġdamaged
Ġ1993
van
ĠHamilton
base
Ġsubstance
Ġhosted
TER
Google
ĠChelsea
ĠLam
Ġpromoting
Ġfacilit
Ġopenly
ĠInstagram
Ġ1950
ĠVik
View
ĠChildren
ĠCrime
Ġclinical
Out
Ġnic
eremy
ĠHold
bits
Ġinvestments
Ġconsensus
even
igate
ĠLeon
ses
ĠFal
Ġeducational
ito
const
Ġdish
Ġmanifest
Ġcustody
week
82
Ġeligible
ĠHawai
Ġlegally
Ġmissions
Ġendorse
Ġgate
eria
Ġmemo
ĠGT
Ġtables
ĠPict
Ġnin
Ġstudying
Hz
Ġ?
Ġcharity
aration
adi
Ġaddresses
Ġinspect
Ġdiscount
rix
left
Ġbattles
ALL
ĠDer
Ġ250
ĠAssembly
Ġathletes
Pre
ĠTrade
Ġfossil
Ġenthusi
ĠManagement
iac
Ġsuspects
Ġtired
Ġhelic
Act
Ġcounterpart
Ġna
achel
Ġdating
ĠEth
Ġspectrum
ĠMetro
ateral
ĠStation
ĠBal
Ġpresentation
Ġlux
gered
arts
Ġbottle
Ġtap
riors
Ġvig
Ġfundra
Ġenhance
assy
ĠSean
Ġtherapy
ĠWales
ĠExper
Ġperceived
market
ĠTok
Ġdominant
Def
math
Ġbacking
ĠFestival
Ġunderlying
Ġdefending
ĠThrough
Ġracing
Ġdiscussing
Ġburden
Ġexpanding
Ġmuscle
Ġstops
uz
Ġbeings
ĠMarx
ĠEqu
Ġtransaction
ĠUber
Ġ99
Cal
Ġrecruit
itudes
acher
ĠGary
Ġmood
Ġpicking
81
lando
ylum
player
Ġmanagers
orable
Ġgathering
Ġhopefully
angle
ĠSon
alysis
ĠVideo
section
Ġcrus
ĠLibya
Ġimpression
Ġhip
olar
Ã¢
Ġscrut
Ġroy
ĠTai
igenous
Ġinstitution
ĠBatman
}}
Ġstere
Ġprocedures
Ã±
Ġpocket
Ġcreatures
ĠBoe
Ġcompat
Ġarrival
ptions
sa
watch
Ġeager
Ġpollution
iture
Ġkitchen
Ġfoods
ocial
Ġrecre
Ġsurviv
roph
Ġorganic
ĠPentagon
ĠMorgan
Ġshipping
Ġcapitalism
Ġinsult
Ġtiming
sub
odox
Ġrequirement
Ġunfair
aders
Ġ56
Ġmice
ĠAssad
Rem
ĠRepresent
ĠMess
ĠMLS
bing
atively
ĠElizabeth
ĠOp
Ġdiseases
Mod
Ġindustries
ĠOakland
dy
Ġbowl
oln
ĠMurray
ĠCreat
Ġsed
Ġhelicop
Ġdivor
agger
Ġbeach
Ġpunishment
abet
Ġshell
***
Ġfled
Ġhospitals
missions
Ġtons
AF
ĠKick
Ġseed
ogy
ĠComey
opyright
Ġstatist
Ġengineers
Ġobsc
Ġhire
SC
Ġmodule
AY
amous
Ġcoaching
oca
Ġanswered
rac
Reg
TR
Ġgraphics
Ġregulatory
Ġsovere
Ġstance
alties
Ġbow
ĠKeep
Click
Ġexplaining
Ġrhetoric
Ġbeating
ĠFriend
Ġtut
ĠEmail
rior
ĠYeah
emic
Ġacknowledge
ĠMichel
Ġprincipal
ĠMit
Ġpulling
erves
Ġsignature
brid
olving
Ġconvince
ĠRoll
Ġvariable
cosystem
Ġpill
Ġsearching
ĠOx
Ġdies
Ġovercome
Ġpreferred
duction
Ġsixth
Ġadviser
ĠTennessee
Ġtrends
Ġ!
ĠRussell
Ġ("
ĠThompson
Ge
Ġmerch
Ġrebels
Ġinteraction
Ġperiods
ĠYan
Ġpsychological
Mich
ĠSure
ĠUsing
Ġeconomics
ĠCharlie
ĠBi
Ġoutlets
ĠGil
ĠIntel
Ġsignals
pg
Ġecho
ĠExecutive
ĠKentucky
Ġtempor
Ġbillions
Ġlineup
Ġmath
2013
Ġ1991
Ġsetup
Ġrend
Finally
netic
mic
Ġeggs
Ġsegment
Ġarr
Ġbadly
kee
ĠLi
ui
Ġsentenced
Ġeveryday
ĠDragon
Ġcommander
ĠHoll
ĠAN
Ġloves
unicipal
ds
Ġgenes
NBC
Ġbold
Ġrequiring
Ġbullet
Ġinvasion
will
Comm
Ġpartly
Ġescal
Ġinstant
Ġgig
ĠJean
check
Ġarts
Ġgene
Ġremoval
Ġundert
Ġupload
liest
ĠHart
Ġtopics
ĠIron
enezuel
Ġinquiry
Ġamendment
Ġweakness
ĠRather
news
Ġconcepts
ĠZe
ĠMcK
has
PL
Ġshoes
arted
ĠSound
Ġfabric
izza
grade
ĠDelhi
Earlier
tsburgh
Ġfrequent
Ġsections
Ġoccurs
oli
Ġmigrants
Ġcompensation
Ġengineer
eness
Ġlad
ĠFinally
Ġfo
Ġattractive
ĠBox
Ġunve
instein
Ġ).
Ġciting
Ġtweets
Ġutility
arency
cor
Ġposting
Ġridiculous
Ġblockchain
Ġcler
ĠClark
Ġspeaker
âƔƀ
Ġdiam
Ø§
Ġcorrupt
Ġtalented
Ġlect
Ġcollaps
Ġmask
âƀƐ
necess
screen
Ġnotable
ĠTherefore
Ġelder
Ġgenre
Ġdeadline
Ġrolling
Ġcarries
ĠBM
gus
Top
ĠFinal
via
ĠET
ental
Ġapproaches
Ġeliminate
ĠPriv
Ġanalysts
Ġsits
Ġcens
State
Ġinstances
ĠSimon
Ġpublishing
Ġunprecedented
Ġcolour
ĠVe
Ġroots
ĠPhoenix
VP
Ġcock
Ġbene
ĠPsych
Ġtoxic
Ġcollaboration
Ġarc
Ġinequality
Ġneighbors
Ġinsight
Ġdramatically
ĠHarper
Ġhomosexual
Ġprize
Ġtowns
Ġextraordinary
Ġperception
ĠGordon
ĠWhether
ĠPhill
Ġparad
arget
Ġgest
Ġmaintenance
owski
rowing
ĠGro
ĠGO
Ġcheaper
isdom
Ġassociate
Ġcoup
Mark
ĠEvent
Ġsheet
ĠBow
ĠBelow
ĠSav
ĠCaptain
pack
Ġcognitive
Ġencouraging
Ġdreams
ĠPers
Ġseized
Ġinterviewed
Ġdeployed
Ġviolations
Ġcamps
Ġcomics
Ġconstitu
ĠReagan
Ġreserved
Ġbuck
Ġemployers
Ġaims
atus
Ġfunctional
Ġmystery
Ġdisplayed
Paul
iban
Ġspan
Ġloop
Ġdelight
apore
cre
AB
Ġtraged
ĠEconomic
ixture
ĠSa
Ġ57
ricane
Ġglad
Ġoccasionally
Ġvend
Ġexport
TON
Ġbirthday
Ġheroes
Ġfatal
estyle
oga
Ġcorrectly
ĠStew
Ġprompted
wa
Ġstamp
ĠCole
elle
Ġcontemporary
ĠAccess
ĠJenn
Ġprospects
oting
endar
Ġirre
vi
Ġrecommendations
mir
Ġdiplomatic
throp
Ġpa
ighth
Ġbell
Ġparallel
Ġexclud
eling
Ġconstitution
onz
Ġdisappointed
Ġmanufacturers
Ġadequ
Ġintr
ĠStaff
Ġmoderate
ĠEver
ĠDog
Ġecosystem
Ġaccompan
Time
Ġdemanded
Ġ85
ĠGDP
ĠPhotos
Ġnose
ĠMontreal
ĠDick
ailable
Ġinterpre
Ġpleased
2017
Ġlabour
Ġlifetime
ĠBrooklyn
ĠTax
ĠEst
ĠReserve
rock
Ġcommunicate
Ġfights
Ġmodified
Ġdrunk
ĠOcean
Ġsessions
Ġwedding
Ġknock
Ġexplosion
ĠLibrary
Ġbiological
Ġlanded
Ġrepair
ĠEPA
Ġ58
ĠAuthority
Ġsubsc
Ġrepresentation
ĠGiven
ĠBol
Ġartificial
250
leans
fit
Fi
Ġrelation
Ġowns
ĠKhan
ixon
ĠAntonio
ĠDigital
Ġlift
agen
Ġdesigner
rot
Ġrecon
Thanks
Ġemp
Ġconsciousness
Ġkicked
ĠOrder
Ġdefender
Ġhanging
Ġlessons
hist
Ġimposed
Ġguests
Ġadopt
Ġanonymous
150
Ġsli
Ġconcerning
wind
Ġpregnant
ĠFive
incoln
ĠBul
Ġunderground
acre
Ġmaintaining
Ġasset
ĠAlan
Ġpunch
ĠRome
ols
bourne
Ġshirt
Ġingredients
Update
Ġcheese
wed
Ġintellig
isition
ĠChannel
ĠConvention
Ġpodcast
Ġinterior
graph
":"
Ġemotions
ching
human
Ġabstract
ĠArgent
Ġcouples
Ġlesson
Ġcreature
Ġresolve
Ġshocked
Ġoppose
Whe
Ġsummit
Ġperformances
ĠSU
Ġvolunteers
ĠBurn
Dis
Ġsoldier
Ñƃ
some
Ġstimul
Ġlogo
à¤
appropri
istant
Ġterr
Ġvocal
Ġaccum
Ġgirlfriend
ĠProtection
ben
ĠDur
ulty
SE
Ġjumped
Ġannoy
ĠPage
Ġjihad
Ġmile
Ġnurs
ĠLear
user
Ġmilitants
acles
Ġguid
ĠFant
ĠMissouri
Ġprofessionals
Gener
("
ĠAnna
ikh
Instead
Ġbutter
ials
Ġswit
Ġrefers
Ġdesktop
dr
Ġtraveling
Ġlibr
gets
Ġisolated
Ġforum
Ġadvocate
Ġexisted
ĠLim
Ġopposing
ĠCoal
gate
Ġrecalled
âƀ¦.
Next
Station
ĠCase
ĠHan
Israel
Ġ600
Ġintegration
Ġdescribing
Ġboxes
ĠJavaScript
ĠOrleans
early
Ġstro
CD
ĠMail
Ġminimal
ĠHal
tainment
Ġconfused
ĠCustom
ĠSD
umph
Ġpeaceful
Ġinherent
abe
odge
cal
Ġsurrounded
Ġvert
owned
ĠCapitol
hattan
ĠHand
commun
Ġholes
Ġmeal
Ġ1989
Ġintegrity
ĠKnow
ĠPlayer
Ġpm
ĠBarb
Ġinspiration
Ġconfiguration
ĠRs
Ġsne
ĠTrust
ĠBan
hero
ðƟ
Ġexpense
Ġcredits
ĠNon
Ġsubur
Ġelectoral
Ġideology
Ġyell
Ġsilent
Ġdual
ĠMarine
ĠDoctor
Ġstack
Ġsuspic
Ġburied
TE
ĠNevada
iens
Ã§
imize
Ġdesperate
ĠOcc
starter
Ðº
Ġscream
Ġclip
Ġchoosing
Ġbombs
Trans
ĠCB
Ġbands
Ġteammates
Ġfleet
ĠSH
Ġconvert
Ġacceptable
tra
ĠOrlando
ibl
Ġjer
Gu
ĠWright
Ġregistration
List
ĠPortug
ĠHitler
Ġbrutal
SU
awks
Net
ĠMove
Ġscar
Ġancest
ĠOnline
ĠAlliance
election
Ġsubscribe
Ġstruggles
Ġkeyboard
Ġmomentum
ĠLeban
ĠArea
aro
Ġpromotion
ĠArsenal
ĠVen
Ġevident
Fl
Ġquit
hire
father
Name
Ġorganisation
Ġwondering
ĠIndones
Ġclosest
mits
too
Ġembrace
ĠSteel
books
ĠFollowing
Ġrefugee
ĠHamp
Ġteeth
ART
Ġprobe
Ġutter
Speaking
chell
Ġathe
ĠWord
Ġoccasional
Ġmonster
strong
Ġassembly
Ġbankrupt
Ġreferences
isd
Ġjournalism
Ġexpenses
Ġsubsequently
oub
stop
oker
Ġpride
Ġguards
ĠMun
Ġinterpretation
ĠVenezuel
Ġyeah
ï¼
Ġlin
hr
grad
Ġremoving
Ġorbit
Gl
ĠIndependent
ĠWrit
Ġprofound
ipedia
rett
2012
ĠPittsburgh
Ġcompromise
Ġknife
Ġdistricts
Ġexclusively
Ġsurvived
ĠSource
Ġconsiderable
Ġmathemat
Ġstating
Ġengaging
ĠCould
Ġrefuse
Ġbird
Ġcharacteristics
ĠMountain
Ġlobb
ĠRaj
Ġjustify
Ġdominated
HP
Ġ72
QL
Ġbriefly
ĠNazi
bound
arson
ĠRest
Ġchip
Ġministers
Ġprost
Ġelectron
Ġtremendous
Ġcontrary
rend
Ġgri
Ġsustainable
Share
Ġloaded
Ġflour
Ġdisappear
Ġnervous
Ġroutes
orneys
Ġproportion
Ġsophistic
attered
Ġexecuted
ocated
elve
ĠDuke
utter
Ġasylum
ĠEveryone
Ġgameplay
Ġsexually
inst
Thank
Hey
ĠBu
Ġpir
Ġdonors
Ġconfusion
ĠDream
Ġrevolutionary
amine
cap
ĠAaron
ĠAndy
ĠPant
Ġcurious
ĠTreasury
Ġharsh
limited
lihood
income
KE
Ġattending
Ġ800
ĠAdams
immer
ĠIM
Ã¨
security
UC
Ġspeakers
Ã³n
Ġcabinet
Ġnowhere
Ag
reek
Ġflee
Ġvoid
Ġbrands
Ġchronic
Ġprinted
ĠTesla
ĠShort
Ġcharging
Ġengines
Ġphysics
reck
anim
ĠHaving
function
urse
ĠMult
Ġconcert
scar
ĠSheriff
inge
Ġoutcomes
ĠAren
ĠOfficer
MAN
ublished
olid
otte
Ġorient
Ġmirror
Ġstrengthen
ĠGib
ĠJun
thood
Ġfails
opt
Ġspo
Ġobser
.]
Ġchaos
Ġpassenger
ĠiPad
ĠCurrent
Ġcriminals
Ġfel
ĠSpir
Ġsteady
ĠRobinson
Red
700
ĠNether
merce
ĠÂ±
Ġrobust
ĠCON
ĠManhattan
white
IE
Ġendors
Ġspeculation
ĠChange
reshold
Ġcertific
Ġdeemed
ĠTaliban
Ġdropping
Ġhiring
ĠNorm
ĠGiants
ĠSingapore
ĠAlp
Ġintegrated
ĠPerry
Ġpresents
Ġavo
ĠTs
ĠBand
ĠFA
Ġguaranteed
apper
Ġfert
Ġepic
Ġleaked
ĠKings
Ġpackages
mble
Ġpleasure
BN
ele
Ġsuspension
Ġchallenged
Ġpacked
good
Ġchecking
à¸
Ġbits
Ġvit
Ġengagement
Ġradiation
Ġslot
Ġbombing
ĠHu
Ġpatri
leep
Ġda
Ġalert
Pal
istle
Ġwet
rics
Ġhunting
ĠUSB
ĠTel
riv
ÄƁ
ÃƃÃƂÃƃÃƂÃƃÃƂÃƃÃƂ
Ġproduces
Ġwitnesses
ĠCraig
ophob
Ġeditorial
Ġdefended
Ġrecovered
ĠHoly
mented
Ġdevelopments
Ġsimultaneously
Ġboom
Ġbacteria
ĠLog
Ġblocking
Right
ĠLater
Ġ59
Ġattracted
Ġ66
Ġfigured
ĠOpp
Ġcorrel
ĠHung
Ġalliance
Ġresearcher
Ġtaxpayers
ĠEntertainment
ĠLes
ĠNone
Ġcaps
card
ĠJeremy
Ġhosts
Ġcinem
Ġpatent
ĠRussians
izarre
Ġexamine
ATCH
ĠFuture
Ġvariables
aste
ĠLincoln
ifier
Ġoxy
Ġembed
--------------------------------
Ġjunior
lynn
ateful
Black
ĠGh
uter
oned
ĠChairman
Ġpublish
ĠTower
JP
Ġtear
Ġ62
Ġmeth
gly
Ġbreast
ĠVlad
DR
Ġvent
ĠPoland
Car
ĠUkrainian
ĠStudies
adesh
gged
dep
Ġenact
may
ĠDak
Ġflights
omic
Ġaccuracy
Ġflav
ĠBor
ĠWi
Ġdistribut
Ġlos
Ġimpacts
ĠKit
Ġsurprisingly
Ġsolo
Ġraises
Ġburned
Ġric
ĠSci
Ġangle
secutive
ĠWould
Ġevac
Ġqualified
Ġdecrease
ĠCPU
oft
nie
vas
Ġevolved
Ġflavor
olitical
test
Ġunnecess
bin
aco
Ġassemb
ĠTotal
Ġintimid
wich
imir
Ġcourtesy
ĠOR
Cor
ERE
Ġfingers
ĠMPs
rition
Ġproductive
Ġvoc
Ġblamed
etheless
ĠHIV
Ġdependent
Ġexpecting
Ġtransferred
ĠRangers
Ġenabled
Ġidentical
Ġvisits
nan
Ġexpects
Ġlane
ĠGill
dict
Ġignor
ĠUb
Ġaccord
ĠGriff
terror
ishers
Book
ĠStewart
Ġventure
ĠCC
Ġbarg
Br
Ġshops
Ġdeparture
ĠCommand
iere
ĠMississ
TO
Ġkiller
Ġrepeal
Ġmotivated
Ġrestore
Ġagreements
ĠDu
Ġconflicts
Ġorganis
thodox
Ġscared
Ġforgotten
ĠThink
iden
icked
ulse
Ġinher
Ġnationwide
ĠEdition
bian
Ġcycl
Ġinfluenced
Ġcriteria
ĠNi
ernand
Ġoccupied
Ġanimation
ĠBC
Ġtrailer
Ġranking
ĠPope
ĠShould
ĠThings
Ġ`
Ġbacks
ahoo
Ġtelephone
df
Ġoccasion
about
unity
Ġanalys
ĠReddit
Ġfunctionality
Ġchecked
Ġconcentration
ĠModel
looking
Ġhouseholds
link
Ġreass
onduct
Ġalgorithm
Ġcourage
rah
ressing
ĠSupport
oup
Ġpromoted
ĠHug
Ġimprison
aments
Ġexplicitly
Ġbatter
iar
leted
Ġdesp
Ġbabies
Ġtanks
Ġought
Ġstatic
ĠProduct
Ġreleasing
Ġantib
ĠPlace
rike
Ġsubtle
Former
ILL
Ġstats
Ġbases
Ġstrip
Ġdoct
large
uating
Gr
Ġprivilege
ĠJerry
ĠMoreover
agine
ĠEnt
ippi
ĠWarner
ĠNO
Ġmeters
Ġentrance
MB
bat
Ġtower
Ġinvestigated
Three
Ġsenators
zone
ĠCold
ĠCanadians
Ġhub
Ġwise
Ġoverl
Ġapplies
Ġformula
ĠStandard
ĠEb
ollar
ĠEgyptian
Ġmart
ĠChristopher
Ġinevitable
breaking
Ġuncertainty
Ġprovider
actor
Ġpainting
Ġcontinu
Ġmodest
Ġlens
Ġinfluential
Ġdestination
ĠQueens
Ġunre
ĠMap
forward
izations
Ġchips
being
Supp
Ġally
Ġinfection
Ġdimin
leading
","
ĠUnivers
Ġjet
kes
Ġsolely
Ġbelt
Ġscrew
Ġinaug
Ġ63
Ġinsist
Good
Yeah
rying
ĠTR
ĠNiger
Ġtheft
uccess
ĠMarg
Ġpolitician
ĠAlaska
Ġtransparency
ĠPlayStation
Ġinvested
Ġsinger
Ġimmune
ĠOttawa
Ġprovisions
istance
ĠStock
town
Ġhandled
Ġpy
overs
Ġuncomfort
ampa
ĠOlympics
ĠLouisiana
Ġimpressed
Ġinbox
ĠOil
Ġoperator
SD
ardo
untu
ĠNetherlands
Em
Ġballs
Ġtent
ilation
ĠJane
non
Ġcolleg
Ġbol
Ġsimilarly
Ġlifestyle
offs
Ġheadlines
idal
Ġboards
rifice
?)
ĠTrek
comp
Ġdisabled
ĠKr
thur
ante
ixel
ĠStanley
Ġoperated
olas
Ġregarded
var
ĠType
Ġlaunching
ĠSN
Ġreluct
ĠExp
achment
wall
Down
ĠMother
Ġvolunt
Ġphotographs
such
Ġkidn
ĠDrug
?âƀƙ
Ġsake
citation
Ġkeen
Ġdetention
track
rc
Ġconsecutive
Obama
Ġgym
ĠUnlike
million
inite
).[
ĠBlood
gov
Ġprosecutor
Ġfilter
ĠDa
Ġprosecution
keley
Ġsuck
oning
anguage
Ġconviction
ige
uther
Ġearthqu
Ġlean
Ġrolled
Ġkiss
ĠTable
armed
ista
Ġinex
ĠModi
erald
orate
ĠCorporation
ĠCaption
tarian
ĠCorp
bitious
Ġbulk
first
ĠHampshire
Ġmales
ĠFO
ĠBir
Jo
Ġtears
Ġtragedy
Ġchocolate
Ġmouse
Ġpoet
Ġpreserve
llor
Ġguidance
ĠFather
ĠBeing
ĠSche
Ġleak
ĠPhilippines
Bel
ĠForest
urches
Ġnu
assion
Ġbags
ĠSeveral
Ġreck
block
Ġdestro
Ġexamined
Ġsynd
Ġaccepting
Ġelabor
Ġmissiles
Ġabsurd
rin
Further
Ġbeneath
Ġneur
Ġparticipating
vironments
Ġ1000
ĠHans
bes
vo
Ġneighborhoods
ucker
ĠStanford
Ġcompelling
Ġreflects
ĠWy
Ġcomplained
Ġadap
Ġbother
Ġcontroller
Ġluxury
ĠVictoria
ĠEdit
ĠMarc
ĠCloud
ĠGrant
ĠMorm
laim
Ġtheater
ĠMario
Ġenfor
ĠNelson
Ġshelter
stra
boys
Ġfer
ĠMedicare
speed
ĠTam
Ġfits
ĠMedicaid
Ġjurisd
mons
ouses
Ġposter
usting
Ġ</
ĠKnight
Ġconsists
âƀƝ)
opp
Ġpose
Ġsignificance
ĠFilm
Ġpolling
Ġstopping
friendly
Ġoccasions
Ġbone
ĠDE
ĠTokyo
neg
ĠRubio
Ġwireless
Ġrealistic
Ġexcuse
aya
ĠLocal
Among
ĠImm
Each
ĠVin
ĠCas
ĠChron
Ġtension
Ġaccompanied
Ġseeks
ĠGard
Ġbackup
asm
otion
Ġresemb
Ġmandate
ĠSport
Ġtheoret
ello
ĠContinue
Ġassists
Ġpossibilities
ĠWinter
ĠQuest
fish
ects
Ġbeta
Ġaccusations
Ġadvent
Ġcooking
ĠPa
iah
ĠCR
ĠChampions
ĠAbu
Ġsupposedly
Ġinhab
ĠSnowden
Ġemphasis
Ġfinishing
ĠDal
ping
ambling
Ġsustained
Perhaps
cat
ĠMalays
Ġbeaten
ĠSEC
itement
Ġbump
ĠPear
Ġdressed
Ġawards
Ġprojected
isms
ĠHad
ĠNothing
Ġtorn
Ġinnovative
ĠEverything
ĠMind
Ġaffects
âƔƀâƔƀ
Ġpolar
Ġpreventing
Ġconstructed
ĠFlash
bery
Ġlongtime
ATION
thal
Following
Ġfed
ĠSection
Ġfucking
Ġeru
Ġgarden
Ġ360
ĠAbd
IO
ĠOrganization
Ġspeeds
Ġoperators
ĠSoft
ilst
Ġgut
ĠFinancial
Ġdrum
Ġmanual
Ġoutstanding
Ġpassword
Ġmortgage
ĠKa
ĠHamas
Ġentity
ĠPython
cott
Ġrecession
ĠNich
Ġwisdom
ĠNature
Ġdocumented
Ġtraded
Ġintrig
ĠSteam
una
ĠIV
Ġgolf
ĠJimmy
Ġoccupation
ĠKurdish
Ġoldest
Ġfut
Ġdocumentation
Ġfavourite
iox
Ġpraised
Ġresidential
incial
Ġspotted
Ġcops
Bar
century
ugby
Ġrevenues
ĠCommons
ĠThird
Ġlayers
Ġwalks
olitan
ĠMA
Ġinteractions
ĠPatriots
Ġsurge
charg
Ġbicy
Ġawful
Ġpanels
Ġther
Ġcalculated
Ġinfant
Ġcircuit
cular
DC
Ġ67
Ġexperimental
âƂ¬
rons
Ġrenewable
Ġautomatic
ĠCL
Ġmysterious
Ġdirty
anyahu
Ġtrains
ĠOthers
ĠLad
Ġthreshold
Ġtale
ques
ĠNash
Ġ68
ĠKal
Ġdealt
ĠRh
gal
Ġreviewed
Ġ61
âƖƈ
lied
Ġpainful
Ġglobe
ĠCitiz
omer
Ġcoin
irs
Ġtrips
ĠTrue
ĠAirport
requ
ĠWayne
Ġcleared
err
ĠFle
Ġearnings
arded
~~
Ġcrossed
Ben
Ġadministrative
Ġconvenient
Ġgraphic
Ġriders
ĠEmer
ĠNik
Ġlady
Ġliberty
Ġranging
Ġbizarre
Ġpour
Ġiter
uto
ĠBah
Ġhes
former
Ġdisplays
Ġiconic
Ġenvironments
Ġrobots
Ġmothers
China
Ġhosting
Ġambitious
Mart
Ġ1988
owder
seless
Ġdesert
beat
Ġreserve
Ġsecular
Mon
Ġsentiment
Ġpredec
ĠMcDonald
Ps
uri
jamin
isive
Only
Ġconverted
ĠClimate
Ġtissue
Id
ĠMurphy
ĠLarry
Ġorg
Ġtum
ĠAFP
ĠFOR
Ġdrops
ĠSin
ĠDeep
shore
Did
Ġexploit
ĠPi
ĠDean
ori
words
ĠReds
ĠSummer
kind
Ġcreator
Ġresort
count
Ġaddressing
ĠVar
Ġanch
Ġsons
Ġsafely
Ġhiding
Ġattorneys
Ã¥
Ġdevastating
DE
EMENT
two
Ġspray
Ġsleeping
uably
Ġcrossing
Ġpension
ĠSac
Ġrestricted
Ġarrests
Ġwore
Ġscrutiny
ĠPir
ICE
uj
Ġunfortunately
puter
Ġburst
Ġlibraries
Ġdepartments
Ġmurdered
Ġcompetitors
ĠDrive
Ġwhis
Ġalign
Ġcontainer
pin
Ġavailability
Ġnewsletters
Ġfiling
ĠSingh
kward
Ġadoption
ailing
Ġnewspapers
Ġmisc
oj
atter
Ġproductivity
Ġtoss
bet
Ġreign
Ġbuilds
ĠSE
Ġdiscrimin
Ġpregnancy
ĠNS
celona
Ġovernight
Ġindication
Ġappearing
Ġpublisher
Ġearning
ighting
arians
Ġcombine
Ġviewing
Ġduties
ASH
oyd
ĠManning
Ġfishing
map
Ġreflected
isode
arios
Ġuncomfortable
ĠMagazine
Ġtu
ĠWhit
Ġregret
government
Ġmunicipal
ĠFurthermore
named
ĠTan
Check
gence
data
ĠNative
agu
dev
Ġhorrible
accept
bably
Ġchemicals
Ġrelie
Ġanonym
Ġcave
oop
Ġseparated
Maybe
uels
Ġsophisticated
World
Ġrivals
Ġrewards
ĠFig
oria
Ġviable
Ġdeserves
Ġpricing
eller
Ġacted
ĠPhys
ĠWiki
Ġrelatives
Ġindu
ĠMand
Ġwinners
Ġrecept
ĠMadrid
Ġslide
Ġpreparation
Ġequipped
version
Ġritual
Ġlimitations
ĠChrome
ernel
ĠInn
Ġ1984
Ġcomplexity
Ġamongst
ĠRonald
Ġ==
Ġmechanisms
Ġpeer
Ġcommod
lesh
Ġparameters
ĠFederation
Ġfirearms
Ġcarrier
Ġbip
Ġtob
ĠNaz
Ġsuggestions
size
ĠHeart
iors
ĠNa
Ġdelayed
ĠHTML
ĠBlu
Ġexploring
Ġmeets
winning
Ġtoug
Ġ1986
Ġcoord
ĠTaiwan
Ġlighting
Ġcurve
Ġstartup
ĠCollins
emit
Ġintelligent
Unfortunately
Ġghost
Ġcelebrated
ĠMississippi
Ġabund
Ġcease
arer
Ġinterven
/.
Ġquietly
Ġensuring
ĠPoll
ĠDomin
XX
ATED
burn
Ġrebel
ĠLuke
Ġnights
Ġmm
quer
Ġcollecting
2011
Ġtranslation
Ġworlds
Ġdetained
Ġorange
ĠMcCon
profile
DAY
Ġbeef
Ġemployer
ĠDVD
ĠLevel
Pat
acies
Ġradar
ĠSex
White
Ġinstallation
ĠBlock
Ġdelivering
Ġdesignated
Ġcoins
Michael
emin
Ġmigration
Ġdebates
Ġ);
THE
oda
Ġpledge
ĠMelbourne
Ġcatast
ĠEC
Ġgrants
Ġcaution
Ġoffseason
Ġnotably
RO
Ġbugs
Ġtablet
hyth
Ġthemes
uates
ĠExpress
Ġwrap
natural
Ġgolden
Ġdelegates
Advertisements
Att
Ġcourses
âƀ³
Ġcountless
ĠEagles
ĠDisc
ĠBab
Ġwitnessed
Ġgradually
ĠQuebec
alid
Ġcommands
ĠCuba
code
ĠCoalition
Ġtends
Ġviolated
Ġmeanwhile
ected
Ġpsychiat
media
ĠOw
Ġdemonstration
pot
Ġdemo
ĠCrit
ĠPod
formance
Ġcommentary
witzer
ĠSwedish
Ġannually
Ġforb
Ġpending
onds
ĠHeat
ĠEve
Ġobservations
Ġthro
orical
athon
ĠSaint
oples
ersion
arently
ĠToy
arma
Ġremembered
Ġfires
Ġquestioning
rencies
Ġcorn
ĠSmart
FS
ĠNap
Ġlaptop
fi
Ġverify
Ġimpose
Ġhighlighted
Ġreplacing
rup
Ġseeds
ĠLady
Ġcontents
Ġhunt
Ġpreview
elcome
Media
founder
Ġfrustration
ĠMarshall
Ġdiscipline
Ġpatrol
Ġsupplement
Ġpoorly
onda
udeau
Ġcomed
Ġgrave
ĠProgress
Ġpraise
Ġtempt
ĠPeace
ĠArts
Ġfurn
Ġbathroom
ĠPel
rait
piece
Ġactress
Ġaspir
Ġhappiness
ĠKy
Ġexploration
Ġgentle
ĠRound
omach
Ġcruel
ĠLions
Ġstarter
outing
ĠHunter
Ġprevented
ĠBlake
Ġchamber
file
ĠLen
ĠWard
Ġprayer
Min
Ġcultiv
ĠStorm
Ġvenue
Ġpermitted
Ġinstantly
Ġoxygen
War
ĠHuff
Ġaltogether
urities
Republic
Ġbonds
atal
Ġambassador
ĠBeat
ĠMotor
.),
Ġarena
ugs
Ġconced
ĠBerkeley
Ġdisappeared
Ġplanes
Ġ76
Ġtechnological
string
ĠAy
shot
ierre
Ġsuggestion
aman
ĠRoger
Ġpartially
Ġagriculture
anches
Ġunl
Ġdil
Ġdrinks
ĠCampbell
ĠFergus
flow
Ġsizes
Ġincorrect
Twitter
Ġprotections
ĠFR
hill
Ġfascinating
group
ĠAmb
ocur
ĠEnvironmental
ĠHann
ĠChristianity
Ġvaccine
ĠHawaii
ĠAdditionally
Ġlogical
ĠMas
Ġparks
ĠMuch
aucus
Ġstyles
Ġsupporter
Ġhonestly
Ġadj
Ġalike
ĠLaur
appropriate
ĠNCAA
Ġprol
Ġtobacco
Ġmarginal
encer
Ġtoll
Ġsummary
ttes
ologically
Ġflew
ĠGene
ĠKickstarter
Ġadvised
Ġhearts
Ġcompr
Ġsinging
Leaks
Ġwound
Their
Ġappointment
ĠQual
ĠForces
ĠCongressional
Ġethics
Ġstunning
ĠJen
esides
Ġcapability
ĠMitchell
ĠGab
Ġtransmission
Ġenterprise
ĠCry
ĠVladimir
Ġmetaph
chron
ĠSpeaker
Ġprosper
Ġpowered
ĠManager
Ġreactions
ĠEditor
Ġessay
Ġelectrical
Ġcous
pling
Ġstressed
Ġhaz
bu
py
ĠTodd
Ġfaculty
ĠGre
Ġmakers
ĠCorps
Ġash
ĠArena
Ġceiling
Ġsket
Ġderived
ĠReid
last
Ġseventh
sk
ĠName
ivan
Ġmountains
Ġcelebration
Ġrice
Ġpressing
Ġarguably
Ġdrafted
Ġcrown
Ġdamn
lected
Ġdepos
Ġraid
ĠJess
ĠRT
ĠOrange
ĠUI
NT
ĠBenn
utt
Ġendless
Fe
Ġtraveled
Ġcomplain
UD
ĠImp
Ġdrones
ĠSessions
ĠCommissioner
ĠOxford
TIS
Ġineff
ĠBrus
ĠRow
gments
Ġawkward
Ġbund
orer
witzerland
Ġapplying
ĠWatson
Ġsacrifice
Ġaccomplished
Ġshooter
gary
dam
('
Ġbubble
Ġweaken
ults
Take
ĠFlynn
Ġepid
onia
Ġmechanics
Ġassumption
aughters
Ġadvocacy
Ġcats
ims
Ġhostile
Ġbreach
Ġrevealing
BL
Ġfract
Ġrespective
handed
Ġscratch
Have
storm
ĠModern
Several
atin
Ġexpertise
ĠDakota
Ġdevoted
Second
hol
atoes
ĠParker
ĠIndians
ĠBaker
bie
Ġanarch
Ġcircles
mare
Ġstrongest
ĠRap
ĠChall
written
Ġfocuses
formed
ipher
Ġshocking
Ġsword
Ġcalendar
uez
Ġaudiences
Ġmic
oard
Ġlone
ĠKas
Ġcitizenship
Ġbuyers
agraph
Ġconfirmation
ĠMedicine
uming
WS
Eng
Ġtrucks
Ġlung
Ġparticles
idth
Ġfrank
Ġacquisition
Ġconclusions
vol
Ġcomputing
Ġsauce
âƄ
Bre
ĠLawrence
uerto
Ġunnecessary
Ġdirectors
mid
Data
Ġlyr
ĠDate
Ġlineback
Ġ700
actory
Ġpenalties
tit
Ġdecor
itate
half
Ġspy
Ġlongest
GM
lli
Ġresponding
ĠTemple
matic
liver
vious
nor
2010
Hist
itivity
anded
ĠFind
Ġbitter
ĠED
Men
brew
Ġstir
ĠResp
ĠHus
ocus
byn
Ġhistorically
Ġentities
ĠMorris
atre
Ġadvertisement
Ġinterrupt
ĠDor
Ġaddiction
Ġyard
Ġbears
Ġplacing
ĠYang
Ġcontributing
Ġboundaries
Ġgreet
Ġqualify
stan
ĠFerguson
Ġunderstands
Ġcomposition
Ġduration
?'
Ġquantum
jan
borne
ĠHotel
umm
Ġconversion
km
Ġshake
Ġfrustrated
ÙƄ
Ġcoordinator
ĠLegisl
Ġoperates
Med
Ġorientation
Ġhacking
zes
ĠSafety
ĠProm
ĠBarcelona
PI
sur
MM
Ġstun
Ġcam
Inter
Given
ĠRoc
ĠRecords
di
Ġpriest
Ġfeminist
lements
ĠHispan
acular
ĠJacob
Big
Ġ1987
andy
Ġdistant
Ġmotivation
Ġfastest
ĠSud
Ġtar
minded
Ġgrocer
Ġpainted
boards
Ġpopul
ĠIan
Set
ĠNetanyahu
âƀƋ
outheast
Ġpedest
La
ĠFCC
liminary
connect
ĠRain
Ġnode
IST
Ġdensity
ĠUC
PDATE
Ġoversight
Ġtunnel
Ġexperiencing
ĠRy
Ġcontrolling
fs
Ġcounties
orph
Ġmild
Ġsafer
ĠHend
tech
ĠSong
Ġtill
Ġvague
Ġ1979
Ġdivide
ĠFif
prot
ĠSwiss
ĠBE
abling
Ġtransformation
Ġdirections
ĠBart
asted
dec
Ġreceives
Ġsentences
Ġimperial
leton
Â·
Figure
mart
Ġugly
Ġsla
Ġsuprem
Ġillegally
comed
Ġprobability
acer
Ġintensity
Ġcomposed
Euro
Ġenjoying
ĠCos
ĠAbbott
western
Ġheaven
Ġdign
supp
ĠSide
Ġmandatory
specific
ACK
Ġconservation
Ġachievement
Ġgaining
Har
ĠRemember
ĠBloomberg
Par
ryption
Ġinsane
ĠAgainst
Ġagricultural
Ġpor
ding
Ġbalanced
Ġ69
Ġcondemned
Ġstomach
Ġ1985
Ġresidence
Ġdistinction
ĠLie
Ġprinting
Ġpione
Ġemerge
Ġprototype
mother
ĠBeng
ĠCa
ĠBlog
Ġwings
health
Ġspacecraft
Ġinvesting
ÂƔ
Ġacceptance
Ġ77
Ġtouched
ĠRice
Ġtune
Ġzomb
Ġtoile
ĠTea
Ġinitiatives
ĠBuilding
Ġexchanges
otypes
Ġscary
Ġpays
ayed
deg
main
ĠDJ
Ġideological
Ġpink
orient
Ġscenarios
idding
Ġfilling
Ġmanufacturer
ĠBenjamin
ĠBeh
---
ĠStein
ĠTampa
ĠEvans
ĠElection
roc
Ġserial
âƄ¢
Ġinfring
Ġconstrain
ocker
Ġrotation
lamm
Ġrespected
ĠMcM
when
ĠKu
ĠDraft
abbing
Ġpressed
Ġoverd
Ġnonprofit
Ġpeers
because
Ġacquire
Ġcake
Ġoperational
Ġincomp
Ġcrops
Ġlanes
abetes
initely
UTERS
Ġcompletion
ĠLaure
Ġhighway
Ġtreating
umbled
Ġpriorities
gt
Ġsubsidies
Ġexplosive
Ġanimated
Ġresigned
econom
chi
Ġears
ortunate
Ġslavery
Ġdifficulties
ĠArctic
ĠKl
usters
ĠMobile
Ġislands
ĠCohen
auc
ĠÂ©
story
Ġfreely
Ġchurches
ĠChance
whe
ockets
Ġshorter
Ġfright
owell
Ġformally
Ġapprove
Ġreserves
Ġtel
Ġdesired
Ġrifle
Ġquotes
ĠGa
ĠRio
Ġrespondents
Ġexem
Ġparticipated
ĠBrandon
Ġbones
Ġdisclosure
think
zb
Ġbio
ĠFigure
ĠRail
ridge
mn
ĠAwards
Ġcrowds
Ġ1930
Ġhumanitarian
Ġworthy
Ġvolunteer
ĠText
Ġsher
icut
Ġmechanical
Ġtutorial
valid
erer
ĠÃƗ
Ġclever
Ġsecured
Ġhier
Ġjudicial
oons
Ġattributed
Ġrumors
Ġconj
Ġmamm
Ġcrude
charge
ĠSaints
ÑƏ
Ġmonetary
Ġdeliberately
ĠCentury
();
ĠFro
abl
icts
Ġcultures
product
Ġrocks
bart
Ġanticipated
Ġinhib
Ġflexible
erving
Ġeconomies
ĠNeed
isen
udge
Key
ĠMcConnell
iary
Ġincons
Ġbass
imens
ĠRaid
rane
atile
ĠKyle
Ġexped
Ġgrateful
Ġelderly
Ġconsequence
Ġjokes
sized
Ġheritage
ĠDom
Ġpanic
Ġteenager
Ġdispar
Ġspreading
controlled
Ġdispos
Ġinterrog
Ġflexibility
Ġtoken
Ġaffair
ĠSmall
Ġalternatives
Ġchap
ĠFarm
iciary
ĠTalk
Ġturb
Which
Ġnaked
Ġzones
Ġdeclare
ĠCircuit
drop
ĠPok
crat
Ġviral
glas
ella
Ġfinan
Ġabsent
ĠKerry
Ġattendance
ĠTerry
Ġadvantages
azy
Ġtriggered
Best
Ġbuzz
ĠAlberta
izard
Ġtechnically
Ġreaches
ĠSwitzerland
ĠMitt
ĠChap
Ġtensions
Ġposed
ĠBuck
Ġdetected
ogg
Ġinstinct
Ġknocked
VERTIS
Ġdesigners
zo
Ġdisturbing
Current
Ġpreval
ĠEarly
ĠArticle
llers
ĠTreat
Ġpledged
Ð²
ĠTun
orig
sky
ulpt
ĠBrussels
ĠPosts
Ġinstruments
Aust
value
Ġsends
RT
Ġsatisfied
ĠIC
Ġprocessor
Ġwrapped
ilateral
ĠMov
arettes
iva
start
Ġexcitement
ĠTa
Ġfare
Ġgreenhouse
Ġshifted
Ġfluid
Ġequity
Ġbreakfast
North
Ġlun
never
Ġfloating
Ġdose
Ġreminded
ĠKirk
Ġharmful
ĠPuerto
incinn
ĠPartners
Ġtransparent
urned
Ġtrapped
Ġreply
eren
Ġwelcomed
Ġnull
Ġappeals
ĠCampaign
ĠFranklin
Ġharvest
Ġresolved
Ġlegendary
Ġsuitable
ĠAnti
ationally
ĠIss
best
Ġmagical
Ġbrains
Ġrefusing
Ġ73
Ġfitness
Ġavoided
prising
Ġgrasp
Ġportfol
Ġidentifying
estone
ĠGray
Ġdeclaration
Ġannouncing
Ġ74
Ġrecy
Ġabol
itably
Ġinnings
Press
oner
fox
Ġlib
Ġhorm
ĠLynch
ĠBuffalo
Ġsteep
Ġprovincial
Ð¼
ĠCommunist
iated
Ġcondemn
Ġhabits
ocate
Ġrushed
ĠMD
eu
Ġimmigrant
Ġmutual
Ġempire
Ġhatred
ĠBarry
stock
ĠMaine
Ġhybrid
Ġassuming
raham
Ġminorities
Ġoptimistic
ski
Ġhopeful
Ġindicating
Ġeditors
Ġexcessive
Ġfrozen
Ġwhites
ĠPhilip
Ġbrows
Ġbeloved
incinnati
Ġtemporarily
NG
Ġconducting
fold
ĠVery
verning
seud
anking
Ġpresumably
Ġtrusted
Ġdeployment
Ġimagination
Ġediting
ĠDoug
Ġsuppose
dale
Ġearliest
Ġassured
ĠChristie
Ġstocks
Ġtendency
bles
ĠPrin
Ġpenet
Ġimmense
ĠNatural
Ġshar
AV
ĠRogers
eor
than
ĠMom
Never
Ġbarriers
ĠGPU
110
las
Ġfest
Ġtourists
ĠPed
powered
quality
Ġdeciding
Ġheadline
Ġthrows
points
Ġcasting
ĠBears
Through
esis
Ġworship
around
Ġcompos
âƀ¦âƀ¦
Ġrall
Ġinfected
ĠTrudeau
ĠJets
Ġmixture
Ġvegan
Ġsocialist
Having
Ġsparked
ĠFun
roller
ĠAw
keeper
Ġbuttons
Ġgrip
Ġwaited
Ġdamaging
rust
Ġstructural
ifferent
ĠOccup
ĠWarriors
Ġgrabbed
Ġdefenders
Ġcolleague
ĠBund
Ġdiver
ĠAlt
Ġcolleges
bage
note
lib
Ġcryptocur
otton
Ġunity
Ġathletic
Video
Ġarmor
Ġrehab
sign
peror
Ġtrash
igers
ighed
ĠHP
master
Ġplanets
ĠOscar
ĠFried
orses
olk
Ġcartoon
nered
Ġscrap
ĠChuck
aukee
ousing
ĠBrady
Ġlake
ĠGarden
Ġparliamentary
lly
Ant
ĠBou
ĠJefferson
Ġfru
Ġcompliance
Sch
Ġsocieties
wal
ĠLiberty
Ġpursuit
Ġdisg
big
Link
Ġwhistle
perial
Ġclicking
Ġauction
alog
ĠGuide
fil
Ġtraditionally
Ġ78
Ġattitudes
plan
Free
Ġsurvivors
Ġhumor
Ġapproaching
Ġwidth
ĠBh
Ġnick
Ġexports
Ġreson
ĠColumbus
ĠTurner
enna
ĠWikipedia
public
Val
NEW
Clinton
ĠHide
Ġlegislature
ĠIslands
Ġbarrier
ĠKeith
pace
Ġwinds
Ġchampions
Ġdecides
Ġpurchases
acent
Ġmasc
ĠJe
beit
Ġhoney
BR
Ġpurely
Ġlifted
Ġdetain
afi
Ġessence
Ġsecrets
ĠCorbyn
ructive
ĠShan
Ġpursuing
Ġobservation
Ġtexts
Tom
tics
cs
ĠUntil
ĠHarvey
ĠMorning
Ġinsect
Ġthereby
Ġfont
Ġethical
Ġrecount
Ġbless
Ġundermine
forcement
Game
Ġwishes
Ġtang
Ġurge
store
Ġgrows
ĠDub
arents
Ġalph
ADVERTIS
Ġregulators
Ġoffset
ĠCrown
oni
Ġft
Ġaggreg
TION
IVE
Ġmeantime
ĠYahoo
urred
Ġdonated
enc
ĠCorn
ĠCho
Ġtong
school
Ġlaser
Ġeconomists
Ġliberals
Ġmetab
Ġtreaty
ĠSep
Ġexempt
waukee
Ġ71
Ġreminder
Bet
Ġaest
Ġsucceeded
Ġnons
Ġpist
Ġsquee
Ġromantic
Ġbottles
Ġpassionate
ĠNorway
Ġflip
Ġvel
Ser
Ġhackers
Ġfailures
ĠJu
path
ĠWWE
ĠUniverse
Ġemotion
ĠWorks
Ġouter
dig
icials
ĠFantasy
ĠPap
arenthood
Ġbreakdown
ĠEV
ĠMoney
ĠEX
unct
================
Ġidentification
Ġfraction
plex
ĠMadison
ĠFDA
backed
Ġtrop
ĠCambridge
mi
Ġadmits
EG
Ġsacrific
Ġdivorce
Ġsensor
Ġpermits
Ġ01
ĠRaven
Ġdecreased
owners
ãƁ®
gian
CNN
ĠDNC
]:
Ġexecute
rained
Ġ()
Ġgenerous
Ġaftermath
gi
ĠPur
olo
ĠKarl
ĠEss
Ġsued
Ġwallet
Ġcomply
Ġdraws
Ġ82
second
Ġtat
Ġcomparing
MC
Ġunfortunate
Ġarriving
Ġretreat
Ġfinancing
tha
visor
isers
Ġstrain
Ġdisorders
ĠArkansas
Ġvariation
ĠMilitary
Ġslave
Ġenhanced
ĠWikiLeaks
inging
Ġfeeding
Ġfemales
ĠRodrig
ĠEli
ropolitan
ĠNort
source
tail
ĠGhost
opes
Ġverdict
Ġhelicopter
Ġaccountable
Ġconclude
Ġunh
ĠGuy
izable
ĠDeputy
DB
Ġcreep
ĠFisher
ĠRobin
aws
ĠREUTERS
Ġcheer
Ġtreatments
oa
Ġbatteries
Ġreconst
advant
Ġunders
ĠJake
South
ĠMemorial
ĠNeil
mouth
ĠURL
Ġpreference
LY
ĠConnecticut
ector
Ġcontacts
Ġsilly
Ġlasted
Ġmasses
ĠPolish
ĠCommunications
Ġcompound
Ġembedded
Ġsequel
Ġretailers
Ġcorresponding
giving
ĠMission
Ġdestroying
Ġlacking
Ġencount
Ġdaughters
igma
ĠTyler
Ġwondered
direct
Ġdys
NY
Ġcapitalist
five
Ġencountered
Ġeconomist
UE
ÑƋ
Ġreun
ĠRoom
Ġampl
Ġvertical
Ġlicensed
Sy
Four
Ġwarfare
vation
ĠIRS
ĠKrist
ĠThunder
ĠEmb
Ġfounding
normal
ĠVenezuela
ĠScar
Ġcub
Ġsmugg
Ġaging
ĠMaria
irable
Ġhill
Ġgifts
Ġstatistical
have
pop
Ġslower
Ġadvances
ĠPakistani
arest
Ġgravity
LO
Ġfierce
ĠConservatives
elta
ĠSpeed
Ġcareers
Ġstabil
Work
acceptable
Ġ1983
arding
Ġvillages
ahl
UM
Ġintentions
Ġorganisations
Ġseparation
Ã©s
ĠDownload
Using
Ġkingdom
Ġauthorized
ĠAdvent
Ġcounting
ĠLucas
haul
Ġtragic
Ġgoverning
Ġwarnings
Ġdispro
Ġinsurg
ĠPlayers
ĠÏ
ĠSalt
Ġ1982
ĠStudios
Ġlip
Ġfarms
ĠSusan
ĠMerkel
Ġdiagnosed
Ġcommissioner
Ġtaxpayer
image
ĠSpirit
utical
Ġlobbying
airy
Ġedited
Ġdemol
Ġtransformed
ĠCz
Ġcleaning
Ġfib
ĠHub
Ġstreak
itbart
Ġsuspicion
Ġeleph
Fig
Ġawa
ĠHolland
Ġcodes
Ġcontinuous
itative
Ġboring
ĠBos
anka
ĠPrize
ĠSciences
Ġmillenn
Ġconsiders
cribed
Ġscreening
Ġgamers
cha
ĠStars
ĠAth
Ġcontam
Ġdamages
ardless
oler
ĠKle
writer
oline
Ġtenure
ĠNav
earchers
Ġdece
ĠThor
ĠZh
ĠBrand
Ġinclusion
eded
Ġfuneral
Ġcluster
Ġfence
heric
Ġaired
Ġinstruction
anked
Ġtrafficking
Ġfeared
âƈƒ
rint
Ġdonation
ĠPinterest
ussion
fly
Ġworkplace
Ġinvite
ĠDanny
Ġcredibility
Ġteens
Ġinstitutional
Ġmonsters
ĠDest
idays
Ġcollapsed
Ġ''
cker
Ġjustified
Sign
AG
ppy
Ġhence
hammad
Ġhypothesis
iph
claimed
Ġnan
Ġsuspicious
Ġdenial
Ġorganizing
ĠTheatre
Ġisolation
adows
.:
Ġgrace
ueller
ĠMormon
Ġcort
Ġspawn
ĠWithin
inance
Ġsteam
Ġboyfriend
Ġnovels
Ġcivilization
Ġwrestling
Ġurging
Ġinterference
Ġdoubled
ĠIslamist
ĠPeters
char
Ã£
Ġthirty
home
Ġrealm
Ġmagnetic
.âƀƜ
Ġrib
Ġbelieving
Ġexpend
Ġoutright
Ġsooner
Ġevangel
ĠInterest
Orig
Ġindict
Ġbeneficial
Ġbranches
Ġdecks
Ġcrying
Ġcompiled
ollah
Ġrecruiting
Ġmock
Ġeducated
Ġenables
ools
Ġleverage
Ġinvented
Ġrhyth
Ġrushing
Ġeliminated
coins
Cap
Jan
Hill
Os
Type
urable
opard
live
Ġsponsored
Dec
Ġunveiled
Ġtraits
Ġbeers
Ð´
ĠCharlotte
ĠUbuntu
ĠStudio
Met
Ġtemplate
ĠCincinnati
Ġroutinely
Ġpleaded
ĠBash
Ah
Ġpizza
feld
USA
ADVERTISEMENT
Ġlabels
ĠTD
References
Ġevaluate
llo
Stud
Ġdumb
Ġsolidarity
Ġtemple
Ġagrees
ĠLtd
Ġbreathing
Ġox
Ġalbums
aux
ĠKam
ĠFormer
Whether
Ġmedian
roduction
ĠBradley
Ġlayout
Ġdiscour
ĠPrinc
ĠHills
ĠFel
Ġ88
Ġlau
render
ĠGlass
Ġultra
General
amps
Ġshifts
Ġincentive
ĠCut
Ġdirectory
ĠLeaf
James
ĠCarson
stage
ĠOd
Ġentrepreneurs
ĠBuy
aha
Ġvibr
ĠHindu
Ġmagnitude
Mal
Ġjumping
Alex
astically
Islam
ĠCass
Ġsmartphones
ĠOliver
kh
Ġcomparable
Ġclimbing
width
ĠIndonesia
Ġarrangement
Ġwheels
Ġpaths
ĠSM
Ġterminal
essional
Ġpilots
driven
Ġmidfielder
Ġincentives
Ġdirt
ĠMM
UI
Ġspecified
Ġexceptions
table
Ġadequate
Ġsnaps
Ġmonop
Ġcocaine
aceutical
Ġpsychology
Ġpeoples
ordable
arthy
Ġpreliminary
Ġcents
ĠSenior
ĠMcL
ĠLED
Ġpartial
pur
ĠVerizon
ĠAB
2009
ĠVermont
ĠPence
Ġscreaming
Ġlyrics
ĠSolar
Ġvisa
illo
ĠBJP
ucc
Ġtranslated
Ġglob
Ġfirmly
irk
Ġchains
Ġgenet
ĠTribune
jar
God
Ġintroducing
ĠJoy
Ġtransf
Ġregards
Ġconnecting
Ġcounterparts
Ġamend
Ġacres
ĠStre
Ġcricket
Ġbust
ĠFab
>>>>
anium
ĠGonz
Ġappealing
ĠFriends
Ġunst
Ġmeals
Ġunrest
WA
ĠCountry
Ġwildlife
Ã©mon
bull
Make
120
Ġdivers
ĠSox
ĠNin
Ġ::
occ
Ġtraditions
Ġthreaten
ĠTob
Ġpupp
Ġcreators
Â£
lie
Ġvacation
Start
Ġsensors
Ġlikelihood
ĠBooks
Ġdetermination
Ġcommented
Ġanime
Ġtriple
Ġtrace
Ġconvinc
umbling
cend
Ġmatching
ĠProfile
Ġcounted
ĠðƟ
Ġbetray
ivic
ervation
Ġprecious
resa
ĠPAC
Ġtoy
Ġplaint
rien
ĠBelgium
ÃƗ
Ġsculpt
Ġmotorcy
Ġparagraph
Ġsheer
ĠLebanon
ulative
Ġinvestor
Ġkills
Ġleagues
Ġendorsed
NET
Ġlicensing
Ġaccurately
ĠArthur
Russia
Ġtwist
Ġshifting
ĠAMD
iasm
iang
ĠNixon
Ġdism
Ġfolder
ĠCowboys
lude
ĠBY
West
Ġdisappointing
ateur
Ġavoiding
Ġcompassion
tees
aton
iots
acker
Ġjew
Ġgrain
Ġprohibited
Ġ1920
url
Ġmerc
ĠBrazilian
ĠGarc
ĠRosen
ugged
ĠArgentina
Ġworkforce
Ġaccounting
UPDATE
ĠRams
ĠHunt
Ġspare
Ġnit
Ġproceedings
pse
ĠUniversal
Ġfict
ĠEbola
Ġriot
Ġlengthy
Ġslaves
ĠWeiss
ĠPolitical
riving
Ġdubbed
ellar
pring
Ġinmates
Ġmentally
Ġshaped
Ġfundraising
Ġoverlook
Ġtouchdowns
Ġcelebrity
wart
Oct
ocaly
Ġ1981
Ġmarine
Ġindirect
Ġshed
Ġwillingness
kees
Ġdivid
aley
aghd
HD
affe
Ġintu
ĠBros
Ġseverely
ulum
OST
Ġgenerating
Ġestablishing
Green
ifting
Ġshoulders
Ġnegotiate
tor
Ġimplementing
ĠSerge
Europe
Ġpowder
Ġrenewed
ĠMO
ĠFinance
Rich
redict
Ġconsumed
Ġswimming
Ġbite
Ġcreativity
ĠQaeda
Ġrelating
Jack
Ġsectors
rament
vals
Ġfiref
Ġcertificate
ĠGlenn
ĠPhone
Åƍ
ĠMort
aku
Ġassumptions
sson
kg
len
ublin
ĠØ
Day
people
Ġinteractive
Sometimes
iosity
Ġobserve
auer
lash
Ġtradem
SON
ĠGates
Ġaccompany
ullivan
Ġaveraged
Ġreflection
itated
Ġhij
ĠCher
READ
High
ioxide
Ġbrave
uced
Ġsail
Ġroyal
ĠMust
rer
Ñƌ
Ġdisk
anto
ĠAnim
Ġaffecting
isible
Rober
ĠLane
days
uv
outube
Ġfilming
Ġworn
aters
Ġblacks
ĠTell
Ġfolk
Chris
ĠArmen
ulent
Ġindigenous
Ġearthquake
Ġpub
qual
Ġsubscription
Ġtub
ĠBond
Ġconsultant
Ġmounted
Ġadaptation
Ġclinic
asi
Ġdetection
Ġ79
rose
olutions
ĠAnne
Ġcompatible
ĠMarco
ĠMilwaukee
Ġrepublic
ĠClar
acious
engu
Ġrecalls
Ġye
Ġ130
olphins
Ġfuels
Ġcorners
Ġspecialist
Brit
Ġescaped
ĠHighway
Ġdiabetes
German
Ġ1967
Ġwooden
Ġadjusted
ĠMason
Ġtriumph
Ġpredictions
ĠCelt
iology
Ġslip
Ġimpress
ooting
Ġproblematic
ĠEc
Ġlesser
Ġadmission
ĠNex
Ġliterary
Ġfarming
ĠAve
nik
Ġtranscript
âƖƈâƖƈ
Ġmarry
Ġmaker
Ġlawsuits
Ġaggression
ĠEdd
ĠBlues
Ġorigins
ĠCreek
ĠColomb
abul
ĠHum
inos
Ġhealing
etta
Ġaudit
Ġcontinent
ĠBulls
Ġtrap
ĠGermans
Ġ110
WH
Ġholy
ĠDouglas
Ġdescript
Ġwherever
his
Ġmusicians
eches
closure
ĠRC
issa
ĠGoldman
Ġvon
Super
ĠÐ¿
ĠBB
Ġunderway
alph
Ġmortality
ĠReading
eting
neath
blog
Ġevaluation
orns
Ġpants
Ġabused
ĠGallery
Ġvulnerability
Ġbankruptcy
Ġsuperhero
Ġdelays
ĠParenthood
Ġreset
Ġleather
Ġleaf
Writ
Ġshore
Ġindependently
munition
Ġveto
ocaust
Ġskilled
Russian
ignt
hew
hal
Ġtimeline
Muslim
ĠSpider
Tor
Ġleaks
iliation
Ġintercept
ĠVA
gel
Ġresignation
Ġinch
Ġsuits
actic
Ġwreck
Ġcycling
ĠSW
ĠBroncos
Ġdarkness
Ġ180
Ġorganize
Ġswift
ĠVi
ĠSuperman
Ġsheriff
ailand
ĠBernard
atherine
ĠSor
blem
rape
Ġafterwards
Ġresume
Ġseiz
Ġsupportive
levant
marks
esity
PN
Ġshootings
ĠSomething
..."
Ġinappropriate
ĠJoh
Ġforming
Ġ1940
Ġlaughing
Ġbehaviors
Tunes
selling
issance
Ġalternate
ĠIl
umbl
pered
lights
Ġunanim
Ġtestified
ĠIsa
Ġrebell
Ġ1968
Ġpractically
Ġesp
ugging
ĠBudget
rowth
Ġbroadband
ĠTry
Ġthoroughly
Ġcrashed
Ġinsists
Ġteenage
ĠLock
Ġsie
Ġbind
Ġdisadvant
Ġlaboratory
ĠSad
Ġprest
REL
ĠJohnny
Ġdoctrine
Ġencryption
Ġune
ĠExchange
uru
iop
Ġconsolid
Ġkernel
black
ĠVikings
ĠAlf
Ġlocally
Americans
Ġoutbreak
!!!
Ġexhaust
ĠGate
Ġoffshore
Ġsounded
keys
Ġexpose
Ġapology
ĠQB
Ġoutfit
ĠReed
COM
ITY
Ġcolonial
bean
ĠMember
riel
Ġautonomous
Å¡
Ġcorporation
Ġcostly
display
Ġprox
Ġneat
Ġphotographer
addy
Ġgray
Ġanalyses
Ġkillings
uns
four
ĠSpencer
illery
City
Ġdemonstrations
Ġcharts
ĠLiving
Ġintend
apy
Ġreasoning
Ġclassical
Ġdemon
Ġedges
Ġmobil
ĠPalestine
Ġattacker
ĠWR
ependence
Ġvegetables
Ġinfer
wer
ĠSeah
Ġmatched
Ġembassy
Ġpurchasing
Ġlecture
lementary
Ġcm
Ġhed
funded
ĠAgree
IDS
Ġcra
Ġswitched
ĠKoch
Mike
Ġlocals
ĠFat
ĠWalter
ĠDiam
Ġlap
proof
Ġrated
Ġobligation
ocity
ĠInv
Ġgarbage
abad
Ġstatue
ĠSystems
itis
Ġstraightforward
2000
Ġgods
Ġelaborate
Ġbuses
uum
ĠLess
MI
Ã£o
Ġflowers
Ġterritories
Ġportfolio
Ġ1976
Ġhalt
900
ĠBased
LS
ĠBetween
cules
ocumented
Ġ101
Ġinfamous
Ġtrauma
Ġoh
ĠLoad
ĠMichelle
ĠMerc
Ġunfold
gro
ĠSoul
Ġorche
Ġairline
lem
)(
oping
ioned
oubted
reach
ĠTory
Ġprivately
Bit
azed
cca
ignty
ĠEmploy
ĠMMA
Ġsisters
Ġdealers
Ġbesides
ĠHomeland
Everyone
Ġ^
ĠKind
ĠAqu
php
ĠSel
Ġpepper
Such
Ġloving
ĠUnit
Ġfame
Ġfrustrating
Ġaccommodate
iking
ĠMuhammad
Ġmedication
Ġathlete
Ġforums
Ġ1975
zi
Ġburg
ä¸
Ġnuts
Ġattributes
Av
je
Ġpredomin
ĠVeter
ĠDenmark
Asked
Ġheter
rolling
ĠBuild
ĠComics
names
ĠGear
Ġrankings
Ġclosure
ortions
iri
Ġlimiting
Ġmodes
pelled
Ġstriker
Ġ98
nesty
CR
Ġsearches
Ġsink
viol
Ġimagined
ĠCalgary
Ġ81
Ġwithdrawal
Ġdated
bul
ĠHem
Ġeighth
Ġquery
writing
ĠLuck
Ġeffectiveness
respons
Ġstays
Ġobservers
ĠSubscribe
ĠNumber
Ġintake
Ġmph
Ġspill
Ġdioxide
othy
Ġcarriers
ĠShadow
ĠWATCH
Ġenthusiasm
Ġgrat
Ġwhilst
Ġuncons
Ġconvey
prom
Ġmisleading
Ġ1973
ĠRelations
Ġpublishers
Ġmeasurements
ĠHat
ĠMovement
Ġsubstantially
Ġnominated
shirt
iga
LD
Ġhistorian
ĠHarrison
ĠKel
ovic
Ġlisting
ĠConfeder
Article
Ġstrings
ĠGPS
Ġqualities
ĠBuzz
Ġdelicious
Â®
Ġlocker
ahn
Ġresponsibilities
Ġdangers
Ġexamination
Ġhungry
Bay
ĠBrun
Ġdiagnosis
Ġdash
ĠPalin
SM
Ġplea
Does
Ġhood
Ġdrought
iche
Ġexagger
national
ĠPT
ĠRace
roots
Ġwand
Ġdisclose
ĠHud
abel
ĠTeh
ĠACL
Point
Ġrevised
Ġrelies
Ġstab
Ġdiffer
Ġinevitably
Semit
Ġbloody
Ġmemorial
Ġvolumes
Ġignoring
Ġcher
ĠUpdate
ĠRico
mination
Ġ84
Ġloyalty
izont
Ġvariations
help
Ġshutdown
ORT
Ġmaintains
ĠSoftware
Ġentries
ĠCarlos
Ġammunition
Ġ1972
Looking
pit
Ġsymbols
ĠBlair
ĠWoman
Again
ĠJa
Ġports
AK
Ġyours
comm
Ġfriendship
Ġ83
insula
ĠPas
wear
olan
Ġpile
Ġclassroom
Ġaltered
Ġdemographic
mines
Ġoccurring
Ġphotography
Ġcod
ĠVillage
ĠAmy
Life
ĠDennis
Ġtribal
Ġquad
INGTON
ository
Dep
Ġalgorithms
entials
Ġhorses
Ġformerly
Ġreduces
Ġfundamentally
Ġbriefing
Ġfulfill
ĠPlanned
Ġmeg
hole
Ġpseud
Ġinhabit
Ġraped
Ġcelebrating
del
Ġvessel
Ġheroin
########
ĠBrooks
Ġdesperately
artisan
Ġgallery
Ġmetres
ĠWallace
Ġskull
ĠLisa
ĠDR
ften
Ġmidst
lient
ĠTransportation
INE
Ġbikes
ĠGMT
Ġreinfor
represent
Ġdispens
Ġdeleted
wealth
âƀ¦âƀƝ
Ġunlimited
Ġ1978
Ġsacred
ĠMi
Ġoutdoor
Ġshy
Ġarchae
aba
ĠHockey
ĠSunni
Ġnewest
Ġdeclining
idges
Ġbelongs
Ac
ĠPast
Ġinsure
Ġspectacular
Ġprescription
Ġfiber
Ret
Ġexercises
ĠGit
Ġjuice
Ġexpressing
db
ARD
Ġmodules
Qaeda
Ġaccountability
ĠLiberals
Ġschemes
ĠAld
ĠRaiders
letter
ĠTerror
Ġpipe
Ġgarage
Ġgovernance
also
Ġflesh
Ġtribute
Ġconsume
urring
Indeed
Ġrubber
ITH
hner
ĠEdwards
ocide
Ġpresidents
Ġlinebacker
Ġwip
itial
Ġarranged
arette
Rob
asse
ĠPick
ĠMC
Ġchase
Ġshapes
Ġfilmed
RES
Ġbedroom
pic
puted
Apple
ĠPokÃ©mon
sche
ĠRou
Ġsolved
alin
ĠShel
Ġ86
ĠSeahawks
remlin
Ġaide
Ġproc
Ġnodes
agging
Ġreception
ĠMueller
Ġconfusing
ulu
Ġplayback
heimer
uki
Ġbillionaire
Ġtwin
Ġaccidentally
lay
ĠAgr
ĠChapter
oubtedly
Ġbinding
ppo
ĠJennifer
ĠBus
irtual
Copyright
Ġloses
Ġrage
Ġpermanently
ulsion
runner
ĠWonder
Ġtoys
2008
VA
Ġexhibition
ĠShar
Ang
Ġunle
ĠServer
Ġsanct
ĠCoach
ĠSilicon
Ġmisconduct
Ġspirits
aneous
Ġ96
Ġwounds
Ġmedal
sis
Ġboats
Ġthumb
working
chair
ĠSi
ĠLost
Ġfreshman
ĠFly
Ġvigil
Ġluc
Ġprejud
Ġsells
ĠFame
Ġconsiderably
ĠPhotograph
Ġdemonstrates
ĠDublin
ĠRah
Ġgrey
Ġlasting
Ġstrictly
Ġshipped
Ġmanages
Ġchemistry
onge
Ġregulate
Ġfinals
ctive
Leg
Ġmilitant
Ġ87
Ġlabeled
reated
mel
Cr
degree
Ġfines
Ġtolerance
Ġtier
ĠTruth
ĠNPR
Ġskeptical
Phot
Ġexceptional
Ġspite
Ġfancy
ĠMalaysia
Mer
rong
ieval
Ġlinear
ĠUrban
GR
ungle
Ġstreams
Prof
ĠChile
ĠAuto
ĠForum
ĠZion
Ġpuzzle
ĠString
Ġreasonably
ĠPere
ĠRoth
Ġtackles
Ġcancelled
Ġdenying
Mat
ĠJuan
San
prov
Ġpitcher
Ġ97
Micro
ĠDod
Aug
Ġprocessed
ĠGand
ĠHero
Ġlovely
space
Author
ĠViol
forming
ĠRat
Ġmidnight
Ġretrie
ĠResources
ĠOperation
thirds
Ġspends
Sl
Ġrestored
Ġorganizers
manuel
Ġmonument
Ġunacceptable
px
Ġsubmar
ĠYears
Ġtuned
Ġgenuinely
Ġteenagers
Ġquo
olutely
ĠPalace
ĠRush
Ġfacilitate
Ġmature
ĠCond
ĠFile
Ġfoul
ĠRepresentatives
Ġdancing
ete
Ġrelate
borough
Ġoutlined
ĠBilly
ĠTill
Mem
Ġadvers
Ġautomated
Ġobligations
Ġsexuality
Ġdivisions
Ġextends
................
Ġtourism
Ġsurveys
ĠMcCarthy
oust
retion
Ġleap
ĠiTunes
ths
ĠCart
airo
ĠThailand
Ev
Ġsuccessor
Early
BER
oween
ĠPad
ĠCharg
ido
ĠBennett
Ġspotlight
ĠShield
ĠMack
ĠÂƓ
ĠArn
Ġanonymity
Tur
inery
Ġinability
Ġdefining
Ġaboard
ĠNDP
ĠZero
wick
ĠRichmond
ĠDM
Ġrecommendation
Ġunderneath
ĠInvalid
Ġdrilling
ripp
ĠSpurs
Î±
exp
Ġgeneric
istically
Ġsubjected
Ġhearings
Ġbattlefield
Ġpound
Ġincumb
Ġsnap
ESS
clusion
ĠCzech
ĠGriffin
ĠGay
Ġsect
Ġspeeches
apor
Ġconsistency
ĠObviously
Ġvictories
ĠFast
ĠBetter
ĠGB
ĠReturn
ĠBangl
headed
ĠChamber
Ġpiv
ĠHope
aires
Sur
Ġcontractors
ĠChronicle
Ġnort
Ġcorrid
ĠSeven
Ġlined
Ġrisen
closed
Ġguilt
ranean
Ġtongue
Ġoverhaul
Ġincoming
mos
ĠCommerce
mile
PH
Ġadverse
edge
ĠMaj
Ġpremiere
Ġparade
ĠSelf
SO
Ġsalaries
ĠRecord
ĠElsa
Ġtravelling
Ġconcess
ĠSay
ĠBeyond
ĠLLC
ĠBreitbart
Ġstepping
ĠSoccer
Ġnamely
Ġembraced
Ġfrankly
Ġdiscon
Ġrendering
holder
ĠSoon
âƀƝâƀƔ
write
Ġtranslate
anti
ĠFitz
ĠTitle
ĠAccount
Ġmelt
Ġconfidential
oute
Ġplates
Ġ02
Ġexhibit
Ġconfronted
Ġ1969
ĠQatar
Ġdive
Ġbinary
icers
Ġanalyzed
Ġì
Ġtactical
Ġdefic
bad
Ġartif
{\
bsite
Ġliability
ĠWorkers
ãƀƂ
Ġempower
ĠPackers
ĠHurricane
ĠGP
ĠElectric
feed
inate
Ġbureaucrat
ĠPun
Download
Ġstroke
ĠSurvey
cill
Ġunited
Ġfunctioning
Ġrede
agged
Ġgard
ĠCape
ierra
osi
accur
Ġdot
Ġarrives
gregation
Ġlicenses
Ġrings
green
ĠCuban
lett
Ġpartisan
ĠGas
House
Ġdonate
ĠPrint
ĠMall
Ġmate
Ġbacklash
Ġvendors
ĠBryant
kill
ĠMVP
Ġdoubts
usterity
ĠHalf
Ġstealing
team
Ġsignatures
Ġcargo
Ġfelony
Ġvib
lington
ĠIv
ĠNA
ĠGreens
Ġgrocery
ĠSF
ĠMLB
mingham
Ġclouds
Ġjack
Ġpublications
Ġcasualties
Ġ911
Ġautism
Ġpale
Ġnegotiating
Ġcoastal
IFA
ĠStudy
ĠRAM
Ġobjectives
Ġ93
Ġmentions
Ġretro
Ġglory
disc
Ġsovereignty
Ġelectronics
Ġdefendants
ango
IGHT
=âƀƝ
ĠHBO
ority
Ġ>>
Ġpremier
?!
ĠMethod
Ġlibertarian
Ġindef
Ġintens
ĠTitan
ĠSA
Frank
ĠShah
ĠIceland
Ġarrangements
ĠRegional
ickets
Ġvessels
Ġartic
Ġhonour
ĠKill
uting
Ġencrypt
Ġacute
Ġflows
Ġnod
ĠDefence
ĠSent
Ġdisclosed
Ġsporting
ipt
Ġlacks
Ġfortun
ocrats
Cle
rones
far
Ġpreseason
Ġnecessity
ĠALL
GS
ĠSearch
ulator
Ġpropri
BE
Ġ{\
ECT
ĠBrothers
ĠBobby
Ġuseless
Ġunch
Ġpretend
Ġoutlet
Ġ1977
Tim
Ġclarity
Ġheal
Ġconvincing
entions
Ġlegislators
egu
VR
Ġimpe
Ġcatching
ĠTib
oriented
ĠBarbara
Ġdignity
thereum
yd
Ġdetermining
Ġutterly
Ġprotective
ĠLE
azines
Ġtwelve
Ġcute
uity
Ġstimulus
pless
Ġlegitim
Ġram
Ġcharacterized
Ġblown
Ġdense
terior
Ġmarketplace
ĠAttack
Ġslic
Ġtube
Ġsponsors
Ġtheoretical
ĠNobody
Ġlighter
Ġhash
ĠRic
Sand
Ġspells
Ġcure
rawl
ĠBeast
Ġhunger
Posted
ĠSimilarly
Class
Ġelectro
Ġflooding
Ġadapted
ĠEventually
omatic
ĠPhillips
ushing
ĠBrowns
Event
ufficient
orus
Wind
Ġ92
Ġgenius
aughed
Ġprevention
ĠFran
ĠCOM
FR
Ġerupt
zh
Ġseam
ĠColon
OO
kens
Ġswitching
Washington
Ġevolutionary
Ġmall
Ġforests
ĠButler
aky
lickr
ANT
ĠBP
constitutional
Ġenabling
Ġmuscles
ĠÑƁ
umns
ĠTigers
Ġglasses
Ġcompleting
Äƍ
Ġod
ĠShi
Ġquarters
ĠMIT
Ġ1974
plane
Ġsensitivity
Ġantibiot
ĠNag
cost
ĠBryan
atican
ĠMode
Ġfart
ĠAltern
server
Ġ),
ÄƇ
castle
Ġcares
Ġware
ĠJav
Ġbarrels
anting
FT
email
Care
Ġachieving
ĠSandy
Ġmalware
Ġreadily
Ġexploitation
Ġmistaken
Er
Ġtablets
Ġadmin
ĠBR
Ġaffiliate
ĠPL
Ġmeta
Ġmurders
ĠClay
building
Ġcoat
omo
Ġhaul
Ġwit
Ġhem
utenant
)|
ĠLang
ĠCastle
Ġastronaut
ĠNE
ĠBishop
Ġequation
Ġlistened
ĠObject
ĠStop
Ġjurisdiction
outed
Ġdebris
ĠIb
Ġsubscribers
Ġdrill
aired
Ġrebuild
AFP
Ġhind
control
nex
ĠPanthers
ĠNevertheless
velt
Ġtribe
ottom
Ġholders
ICK
ĠPlanet
ĠTar
Ġsponsor
Ġlaughed
ĠOwn
mined
Ġextending
Ġspecify
Ġsubscribing
Ġcab
Ġredist
ĠInside
ĠAx
Ġreferen
Ġbipartisan
Ġcooling
Ġfond
Ġpredecessor
ĠToo
Ġframes
Ġinsights
Ġsometime
Mobile
color
III
ĠArabic
Ġcancel
riages
Ġrefusal
Ġ1971
''
ĠEdge
Ġbearing
Ġrats
Ġcousin
ĠImperial
Ġfinancially
Ġeleg
amas
Ġrolls
Ġupside
Ġsweep
Ġsyndrome
Ġende
cm
IX
Ġnotorious
Ġnightmare
Ġpersist
Ġpairs
Ġduo
Ġfirearm
ĠPrim
ĠJamie
Ġsweeping
Ġproport
Ġbusinessman
ĠOrthodox
ulk
amped
ĠLev
Ġsurpass
Ġcredible
ĠSO
Ġarbitrary
Ġaston
ĠAustria
frame
ĠWii
bot
rone
Ġattackers
ĠCu
ĠBird
Ġ350
Ġcu
Ġhardest
ĠIndex
ĠBed
Conf
Ġmobility
Ġmigr
ĠDawn
Ġ140
Ġrect
die
Ġexpectation
respect
Ġassociations
reamed
Ġmemor
Ġneurons
ĠSpot
ĠDouble
Ġglobally
ashi
Ġoral
Ġdominate
produ
Ġreviewing
UK
Ġhydrogen
Ġnewer
Put
amy
Ġviolating
import
ĠNewton
build
Ġportrayed
ASHINGTON
tic
Ġspat
Ġcharter
Ġtreasure
Ġlately
ĠTODAY
Ġtourist
Ġterrain
Ġtricks
Ġseparately
Direct
Ġinflamm
agonist
Ġendorsement
ĠIBM
Ġdeterior
ptic
Ġvowed
Ġtroubled
ĠSwift
Ġreiter
ospel
Ġrevelation
Ä±
VID
ĠRachel
ĠDaw
Ġdescend
Ġdisability
ĠSudan
Great
Ġaides
nut
Ġapologize
Ġnationally
ĠBaghd
Ġposes
Ġnavigate
Ġbiology
inces
Ġrelied
ĠRud
ĠJulian
Buy
ĠRO
âƀƔâƀƔâƀƔâƀƔâƀƔâƀƔâƀƔâƀƔ
ĠGR
izards
ĠQuinn
fin
tw
osures
Ġsettlements
Ġwash
ĠMarcus
amo
Ġpockets
ĠWells
ĠÐ²
Ġartistic
ĠTehran
tem
hum
atched
Public
Ġbatch
Ġcommitting
ĠStra
Ġcache
Ġgau
arcer
umblr
pdf
oug
three
Ġtournaments
ĠLaura
ĠBorder
Ġphysician
Ġelevated
ĠMul
system
ithub
Ġstraw
Ġpersistent
Ġblend
ĠContinued
Ġproving
Ġaqu
Ġshortage
UP
Ġdeclaring
Ter
ĠCSS
especially
Ġpray
Ġincon
ĠGlobe
adequ
Ġidentities
Hub
AST
iances
aho
ĠCab
aru
Ġinterim
Ġvillain
ĠFish
String
Ġstark
ĠBreak
unks
Ġaster
Ġinvisible
ĠMachine
Ġlesbian
Ġdistinguish
Ġviolate
Ġgalaxy
sim
Ġartwork
ĠBL
ĠAssistant
Ġgraduated
Ġvaried
Ġexcluded
Ver
ĠDue
inho
Ġaliens
Ġovertime
Ġdrown
ĠLegend
Ġdefinitive
Ġoversee
info
Ġintersection
Ġ89
Ġpronounced
Ġgi
ausible
ĠKor
America
Mac
ulates
Ġrunner
Ġkicking
ĠNancy
Ġanalog
Ġrelent
Ġaccusing
ĠTher
Ġassembled
bone
talk
ĠClose
IME
Ġinfluences
rogen
ĠCardinals
Ġmush
ĠErd
Ġrenov
Ġpreferences
ĠNexus
Ġprey
Ġsubway
Ġobesity
ĠNat
Ġrevelations
Until
National
ĠTravel
Ġalumin
ĠJong
ĠLaden
ucle
Ã¼r
Ġfortune
ernandez
Ġlaying
Ġbullets
";
Sports
Ġhelmet
monton
Ġpsy
Ġwarr
ĠWade
Ġbeside
Ġdread
ĠSelect
Det
Cong
ĠNeither
Ġseal
Ġrisky
Ġpp
Ġunsuccess
ĠTru
Ġvarying
Ġtribes
Ġhandy
Ġimplies
Ġvet
inez
Ġshower
Ġtoilet
ĠAffordable
Ġrental
ĠDra
osevelt
itutes
ĠMitch
ramento
ĠClean
ĠBiden
Ġbanner
Ġkilometers
Ġrelying
ĠDrag
ĠBannon
Ġneural
ĠHorn
Ġbreakthrough
Ġfavorable
ĠLuther
inis
ĠWhatever
science
ĠMembers
yang
Ġpetro
although
Ġauthentic
hett
gs
Ġtaxi
Ġnurse
Af
ĠPil
Ġdissent
ĠFlight
ĠClassic
ĠTarget
SR
Ġanalyze
Ġrecipes
Long
Ġreluctant
Ġaiming
lon
Ġkicks
ĠJoined
Ġcredited
Ġpatience
Ġinspire
Gold
Ġurgent
Ġassassination
Ġfamously
third
full
Law
ĠCM
ritical
Ġunaware
Ġbackers
Ġpup
ribly
ĠJobs
Inf
ĠCollect
Bill
Ġprofitable
Ġclause
ĠWire
economic
ĠHR
larg
Ġvoluntary
Ġfactories
Ġsubstitute
Ġcaut
Ġmassacre
Ġmeasuring
Ġrecreational
Play
Ġsummar
ometown
asma
achers
CLA
Ġprayers
official
Ġmant
Char
Ġexpressions
Ġtricky
Ġminim
Based
ĠCBC
lication
braska
Ġmagazines
ĠPoly
Ġtexture
Ġcycles
Ġpuck
Ġpassive
Ġdiscourse
ĠCant
appro
ĠYankees
every
ĠVatican
ĠArc
Ġsocially
Ġpause
Ġalbeit
ĠGarcia
Ġbout
ulin
Ġundoubtedly
Ġfisher
ĠHispanic
Ġstarring
ĠKremlin
ĠEither
ĠWinn
soever
Ġattribute
obi
omi
Ġmosque
uras
ĠLem
REE
imated
Ġreceivers
Ġcrews
Ġsticks
Ġheated
Ġprovinces
Open
ĠFourth
ĠAgricult
Ġworries
ĠMes
ĠMans
semble
Ġmaneu
Ġcontractor
Ġdefendant
Ġintentionally
ĠCrow
usions
Ġloading
Ġsemin
Ġprecedent
mus
Ġmemorable
ĠGrey
Ġic
Ġfoster
ĠPolitics
ĠHolocaust
ĠPete
Ġbroadly
erting
Ġfitting
Ġours
Ġsatisfaction
hend
aternal
Ġhyd
Japan
Ġdynamics
Ġblogs
anne
ĠLot
asa
ĠInvestig
fulness
elling
ĠHait
Ġliv
Ġfacial
Ġbuffer
heastern
Ġster
ĠNobel
develop
ĠProtest
ĠDeal
Ġsummon
pound
ĠNEW
Ġsupplied
Ġvalued
ĠAgreement
Ġmultiplayer
ĠMB
Ġ94
Ġinitiated
ĠSnap
ĠPhD
Ġstranger
Ġattraction
Ġ91
Without
ĠHalloween
ĠAlong
Canada
Ġneo
ĠAlice
orting
Ġdisappointment
ĠSamuel
Ġteammate
ĠÐ½
Ġsticking
ĠChand
ĠWorking
Tex
ĠTrail
ĠAbs
RELATED
Ġproves
ĠChen
Ġsearched
ĠEnterprise
KK
heads
Ġmartial
ĠBirmingham
Ġswept
Ġmedi
Ġincomes
001
Ġpars
Ġq
allow
asting
ĠPath
cerpt
ĠGirls
ĠNashville
Ġunlock
Ġepidemic
Ġfictional
Ġdimensions
Ġentrepreneur
Ġmisunder
ĠReform
ĠChiefs
ĠFerr
Ġbroadc
Ġmaj
ĠEngineering
ĠBrewing
ĠCour
ostal
Ġgrandfather
ĠFinn
GN
culation
ĠIsraelis
telling
Ġparameter
ĠNep
Ġinterpreted
Fire
Ġtheaters
ainted
ahan
CP
Ġeventual
Ġachievements
ÑƇ
Ġmodify
Ã¡n
amation
Ġdominance
ĠEle
Ġflaws
ĠComputer
emale
Ġyoungest
ĠGA
Intern
Ġcontributor
Ġworrying
Ġtrump
terrorism
rophic
Ġintact
ĠSach
Ġpole
ĠDays
irmed
ĠSpect
Ġward
Ġconvenience
Ġarise
Port
Ġsubmission
Ġarchive
Ġdefines
ĠKath
Fox
March
Ġprediction
Ġfinale
cedes
Ġsurrender
Ġtactic
Ġobstacles
Ġmacro
ĠJoint
information
ĠAlb
Ġdiscont
opular
Ġphilosophical
ĠBaseball
vised
mentation
culus
mund
ambers
ĠFL
Ġbicycle
ĠAlmost
Ġenroll
Ġinflic
Ġprisons
unique
Ġmalicious
Ġbanning
ĠBear
Unlike
Later
zilla
Ġrevenge
angered
Ġnaval
intage
cd
ovich
Ġwhatsoever
ĠKate
ĠSold
Ġskip
Ġnationalist
Ġner
Ġentertaining
Ġcyn
ĠDiamond
Ġdivine
lation
bb
ĠKaz
Ġcorrelation
Ġdupl
Ġbaseline
Ġnest
ĠNHS
Ġoverr
Ġneighbourhood
Ġnetworking
ĠLan
Ġsheets
Ġtheor
Ġneutrality
script
Ġgaps
Ġignorance
Ġank
Ġtwitter
lass
Ġorganised
Ġintermedi
Ġtouching
SH
Ġconcentrated
Remember
\\
Ġregulated
Ġconsulting
ĠRaw
Ġassaulted
vet
onies
ĠPortugal
Ġoppression
Ġlethal
click
ĠKos
ĠFan
Ġcurs
Ġrab
umbai
ĠBeer
Ġevolve
ĠAnimal
Ġhorizont
Ġeuros
erek
Ġinventory
ravis
hu
****************
Ġsaves
Ġcum
them
leased
ĠCox
astrous
Ġrises
ĠPictures
Ġdesigning
Ġconfrontation
ĠHolmes
kn
search
Ġnasty
Ult
Calif
Ġdrain
Ġimports
Jon
Ġtransmit
ĠMatter
Ġtooth
spoken
Ġski
Ġresur
ĠMotors
ĠRoosevelt
Ġquantity
ĠCarib
Ġoverly
Ġcrowded
ĠGive
Ġadministrators
ĠME
Ġmerit
Ġscripts
ĠUSD
Ġvariant
irlines
uscript
Ġinvitation
ĠSurv
ĠLG
ĠWol
Ġbrick
neapolis
Ġoffenders
Ġhated
Ġdonor
ĠFirefox
chief
asures
Ġsealed
Ġcommitments
imeter
ĠHughes
Overall
grav
Person
Ġbay
colm
ĠRing
ĠRPG
Ġfixes
Ġ1965
Ġremembers
Ġpadd
ĠPDF
Ġwrist
ĠAngela
Ġcostume
ĠEpisode
arez
Ġnavigation
Ġ1964
ĠNathan
Â©
ggle
educ
ĠRodriguez
liers
Ġcompromised
Ġincarcer
ĠPalmer
ovo
ĠFinland
squ
Ġstarters
icating
Ġfreeze
ideos
Ġcord
Ġprecision
Ġrejection
Ġgre
Ġmathematical
show
Ġcurrencies
Ġflawed
________________________________
Ġtire
Ġcommem
esta
Ġbelonging
ĠObserv
ourge
ilitary
Ġoverth
Ġnarc
ĠOccupy
ancies
ĠShaw
ĠDise
Ġclash
Ġjam
Ġembarrassing
Ġpitching
oko
Ġrobbery
Ġholidays
ĠYe
hots
Ġproxy
Ġuncle
ushed
ĠBroadway
Ġabuses
Ġquestionable
ĠFoster
Ġcurric
Ġappet
Ġmast
seen
mentioned
believ
Ġpresenting
Ġblew
Ġnerve
ĠQueensland
Ext
Ġupgrades
Ġdisproportion
Ġconstraints
Ġenv
ĠSullivan
Ġadoles
ĠIndianapolis
rived
Sum
Ġmim
Smith
Ġapt
ĠChase
ĠCop
Ġrendered
Ġinfections
Ġsteadily
ĠSens
ĠBoeing
Ġreminds
ĠDuncan
':
Ġuncovered
Ġpharmaceutical
Ġbasement
Ġtrademark
Ġbats
ĠRodgers
Ġconting
Ġballots
ĠERA
ĠPubl
Keep
index
ĠCris
Count
asive
WASHINGTON
Real
Ġdigit
ĠMontana
Ġdistribute
Ġopted
ĠLore
OME
Ġbehave
Ġunint
Ġoutlook
iper
original
Ġstiff
Ãº
rities
Ġmanufactured
Ġinsert
eler
Ġboots
Ġgrandmother
00000000
ĠRacing
Ġate
Ġanthrop
ĠMohammed
minster
Ġcomplement
Ġpacks
ando
Ġbackwards
Ġtuition
lessness
Ġausterity
know
escope
Ġsuited
ĠKash
unge
Ġperce
Ġsafegu
Ġevangelical
stick
icides
Ġsab
Ġcontainers
Ġnonsense
Ġmakeup
Ġlinking
Ġprisoner
Ġdownloaded
avi
ĠLl
Ġoffence
Ġextremist
ĠCabinet
ĠAthlet
Ġthroat
your
covery
Ġinjust
Ġchron
doing
Ġintimate
call
pol
ews
Ġsharply
Ġproteins
ĠAven
Ġcredentials
Ġcorrespondent
ĠIniti
raged
Sept
Scott
Ġhotels
Ġsecretly
ju
Ġcolumns
plant
Ġtracked
Ġpressures
ORK
Ġinvalid
ĠÙ
Ġlandl
Ġsatellites
Ġoptional
ĠAssange
Ġhacked
Ġbudgets
Ġqualifying
ĠQuick
mem
Gen
ĠBaghdad
Ġtokens
Ġcompounds
ĠPink
Ġlas
ãƁƄ
Ġber
Ġrivers
Hillary
Ġpunished
Ġwhoever
social
Ġemotionally
Ġplag
Austral
Ġsurviving
Ġinjection
Ġsolving
Ġcups
ictionary
Ġresid
ĠClin
Ġhammer
children
Ġeliminating
Sam
ĠNigeria
Ġcattle
Ġaggressively
priv
ĠChancellor
Ġoven
Ġmanipulation
Ġhorizon
Ġsweat
Ġlaunches
Mo
Ġlifting
ĠBrig
Ġdelete
Email
etition
ĠMine
ĠSierra
iblical
Ġmetric
Ġbooth
Ġsuburban
ĠPH
ĠSem
sein
compass
ĠStudents
ĠComb
ĠAleppo
ĠCell
June
ĠJesse
ĠPeterson
ĠPred
ĠAlpha
Ġhorrific
ĠBrotherhood
Ġnicely
prises
Ġextremists
local
Ġconcludes
Ġbrewery
GL
Ġambul
erals
Ġmessaging
Ġ:)
None
DI
Ġhilar
ĠSacramento
ĠCitizens
Ġpublicity
ĠGot
])
ĠPresidential
ĠFIFA
Ġjoins
Ġbrush
Ġreconc
ĠHerald
Ġcomplaining
ĠZimmer
Ġvacuum
Ġprevents
ĠBangladesh
zbollah
Ġpremise
ĠDA
Ġrides
enson
Ġdismant
atisf
liter
abi
Updated
ĠBelt
gom
again
ĠÅ
Ġkg
Ġadvisers
ĠHey
Ġhazard
ipse
Ġjustification
ĠCatal
Ġundergo
Ġanchor
ĠSave
Ġtrades
ĠShin
ĠLegal
Invest
Ġfloat
Ġdestructive
Ġslee
Full
legal
.âƀƙâƀƝ
Ġoun
Ġneighboring
ĠAround
oots
ĠHeritage
Ġenters
ĠMong
ĠMI
Ġpictured
ĠAnaly
Ġtransfers
Ġvirtue
Ġrefund
Ġtroubling
ĠChip
ĠCriminal
ĠColin
Ġfeas
iterranean
ĠNar
izers
Ġaccidents
ĠOverall
Ġcorps
Ġsovereign
Ġok
Ġpurple
Ġannoying
would
iological
ertainly
Hel
Ġrecordings
Ġtroubles
Ġnonetheless
Ġplugin
Ġunconstitutional
ĠEdmonton
Ġlease
Ġ1945
Ġirrit
spons
Ġamateur
aternity
Ġbypass
ĠJessica
worthy
Ġdisastrous
pay
ieve
ainer
eta
Ġcommissioned
clusive
ĠMSNBC
Use
Ġdimension
Table
great
generation
Ġgreed
Ġcommittees
Ġcompanion
ĠHTC
Being
Ġliver
ĠCosta
pert
Ġteaches
ĠCav
ĠCT
Ġ03
Ġdenies
ĠReally
Ġpel
ĠAllah
Ġpad
ĠZone
Ġsincere
Ġjacket
vor
umatic
Head
ĠLic
ĠMurd
urious
ĠPicture
ĠPotter
Ġinaccur
NAS
ĠDrew
Ġexamining
Obviously
ocy
Ġmeditation
rod
Ġcensorship
ifiers
ĠRivers
ifiable
ĠBrend
ealous
Ġlegalization
ĠAntar
ĠGround
Ġpromin
Ġinadequ
ĠAhmed
ĠOz
Ġdelivers
ĠActiv
Ġimplicit
ĠFOX
Ġopio
ĠIncre
âƀƝ:
Max
Ġrandomly
Ġcalculate
ĠGore
iaz
ĠChallenge
Ġprivat
Ġbosses
Ġinternationally
ĠBarn
Ġexplored
Ġforeigners
Ġunemployed
opic
Tw
Ġhike
ĠFac
Ġhandgun
oven
Ġgraduates
ventions
ouncing
ĠEarlier
Ġintegrate
ĠDri
urry
si
ĠRaf
Ġlazy
King
mill
ĠÂ°
Ġcatches
ĠKan
Ġclashes
ĠNebraska
ifully
ĠArmed
Ġbans
ĠAirlines
ĠSL
playing
athetic
Ġfork
desc
Ġdisputes
ĠImagine
ificant
Ġdwar
ĠPin
ĠOP
Ġirrelevant
ylan
aughs
[/
ĠLives
hell
ĠTelegraph
ĠBald
âƀ¢âƀ¢
EU
Ġaccordance
both
ede
FI
Ġretained
Ġdefenses
Ġcigarettes
Ġadjacent
ophobia
available
Ġerect
rus
Ġcompact
had
uffy
Ġlandmark
ĠClarke
ustain
pos
Bo
Ġencourages
Much
minent
igs
verted
length
Ġ160
Jim
ĠPrincess
rams
ĠEvil
Ġsubt
Ġninth
uffed
History
Ġchunk
ĠCurrently
ĠCommander
Ġpropose
ĠâƆ
Ġterrifying
Ġstripped
ĠZach
Ġhypoc
Ġintends
Ġlightning
Ġdisconnect
quire
osity
ĠKer
Ġstudios
Ġmolecules
Ġrealised
Team
Ġcalculations
ĠMaur
Lear
Ġsanction
ĠCubs
ELL
ĠNazis
Ġcampaigning
Ġfarmer
Ġenacted
ĠRu
Ġoverhead
Ġtougher
ometer
Ġintriguing
Ġcalories
igue
ĠWing
Ġrecruited
Ġknees
Bron
Ġscare
Ġconferences
Ġinvestigative
Ġclarify
ĠProcess
VI
Ġeconomically
Ġdepict
Ġsheep
Ġattach
Ġsubstances
web
undreds
];
Ġprolong
Ġdragon
ographer
arin
Ġsymbolic
Ġrugby
Ġprofiles
hor
Ġsocialism
Ġcritique
Ġmorality
ĠWeekly
ĠDynam
Ġcopper
Ġguided
ĠWeather
Ġaffirm
Ġcentres
Ġhomosexuality
Ġflowing
Ġcollision
ĠPowell
NE
Matt
Ġpreserved
Ġstones
Ġloads
ĠFam
onde
ĠBoehner
Ġslice
Ġplacement
VM
ĠVoice
Ġunwilling
Ġassessed
Ġnorms
itations
Ġprosperity
Ġnaming
Ġproceeds
Ġfurniture
><
Ġcoupled
anchez
pher
ĠCand
bye
ĠTibet
Ġspecialized
Ġhedge
impse
Ġnotified
Ġaug
ĠIL
ĠPros
omers
ĠSenators
Ġglimpse
okia
Ġreligions
Ġpleasant
Ġimagery
ographical
ĠTu
ĠJar
Ġsuburbs
ĠEffect
enz
Ġsequences
Ġsimpler
Ġfifty
Ġvag
current
Ġdeliberate
Ġcritically
ĠTraining
Ġfavored
Ġhey
Ġexploded
ĠBeaut
oku
ĠFight
Ġchairs
Ġpornography
pection
ĠIde
ĠPic
ĠJoel
Ġindie
izzard
ĠStevens
ĠCaribbean
ĠTogether
July
Ġorb
ĠChem
ĠAlexand
rians
Ġdragged
ĠUser
ĠHE
')
Ġsketch
Ġcryptocurrency
ĠHungary
Ġpotent
Ġmindset
Ġtrio
Ġrefuses
Ġofferings
Ġencounters
ĠCulture
Ġlending
Ġhometown
ement
ĠMediterranean
ĠAnyone
identified
Ġreversed
atable
Ġpackaging
Ġ125
Ġemphasized
lining
iably
Ġincorporated
ĠZen
Ġscroll
Ġflower
ĠMilan
Ġrealise
MD
Ġincom
Ġenvelop
Ġ07
osph
eton
Ġglance
imensional
Ġcurb
Ġgesture
uese
Feb
Ġdiscretion
Ġdisgr
ÃƠ
onest
Ġstole
End
Fil
ostic
ĠHig
Ġbreed
ampton
Ġtravels
AME
Ġtalents
ulously
uda
Ġthrilled
ĠErdogan
uart
Âƀ
deb
Ġturnout
Ġcope
ollo
kell
content
Ġling
ilia
Ġairst
Ġcontinually
ĠEight
April
ghai
ĠMinneapolis
Ġcanceled
bra
Ġindictment
Ġanytime
Ġstrengths
edIn
Ġminers
ĠConsider
United
ĠBak
ĠMull
ĠImmigration
aq
ĠâƖ
perty
Ġderiv
130
Ġcontradict
ĠLuis
Feed
Ġmold
ĠKay
mercial
kers
Ġfathers
Ġcommunist
Ġshareholders
ĠEddie
iberal
Jeff
ĠMusk
Ġcontempt
Power
ousands
anding
ĠAG
Ġhaun
ĠMumbai
ĠGOOD
OSE
rikes
Ġaccounted
Ġresil
Ġrestrain
Ġfleeing
Ġsadd
Ġdesires
ync
ascus
Ġthreads
Ġdecentral
ĠEuropeans
ĠPrivacy
ĠDian
Ġapplicable
ensen
Ġtowers
Ġindivid
Ġgambling
Ġscal
Ġtelev
ĠTouch
Brien
Ġhasht
Ġvoiced
ugar
Ġrebounds
OH
adian
.).
ĠTask
Ġlacked
Ġsucc
Ġpracticing
usc
hat
ĠStrong
ĠPalm
Ġordering
ĠGam
Ġnotification
Ġdairy
Ġfactions
Ġimported
Ġoverwhelmingly
Ġhabitat
onal
ĠÃƠ
Ġheader
Ġdictators
ĠLooking
Pac
Ã©e
olics
itted
Ġrefres
Ġcriticised
Ġmanuscript
Ġelites
Ġscholarship
ĠMath
Ġinspection
Ġ900
kar
ĠWes
anies
ĠMcD
Ġdepicted
File
sight
recy
umar
ĠKin
asket
Ġswap
ĠBaby
TY
ĠDim
ĠEthereum
ĠThai
Ġfruits
nyder
ĠMartinez
shaped
grat
charged
chant
Ġprecip
ĠMaking
ĠGibson
onut
Ġpredictable
Ġtrim
Ġmeasurement
Ġconvictions
ĠJed
ĠJared
Microsoft
Ġcollections
ĠCastro
ĠHelp
access
este
Ġsurplus
ĠChan
Ġfeminism
Ġraids
Okay
Ġwasted
Ġactivated
ĠCoff
Ġorgans
ĠLatino
ĠUnity
Ġfever
Ġdistress
true
Ġsuite
ablo
Ġcolumnist
Ġwheat
Pass
Ġabortions
ĠHTTP
Ġfingerprint
Ġpoetry
ĠWoods
Ġlips
ummy
member
Ġissuing
Ġdeposits
ĠEP
emet
ghazi
Ġforthcoming
ĠBatt
Ġactivation
secution
Ġbeans
ĠLakers
Ġjets
Ġunlaw
Ġappreciated
Ġtender
Ġlever
Ġsatisfy
Call
Ġpursued
Ġoffs
ĠBesides
Ġrallies
ĠNine
ÃƃÃƂÃƃÃƂÃƃÃƂÃƃÃƂÃƃÃƂÃƃÃƂÃƃÃƂÃƃÃƂ
Ġconstitute
ĠYellow
Ġweaker
Ġprogression
Ġruin
ĠAdvanced
yon
Robert
Hello
ONE
Ġsupreme
Ġlitigation
Ġhurd
Ġconscience
president
Ġfinances
Ġchick
ĠLightning
Ġcompiler
ĠDemocracy
Ġjunk
Ġambig
ĠAna
Short
ĠTexans
Joe
Ġdawn
Ġfreel
Ġcrackdown
ĠMercedes
Bro
Ġbeast
ĠCou
Ġscholar
gomery
Ġposters
ĠJeffrey
ottenham
ibles
Ġefficiently
Ġwholes
ĠMade
Ġmg
ĠNorman
Ġsid
ĠDw
fty
ĠES
ĠCurt
something
ceans
Ġshoe
Ġobscure
Ġkilometres
voc
nia
Ġhelm
Ġguarantees
Ġcaring
ĠMagn
sun
Lab
ĠSummit
ME
ĠTraff
ĠDI
2007
ĠAdded
Ġunconscious
Ġmoist
ĠSau
igm
ĠVisit
ĠLaboratory
Ġstartups
ĠPoints
Ġactivism
ĠStudent
ãƀƁ
Ġneglig
ĠToyota
ĠKenn
yson
imental
Ġneeding
Ġconfirms
ategory
ĠOpt
Ġdescent
ĠFo
Ġliberties
ASS
Ġinfinite
Ġgly
Ġconcentrations
Ġbored
Ġscattered
league
Ġaccordingly
Ġthreatens
Ġinstalling
ĠCit
ĠAub
Ġ09
Ġrockets
max
ĠCreative
Ġrooted
Ġsecuring
Ġwoods
Ġinstructed
Ġhype
Ġpassport
ĠHudson
Ġportrait
Ġdishes
ĠNYC
Ġirony
Ġgotta
ĠGandhi
Ġinfilt
ĠBomb
paid
Ġunhappy
Ġtransported
Ġassertion
Ġfixing
atics
ĠFreder
Del
ĠCancer
ĠAhmad
Ġwatches
Ġrabb
Ġdining
ogenic
Ġmanually
Ġchim
Ġcrystal
ingle
Ġcustoms
Ġintensive
Ġcontrace
ĠStatistics
ammar
Ġprofessors
oulos
Ġpatents
eston
rawling
ĠMargaret
Ġassignment
sn
osaur
ĠLion
ĠYouth
Ġsphere
Ġundocumented
ĠCool
essage
ĠWalt
Ġremainder
ĠMosul
ĠIR
owner
ACE
ĠSprings
ĠHezbollah
Ġ1966
ĠBapt
ti
ĠBoys
Ġshouting
Ġheating
ucked
ĠChad
risk
ĠInterior
Ġcelebrities
ĠSK
gue
ĠWang
Ġtraject
Ġsurveyed
ĠTree
Ġprojections
ĠCP
Ġenvision
Ġshark
Ġpostseason
Ġgeomet
Ġreactor
Ġdisgu
Ġcabin
arming
elsh
Ġslated
Ġmargins
Ġbullying
ĠLarge
ACT
ysical
Ġmixing
Ġrou
Ġtennis
Ġsystematic
Ġli
ĠSquad
ĠNad
Ġeasiest
Ġbackgrounds
Ġvaccines
Ġsoundtrack
Ġgrim
Ġfavorites
ĠMonster
iko
Ġmines
Ġmentality
ĠMovie
Ġcommodity
ervice
Ġink
ĠBanks
Ġdigest
Ġconcealed
Ġacademics
Non
club
Ġapartments
ĠIdent
ÑƁÑƂ
India
Ġaerial
Ġsue
Â»
Ġbeats
Ġadventures
Ġprone
girl
Ġdug
ĠBMW
Five
Ġwra
Ġbattling
ĠComcast
hart
Ġforgot
ĠLower
Ġdressing
ĠSid
125
Ġmapping
Ġtouches
Ġmud
_{
Ġgrassroots
Ġcomeback
Phil
Ġblade
Sil
ĠLO
ĠMis
Ġ04
Ġdisputed
ĠGaming
ĠComic
rising
jpg
acht
AE
ĠPrior
emetery
mount
Ġmeteor
Ġ08
ĠDrop
Cre
Ġheels
Ġcaucus
Ġ(Â£
Ġpromotional
.'"
Ġparked
Ġflies
Ġchrom
ĠHonda
ĠHim
Ġcables
Ġsmiling
Ġshouted
Ġappreciation
ĠPetro
ĠYale
ĠMalcolm
Ġcontinuously
Ġlied
ĠNeuro
idity
ixels
Ġnutrition
Ġflagship
Ġslaughter
Ġbleeding
ensed
aggering
ĠOperations
Ġindicator
Ġgasoline
Ġcaf
Ġhandles
phis
Ġdisplaced
Ġanom
ĠFormula
ĠTelevision
Ġdeputies
Ġsci
Ġremotely
Ġmathematics
Ġsod
ĠÂ»
Ġmol
Ġscales
Ġrhythm
Ġmi
ĠKenya
Ġtropical
Ġcolony
shit
su
zel
esville
ablish
ĠAbraham
ĠFalls
ĠIndependence
ĠAK
atility
Ġstrangers
Ġsegments
Ġmultipl
atching
ĠCollection
Ġ(-
Ġmounting
Ġwield
Ġstaffers
ĠPract
Ġgenocide
ĠDamascus
Ġverbal
ĠCounter
ĠBelgian
Ġpolicing
Ġacclaim
midt
Ġimmunity
Ġflames
ĠFinals
Ġillusion
oter
ĠBenghazi
listed
ĠVincent
ĠMons
Ġlinem
wage
ĠCrystal
Ġdough
ongh
orically
Ġstatute
Ġdisreg
rise
Ġclearing
Ġunpredict
ĠStrip
cht
Ġshook
ĠSimp
Ġpulls
Ġdigging
Ġprompting
ĠSomeone
img
Ġicons
Ġcompetitor
WW
SN
Ġportions
Ġinherently
Ġcharacteristic
Ġgorge
eled
Ġupt
igion
Ġconnectivity
Ġcomparisons
Ġbridges
Quest
Ġbenchmark
ĠCarr
ipeg
ASE
Ġ1963
aditional
fix
ĠWeap
threat
Ġaffiliated
ĠCoin
ĠMend
ĠXi
rov
ĠWhats
1000
Ġambitions
Christian
ĠKo
Ġtopped
ĠWa
ĠBrain
ĠRavens
ĠBright
Ġshaking
ĠDelta
Ġcertainty
Ġsmallest
Ġcentered
wait
arse
Ġbehavioral
Ġcrore
Ġcarn
Page
Ġblunt
ĠBren
Women
Ã¶r
cifically
ĠNewcastle
ĠMajority
Steve
Ġdare
ĠTommy
OUR
Ġsyntax
Ġdisposal
ĠHopefully
ĠInitiative
ynasty
luded
Ġapplicants
ĠContent
uded
running
Ġpitched
Ġfortunate
Ġwished
ORD
Ġmusician
Ġuphold
ĠWITH
ĠUpon
Editor
Ġmedieval
ĠCash
Ġwildly
GC
Ġimpacted
Ġreproductive
ĠTHIS
gging
ĠAer
ĠSatan
Ġstorms
Ġstap
Ġdisruption
ĠScholar
ULL
Object
Ġpitches
Ġviewer
Ġweighed
ĠBody
leen
Ġcontributors
Mad
Const
Ġglac
CAR
Ġatop
ĠGraph
ĠCopyright
Ġuranium
nar
say
ĠPortuguese
wegian
Ġanxious
Ġ||
Ġcooked
ĠApparently
Ġfootprint
Ġdent
Ġbees
Ġhipp
ĠRank
heart
Ġamendments
otive
camp
iggs
Ġaesthetic
ĠWalmart
sharing
Text
Ġstub
ĠACC
Ġ05
Ġaveraging
ĠWere
Ġeaten
ĠHERE
Ġstint
title
eanor
Ġadjustments
âƀƝ).
site
orum
icht
Ġmyst
ongyang
Ġstakes
Ġpriorit
ĠReyn
Ġasleep
hh
Ġvector
ĠWings
ĠEmperor
Ãƭa
urally
Vis
Ġtheatre
ĠArchitect
pical
Ġindividually
Ġempir
ĠMann
Ġimminent
owitz
Ġrepository
Ġfaithful
Ġpatches
Bas
Ġphysic
Ġshadows
Ġripped
Ġcinema
ĠRule
akespe
Ġpund
iw
Ġadvisory
Ġego
ĠStalin
enly
Ġdeserved
Ġcongrat
Ġattendees
etooth
Ġstaring
ĠIndustry
Ġfeather
ĠOtherwise
Everything
ĠDanish
350
Ġfoundations
ravel
Ġspont
Ġcruise
Ġdemonstrators
Ġranges
dollar
ĠLegislature
hey
Peter
Ġrod
nc
ĠHS
Fore
Ġrecovering
ĠValent
ĠKaren
court
NO
ĠCarroll
Ġcandy
Ġsufficiently
ĠMob
Ġcarb
ĠBills
Ġdeposit
opez
Ġqueue
Ġdistinctive
ĠCrimea
},
Ġjuven
Ġinspiring
Ġlegitimacy
Ġclue
adata
Ġbonuses
Ġjailed
ĠSQL
chnology
Ġjazz
Ġcertified
,''
Ġnucle
Ġcrap
Ġrailway
ĠMeg
ĠRedskins
Ġhierarchy
TT
Ġunderest
Ġhistorians
âƀƝ?
Ġclimbed
ĠSale
ĠKurt
ĠImpro
ĠGran
Ġalerts
Ġincumbent
Ġmetabol
Ġnail
ĠColombia
Ġsuppress
guard
Ġadjustment
Ġplausible
oulder
ultz
Ġunbeliev
ĠRA
omore
Ġcage
ĠMetal
Ġparas
ĠLeave
Ġsupremac
Notes
Ġcrashes
ĠUltimate
Ġreinforce
Ġabusive
ĠConsumer
Ġqueen
ĠOm
Ġcookies
Ġphysicians
brook
pectives
ĠGeneration
bach
Ġtide
Ġecl
umper
Ġexplanations
ĠBent
Ġafore
Ġminimize
ĠWE
Ġcontender
idi
gow
ĠLoc
Ġutilities
Ġshelf
ervative
Ġambition
Ġimprisonment
Ġblowing
opoulos
Ġneglect
isi
%),
Ġfounders
ĠHaz
ĠDame
___
Sure
Ã©t
Ġrescued
Ġoffenses
Ġpositioned
Test
ĠIdaho
orthy
Ġzombie
gon
Ġlightly
Ġconsultation
Ġvelocity
Ġmeter
Ġscam
Ġdirecting
ĠShanghai
Ġcigarette
Ġelectorate
Ġdelegation
ĠCreate
mining
ĠSimpson
ĠCommonwealth
Ġflavors
Anyone
Ġgiants
station
alsh
MENT
Ġdear
ĠChampion
ĠPerformance
Ġmotorcycle
ĠWestminster
Ġboycott
ĠNut
Ġanswering
Ġbytes
Ġ(+
Home
Ġeducate
Ġsiege
ĠGor
ĠKil
tax
Ġboxing
Ġhugely
Ġincorporate
ÙƆ
ĠVM
ĠTheory
Ġpersuade
Ġmorph
Ġpromotions
ĠSwitch
Ġexploited
ĠLeonard
ĠMol
oba
Ġvicious
Ġaligned
ĠColts
ĠLimited
Ġpork
Ġhalfway
uterte
nels
anas
Ġrows
ĠSanchez
ĠMasters
ĠFix
Ġrunners
Ġabrupt
Ġfreed
ĠEt
ingrich
Ġladder
Ġta
ĠArmstrong
ĠKend
amon
prisingly
Ġcollectively
ARK
Ġsimulation
ĠMoss
Ġum
Ġchasing
Space
ĠMadd
haw
Ġoffline
san
asonable
Ġappar
Ġlucrative
Mor
Rad
Ġgenerates
Ġintegral
ĠIntegr
Ġrecognised
Ġshowcase
ĠWor
ĠSie
erness
asha
Ġdiesel
Ġconsisting
Sw
ĠPorter
ĠKane
akespeare
Ġaccessed
Ġabsorb
oshi
Ġplanted
Ġelementary
Ġautonomy
ÙƊ
lav
ĠWant
ĠEspecially
Ġslipped
Ġfifteen
erers
Ġassociates
ÑƀÐ°
ĠSocialist
Ġbru
Ġoptimal
ĠOculus
ĠUCLA
ĠAF
Ġcurriculum
eway
Ġmilitia
ĠSteelers
ĠMut
Ġjersey
Ġceremon
ĠAnalysis
Ġpiano
perm
Ryan
Ġlowered
Ġmarriages
olitics
Prot
ĠConfederate
Ġspike
alone
Win
ĠLex
Ġmana
ĠPrivate
ĠGN
amiliar
Ġaccent
ĠSB
adays
ascript
Iran
berger
Ġsoup
Ġnegotiated
Ġadvancing
Ġopener
Ġancestors
Ġtriv
ĠSadd
Assad
Ġpoem
ï¿½ï¿½
Ġwitch
ĠEmir
ĠStrateg
Ġappealed
Health
Ġauthoritarian
Ġdorm
attack
Ġeffic
ĠDj
iece
Ġrecruitment
Map
Ġmatchup
Ġâƈ
ounter
Ġweed
Ġblat
Ġquantities
Ġbron
alez
ÙƎ
Ġslowed
Ġpistol
bus
ĠIQ
occup
aque
Ġportable
Ġbloc
Ġsatisfying
Ġmanipulate
ĠQur
Ġimposing
Ġinhabitants
umed
ĠÂƭ
Ġquarterbacks
ĠSri
Contact
Andrew
ĠâƀƜ[
ĠXL
Texas
Ġunpopular
Ġow
ilitation
Ġprotects
Review
Ġperipher
Ġillustrate
ĠTon
âƙ
Ġtales
ĠJama
Ġub
Ġaluminum
defense
ĠTravis
Ġlocate
aned
Ġpiss
Ġclassification
ĠMonth
bas
Ġconsisted
Ġembark
Ġups
Ġhonored
ĠHousing
Ġpayroll
HC
regular
Ġhomicide
Ġfaction
Ġtreats
Ġarrog
imity
mental
Ġchess
iries
efe
Ġdelighted
kit
Nothing
Ġresent
ĠMini
OCK
Ġowe
Ġpremature
Ġblogger
ĠCann
ĠNord
ĠGreater
ĠEnforcement
atorial
addafi
Ġtravelled
ĠKap
Ġcrushed
elled
iker
Ġpond
Ġpestic
ĠMills
Ġconsuming
ilight
Ġdiameter
Ġprotesting
Ġfertil
Ġadministrator
Ġpul
ĠVent
Ġlogs
Ġhappily
ĠFace
bank
roads
ĠSoutheast
ĠTermin
ĠDolphins
Ġinvention
Ġmetrics
ĠOriginal
Ġacademy
ĠSnyder
ĠPrison
Ġprolifer
Ġdecisive
ĠAmbassador
antom
Ġtended
Ġatomic
keeping
RED
Ġartillery
Ġoverview
elong
Ġyoga
Ġpatron
balls
Contin
ĠSeth
Ġincap
Ġvic
ĠDarwin
ĠNGO
retty
Ġgates
Ġsentencing
Ġinstrumental
ĠSalv
liv
Ġunsupp
Ġnoble
iblings
ei
Ġsimilarities
Ġcad
eneration
END
Ġclinics
Ġrecognise
ĠCatholics
Ġdetective
elines
ĠCasey
Blue
Ġdried
ĠDerek
dest
ĠRut
Ġquot
ĠSpl
ĠScreen
mph
lit
Nob
Ġdatas
ĠDelaware
ĠGlas
itous
Ġslammed
metic
Ġlivest
Ġconstituents
Ġcontempl
ĠHence
adh
llah
Ġrestoration
Form
ĠRichardson
ournament
ĠBrett
Ġyields
Ġupgraded
Ġprobation
ĠBO
six
pers
Ġinclined
ĠÎ¼
ĠLate
connected
Ġvenues
Ġladies
Scient
ĠOften
Ġdude
Ġprohibition
Ġrifles
ĠYu
Ġcombo
ĠLouisville
Ġmarking
Ġmascul
Would
Ġspying
Ġseekers
Ġcatalog
Ġapple
IES
rational
Ġgenome
Î½
Come
Ġenthusiastic
Ġshowc
ĠGaz
kov
Ġinconsistent
ogyn
ĠWebsite
ĠNicholas
Ġmiser
Ġbreathe
Ġrip
Ġfarther
Ġapplaud
ĠVa
Main
Ġ1962
eger
Ġslides
ĠHussein
Ġrider
Ġexpans
ĠWelsh
Ġfragile
Ġinvestigator
ĠDisease
Ġnodd
Ġlion
Ġbiased
Ġthrust
ĠGeneva
ĠNoah
depth
ĠNokia
ĠHopkins
ĠTrip
Child
Ġhumble
uffle
Ġlicence
Ġpriced
nsic
Ġpostp
Ġhref
Ġcorrection
levard
Ġremarkably
Ġimmun
ĠParks
Total
isle
ĠMontgomery
ĠRepresentative
Ġadvisor
Ġspear
ĠLoading
Ġconform
ĠMatthews
Ġvariants
ĠCrew
").
Ġexcerpt
igo
ĠLearn
Air
Ġrecipients
urbed
Ġsynthetic
Ġshelves
omon
Ġdepressed
ĠAbr
Ġunrelated
ĠNorthwest
Ġweaknesses
ĠWrest
Ġnostal
Ġendangered
Ġtires
Ġbailout
Ġclips
Ġcatastrophic
Ġcotton
ascular
Ġtrophy
ĠHuffington
bane
ĠEllis
ĠPierre
Ġtightly
Ġjudged
Ġost
Ġgren
Ġniche
ĠCairo
hester
eous
Ġoath
ournals
went
vance
Ġevolving
ĠLeafs
final
Ġutilize
Ġuncon
ĠEagle
service
itially
ampire
101
Ġalleges
ĠBach
Ġstaggering
Ġcolored
Ġairports
Ġgangs
Ġupward
Ġpoured
Ġnurses
oir
Ġpracticed
cond
Que
namese
Ġbrewing
Ġforty
Ġsecurities
hearted
ĠDoc
Ġmonitors
qa
Ġcooperate
Date
ĠTak
ĠVeterans
pose
andals
Ġriots
Ġintervene
ĠVideos
ĠHappy
ĠAnonymous
reating
dist
Ġgem
ĠWait
Ġslim
UG
Ġcoincidence
ansom
Ġdowns
gay
Web
ĠSurface
Ġcampuses
Ġprospective
Ġencrypted
fun
ĠKids
Ġbooked
Ġextensively
Ġreliability
Ġhorr
Ġchapters
ĠStories
ĠTab
Ġankle
otics
Ġoptimism
Ġinterfere
ĠAsk
Ġechoed
Ġmonitored
ĠCDC
bast
auth
ĠHA
iatric
Ġreminis
ĠPew
QU
Ġproposition
quez
ĠUSC
ilers
Ġpredominantly
achi
Ġfloors
ĠJin
ĠYam
ĠMunich
Ġma
ĠThanksgiving
Ġseparat
Ġwarns
Ġangles
pically
BB
Ġmigrant
oyle
Es
Ġsympathy
ĠVisual
ĠSter
Ġtasked
ĠISBN
ĠHass
Î¿
Ġintoler
Ġinsects
Ġdeficits
Far
Ġgenetically
ĠAFL
lance
Ġwells
entry
Ġwears
Ġrenown
ĠVilla
ĠApr
iners
ĠGrace
ĠAgent
Ġboundary
Ġverb
Ġenforced
Ġforemost
ĠArnold
rays
pres
Ġwives
ĠBeth
iott
ĠUP
ĠTunis
ĠSr
bucks
ĠPride
User
Ġsteering
Develop
Ġnearest
ĠACLU
Ġpractition
ĠSomalia
Brown
Ġfilters
Ġwhistlebl
ĠJays
ĠEsp
ĠPub
Ġnavig
Ġcoordination
ĠHebrew
Ġextinction
Special
Ġinherited
Ġcliff
dimensional
ĠKush
stated
Ġbreeding
Ġpositively
ĠRot
ĠBuddhist
process
ĠKurds
irus
ATH
Ġcombining
itzer
Ġfeud
Ġparticle
ĠCamb
Ġinclusive
Ġforwards
Ġshine
ĠActually
Ġsacks
Ġculp
ĠTriple
Ġ105
IDE
iration
ĠForbes
ardi
make
ĠSwan
osc
super
anners
Ġscarce
eyed
Ġdip
ĠRegion
Ġeld
ovan
Ġrewarded
Ġpriests
hall
Ġassisted
ĠPengu
Ġdoses
Ġatmospheric
Ġemergence
ieth
Ġdescriptions
Ġhanding
ĠGetting
Its
isco
Ġchef
Ġtense
ĠSchools
acerb
Box
Ġobtaining
Ġsensible
Ġrelaxed
Ġaforementioned
Ġinputs
ĠMemphis
ĠWinnipeg
August
ĠFla
pad
ĠTX
youtube
ĠClint
conscious
cock
Ġgrief
ĠCyber
atories
ĠAbdul
ĠWAR
amount
Ġkinda
Donnell
Ġwoke
Ġbureaucr
ancer
eking
Color
Ġinsufficient
Ġboasts
ĠHenderson
sexual
ĠKenny
Ġzoom
Ġthermal
Ġcautious
Ġcommerce
Ġimproper
160
Ġcandidacy
ĠPaper
2006
Ġdebts
Ġrespects
Ġillustrated
Ġconventions
Ġcoding
Ġuncommon
Ġdysfunction
ĠRalph
Ġstairs
ĠHack
Ġplum
Ġpersonalities
hetical
Line
Ġlightweight
Ġrealities
Ġslowing
ĠLum
ãƃ¼
oder
Ġrealizing
Ġbelonged
Ġoverlooked
Ġ128
rina
{"
activ
Ġuploaded
chat
Ġenerg
area
Ġboo
Ġbod
Ġaddict
idy
Miss
Ġexposing
Ġcyclists
ĠCurry
ĠFixed
Ġnursing
ĠDust
European
Ġcensus
displaystyle
Ġthrive
Ġtestify
Ġintuitive
shadow
Ġperforms
ĠPHP
language
Ġautomation
ĠValue
filled
Ġadditions
ĠBarnes
Ġtours
Ġpoised
Ġunsupported
ĠPyongyang
Ġquicker
ĠBashar
Ġenjoys
Ġordinance
Ġcirculation
Ġadmire
Ġoutrageous
ĠStrike
ĠRegister
Ġcripp
ĠHoff
Ġblanket
anthrop
played
Interest
ĠNuclear
Ġbasics
Ġtattoo
Ġseize
Ġredes
ĠRelease
Ġasserted
ĠKlein
ĠStephan
strom
Ġaggrav
ĠBerg
Ġtags
ĠBark
Ġoriginated
erie
Ġsubjective
Ġpaintings
ĠPrevention
grown
Ġrecipient
Ġ1961
Ã¸
Ġjeopard
Ġain
Ġtyr
aney
Ġvibrant
Ġnoon
ĠKiev
ilem
Ġcombinations
Ġcasino
Richard
Ġwonders
ĠReact
inski
Op
Ġbent
ĠSilva
Ġcoordinated
ĠMcN
Reilly
Local
Ġrepeating
Ġguides
ĠUnless
Ġgrades
Ġvolt
ĠWildlife
fair
Ġreductions
unal
Ġawaiting
ĠShakespeare
etz
Whatever
Ġloot
Ġimmers
ĠKasich
engine
Ġmonopoly
Ġliquor
Ġwhales
ĠHook
Ġparticipant
raf
ĠCraw
Ġflown
Ġevaluated
mitt
ĠAj
Ġsprint
ĠWordPress
ĠBec
Ġsway
ĠSchne
ĠTitans
Ġimaging
Plus
ĠNorwegian
ĠMatch
ĠHolder
ĠAdrian
George
Ġredirect
clock
Ġdealer
ĠFalcons
Ġclues
ĠVI
ilogy
Ġhilarious
ĠComplete
Sun
Ġ06
ĠEaster
Ġmentioning
Ġtraders
Ġreflecting
ĠBuddh
Ġhobby
ecd
amera
ĠAlz
pict
Ġtastes
ĠEmergency
Ġdetainees
Ġabundance
ĠDodgers
ĠNova
Ġsciences
Ġmerchand
upiter
Ġnevertheless
energy
.''
Ġanten
Ġbuyer
agle
ĠRandy
Ġsouls
ĠCort
osion
Ġwhale
Ġpickup
AAAA
ĠJunior
family
inea
Ġdevil
Sal
Ġinherit
izoph
Ġtrivial
ĠCI
ĠTories
ĠFaith
ĠEmily
azor
ĠHost
Ġcared
ĠRust
Ġsi
ĠPearl
ĠRules
Ġbothered
ĠGang
uber
ggy
ĠHob
Ġliteral
Ġformats
Ġfluct
ĠGoth
ĠAthens
Love
Log
Ġwatchdog
ĠBailey
ĠIsaac
ĠGabriel
ĠAgriculture
Ġoptical
Ġslogan
ĠKid
usp
ructed
Ġdatabases
Welcome
Ġumb
hit
Ġdistances
Ġmanga
cycl
Ġundergrad
Ġblu
ĠEye
billion
Ġsampling
Sources
amples
Ġcivic
usk
Ġastonishing
enes
ĠTottenham
ĠCob
Ġreceipt
Ġdarker
lat
Ġobsessed
Ġdemonstrating
Ġgrams
ouble
ÂƀÂ
Ġhurting
ĠMetropolitan
ĠErn
stairs
Ġsunlight
Ġinadequate
Ġinsisting
Ġexhausted
rophe
Ġwritings
ĠThrones
ĠSite
Ġunderwater
Ġempathy
Ġpunk
ĠUl
utton
ĠFerrari
Ġfinest
ĠJoshua
Ġcouch
Ġlobbyists
itime
eprint
Ġsiblings
Social
ĠPerez
ĠEvan
Ġoverwhelmed
Ġorganisms
ados
Ġdiplomats
Ġeternal
aci
ĠJenkins
Ġstagn
Ġvastly
esar
Ġservants
ĠBin
ĠAustralians
CON
ĠTwin
Ġprotocols
sens
Ġmicrosc
Ġmes
ĠMUST
ĠDepression
"),
Ġcongest
alking
Ġsnake
Ġsmiled
ĠCF
ĠBour
ĠStuart
earth
Ġhorizontal
Ġpremiums
Ġassaults
Ġdeportation
Ġpushes
driving
Ġexacerb
Ġmolecular
Ġwolf
Ġencompass
ĠPoke
Ġproximity
GP
Ġmetro
ĠJob
Ġunderstandable
Ġconjunction
Was
ĠLeaders
ĠHeroes
Ġcrafted
ĠSweet
Ġpayload
ĠAIDS
Ġspinning
imedia
ĠTiger
ĠSgt
oat
ĠHeavy
Ġbankers
Ġproceeded
ĠFuk
Ġbargaining
Ġbog
rella
Ġworkout
Ġcapturing
Ġjewel
xton
Ġadvise
ĠNy
Ġenlight
Ġverified
Ġprimaries
ophobic
Ġgases
Ġ1948
Ġinauguration
Ġbounce
ĠProphet
Ġmedications
ĠStrange
imination
vid
Currently
Ġapologized
Ġstaged
inental
Ġlingu
osaurs
Ġshallow
Ġket
Ġactivate
Ġaccompanying
ĠProbably
Ġaxis
ĠDylan
Ġsecrecy
ĠAur
Ġsurfaces
Ġelephant
take
Ġinjustice
ĠNotes
Ġimprisoned
Ins
ĠScript
Disc
Ġpromotes
ĠKashmir
Ġsuscept
Ġjar
Ġimplied
ĠVietnamese
ĠSachs
Ġsuppliers
imer
Ġrebellion
ĠShell
izophren
ĠBio
ĠMix
ĠApollo
shine
rab
Ġunnamed
Ġindul
Ġnationalism
nis
ĠLav
Dear
Hy
ĠPor
Ġfirefighters
Ġalpha
houses
ĠGingrich
igel
ĠNum
ÐµÐ½
Ġcompile
Ġspam
ĠHeaven
ĠEA
isexual
Ġlooph
ĠShop
Ġdisappro
integr
Ġstatewide
Ġ**
SQL
Ġinning
VC
leum
Hand
Ġwholly
Ġreleg
Ġbeam
Ġtrait
Ġadministered
ĠRex
Ġpastor
Ġgenerator
food
Ġnotor
Ġtrails
Ġincomplete
cur
Rub
Ġretailer
Ġdrastically
ĠEconomics
Ġcompliment
ĠDow
Ġshotgun
Ġassumes
sic
ĠNam
ĠFew
Ġbaking
Ġenrolled
Sanders
Ġunb
Ġslots
Ġbrib
âƀƓâƀƓ
Ġtoggle
Ġhurts
Ġcontention
Ġpopulated
ĠCroat
Ġfitted
ĠMarie
Ġhints
ĠIndy
Ġpaired
Ġborrowing
ql
Ġduck
ĠTHAT
orp
Ġnewcom
Ġsoy
Ġlamb
Ġpets
Ġhighlighting
ĠPul
ĠRB
stud
Ġbatting
Ġstabbed
Conclusion
indust
Ġvitamin
Ġpara
thening
750
Ġflick
Ġlottery
Ġamended
Ġlenses
ĠInsider
Ġintro
ĠWag
Ġgrapp
Ġatheist
ĠFlint
Thus
Ġbang
ĠTPP
Ġplaintiffs
ĠIndustrial
Ġarrow
Ġobjections
gone
LL
ĠRab
Ġcontested
awi
Ġaffection
Ġbackward
authorized
Ġcomedian
ĠCAN
intendent
Ġextensions
ĠGlen
ifa
ĠEug
Ġphenomena
Ġmasters
Ġprobable
Ġoutline
Cloud
ĠDat
Ġrope
Ġcites
isha
ĠArabs
ieves
ARY
Ġpenis
rea
Ġthy
Ġjaw
oux
Ġunequ
steps
Ġsuburb
Ġgorgeous
ĠColeman
ussions
Should
riger
ĠIMF
ĠAshley
ndra
Ġmotive
Ġrevis
Ġresponds
Ġcater
roe
Ġrh
Ġtortured
Ġmainland
ourgeois
Ġpasswords
ãƁƗ
Ġembry
Ġinterventions
ĠIng
otherapy
Ġhelicopters
ĠHalo
Ġgently
Ġpopulist
Ġmatrix
Ġanalytics
secret
Ġselfish
Ġadmitting
Ġobsession
ĠElliott
ciously
Ġcoh
Ġanthem
Ġcataly
ĠSask
Ġpills
Ġcontrollers
Ġstandpoint
ĠMak
ĠAppeals
Ġsums
osphere
ciation
osoph
Aut
otine
ĠBurke
Run
ĠCha
inburgh
iu
Ġterritorial
ietal
Ġwarehouse
ĠPatrol
Ġexplosives
ĠDad
Ġconfisc
Ġcastle
oro
Ġhurricane
ĠMour
Mass
Berry
ĠJos
Ġunified
ĠGTX
Ġconcentrate
Ġcryst
umps
Ġfiguring
ĠPand
itational
config
Ġcolours
ĠVirtual
ĠVel
Ġsynchron
Young
Ġlogged
ĠIndigenous
ĠOfficial
utral
Ġensures
RP
Ð¾Ð²
arious
inv
Fixed
Dev
fa
ookie
Ġsympathetic
Ġlogging
Ġvalley
ibal
Ġprotagonist
sum
Ġminors
AMY
Ġseas
Ð·
Cent
Ġowed
Ġprivileged
Ġ*/
2005
ĠDrake
Ġerupted
ĠNaval
iggins
ĠQuarter
Ġconsoles
ĠOrd
Subscribe
azar
ĠAppro
uka
Ġsatur
ĠEsc
Ġideals
ĠTreaty
Ep
ĠLanc
utic
Ġanecd
Ġprosecuted
anton
Ġadul
ĠStream
deep
Ġsadly
Ġdesirable
Ġpsychiatric
ointed
Ġsurfaced
Ġemphasize
ĠSCP
Ok
isse
Ġrevision
Ġplots
many
political
Ġwelcoming
rill
Think
ĠEmma
dullah
det
ĠUFO
Ġfeeds
Ġdefer
ĠGuild
communications
ĠâƀƋ
Ġsophomore
peace
Ġtopp
ĠFocus
Officials
Ġweekends
icker
Ġcanon
Ġstretched
Ġmosqu
Ġsandwich
ĠPelosi
ocused
Marc
Ġcalculation
ĠGoing
Ġ×
ĠTol
years
lar
ĠSho
ãƁ«
140
Six
ĠTat
Ġdistinguished
ĠWend
Ġmagnet
racted
Ġincompet
Ġconstitutes
ĠWalsh
Ġconfined
Ġgru
Ġcorridor
Ġselecting
ĠRobertson
Ġenrich
Ġdice
mand
Ġinternally
ifle
Inc
ĠSimply
Ġcorrected
ĠNRA
Ġhacker
ĠJagu
Ġpools
Ġinformal
Ġsensation
ĠMt
rium
bird
Ġgreeted
ĠBaptist
ĠLanguage
ANS
Mult
Ġatroc
attering
Ġcooler
Ġpartnerships
Ġundercover
Ġdefinitions
Ġreacted
Ġprocessors
ĠCircle
Ġgauge
ĠVersion
anta
Ġtrajectory
ĠReb
ĠKnights
Ġhomeowners
Ġcel
ĠConcer
pal
opath
Ġprovoc
built
October
Ġflooded
ĠLopez
Ġvendor
Ġcomplications
ĠHod
Ġjumps
ĠOmar
Ġcontests
ĠRidge
Ġassure
hn
Stop
mega
Ġcuriosity
ĠFu
Ġlawn
neys
holm
ITE
Ġfined
Ġconceded
Ġskate
Ġpedestrian
Ġballoon
ĠDale
Ġhomeland
ĠLloyd
inian
Ġuprising
Ġoceans
oqu
Ġlod
ĠSak
.(
stanbul
common
Ġliberation
Ø±
CBS
Ġcommanders
Ġcompelled
ylon
induced
Ġsync
Ġmaxim
Ġproposing
ĠDiet
Ġdebated
ĠBot
Ġmachinery
Ġproprietary
Ġfairness
ĠStay
ĠConn
ĠWA
ĠAdventure
Ġallocated
Ġhills
âƀƝ),
Ġshirts
Ġreckless
Ġoct
gmail
PT
sett
cue
ĠNSW
anson
elaide
Ġbucket
ĠEthiop
gas
Ġharness
ĠDubai
ĠKon
hedral
Ġarmies
doors
ĠGuant
Ġcomprised
Ġprescribed
ĠHeights
ĠAlzheimer
Ãª
gem
Added
Ġsuccesses
wald
Ġunlawful
Ġsexy
ĠEnc
isite
fits
ĠÐ¾
eur
Ġcolorful
ĠInnov
Ġpurported
ĠNearly
ĠCinem
Ġdelicate
ĠTransit
Ġbee
GI
heres
Bob
odied
Ġvaries
Ġsingular
ĠDin
Ġslam
Ġcellular
Ġairplane
Project
Ġwashed
Ġstereotypes
Ġcried
Ġchooses
ãƁ§
icans
ĠCensus
rev
ĠWeinstein
Ġnickname
Ġmentor
Ġparadigm
ĠTheresa
ĠLamb
ĠSHA
ĠEM
Ġubiqu
span
Ġsuffers
Ġnotifications
iffe
ĠMarines
azeera
\/
Ġstorytelling
CT
Ġpromptly
Ġfeminists
Ġtha
Ġqueries
ĠGregory
Ġplural
Ġprojection
Ġambulance
hl
Dan
Ġdebuted
loaded
ĠAlfred
ĠFine
ĠUT
Ġ1900
Ġparadox
ĠCli
ristol
ĠWel
ĠSha
Ġconnects
Ġbroadcasting
Ġafterward
Ġrecruits
cision
responsible
Ġstrategist
Ġtenants
ĠFalcon
Ġmorally
Researchers
raction
ĠHood
Ġexempl
Ġhaw
Ġcompetitions
Ġvarieties
ept
Saturday
ĠSchumer
ĠKell
Ġgriev
park
azer
Ġvisibility
Ġcloth
Ġpotatoes
Ġtransmitted
lain
Ġprestigious
Ġseniors
Ġstunned
ĠHarbor
ĠSolid
ĠPolitico
Ġmethodology
ĠDuterte
Ġmaneuver
Ġperceive
uffs
Ġvocals
Ġgodd
SI
Ġcommentators
afort
Ġalarming
chem
Ġgloves
Ġelegant
Within
itan
Ġobstacle
Ġoutreach
Ġmilestone
Ġstructured
Ġmisdem
MORE
Ġcovert
aspberry
becca
ĠTE
ustainable
Ġpitchers
review
Ġcolonies
ĠChampionships
Ġsystemic
Ġunpredictable
ICO
ĠPle
seat
Ġfoolish
Along
Ġweighing
ĠEarl
Ġsworn
Ġhashtag
Ġsmok
Ġverse
Ġbacon
ĠNas
Ġcrush
Ġyelling
!).
Ġmaximize
Ġhostage
ovak
ĠLibyan
Ġexclusion
Ġ111
INT
Ġheck
"[
Live
Ġignorant
Ġblessing
lda
ĠPosted
vertising
Ġromance
Ġrenowned
rys
Ġinsurers
Dam
ĠMaterial
gger
ĠNFC
ĠImpact
ĠRBI
itches
Want
ĠOracle
Ġlovers
Ġinterrupted
pc
ativity
Ġconsiderations
ĠFortunately
arak
Ġimply
Ġminus
rients
Things
Ġteachings
ĠBoulevard
major
Ġimproves
Ġgarlic
imen
Ġhumili
aunting
ĠCable
Ġinferior
Ġtimely
Ġrelates
Ġlining
Ġholder
ivia
tag
Ġbrutality
Ġunsuccessful
Ġbargain
ocalypse
Ġdestinations
Ġpremises
Ġlament
Ġ__
Ġaccelerate
did
owntown
Ġpixel
Ġfinishes
Ġbundle
ĠChargers
Ġprevalence
ĠeBay
Ġbracket
Ġannex
ĠCele
ĠBrent
Ġkits
Ġinconven
Ġvulnerabilities
Ġcrises
Ġpap
Ġsore
Ġneighbours
ĠTroy
ĠBever
mut
Ġdiscovering
ĠCrypt
null
iani
Ġworkshop
Ġlur
Ġoutlaw
Ġuniforms
ĠMoto
Republican
ĠLearning
ĠWinston
ĠFear
ĠBrock
Ġmerger
fax
ĠParad
ĠDh
agne
ĠLGBTQ
Ġexceeded
Ġstew
itives
Ġrust
ĠTweet
Ġdownward
ĠAutom
ĠLag
Ġprivileges
Ġexcav
Ġdiscusses
ĠStage
Jul
Show
Ġphrases
Ġembarrassed
ĠMorrison
ĠGonzalez
ĠGlasgow
Ġappetite
Ġelimination
rera
Ġballistic
ĠJupiter
riad
angled
Ġ"[
Ġtolerate
ĠIvan
oids
ĠBluetooth
Ġunwanted
Ġaviation
Ġgraduation
ĠThom
emption
September
Ġbrowsers
Nor
itas
ĠHab
Ġtwisted
Ġmarched
Oper
bps
ĠBegin
ĠTheater
Ġclearer
ĠLux
ĠAvengers
Ġsolic
Ġchampionships
ĠHapp
Bern
Ġenjoyable
Ġaccepts
redited
idav
ĠLiqu
Ġrecognizing
Ġpersecution
Ġmisogyn
ĠWake
Ġgunman
Ġgad
xon
aliation
Ġakin
Ġblaming
ĠXP
Ġspecifics
Ġshuttle
Ġ1080
olith
Ġbeds
Ġwrongdoing
bard
Ġresistant
ogs
Ġtyping
Ġdisrespect
nings
Ġappropriately
Ġau
comfort
ĠPrix
ĠSprint
ĠSerb
Ġvolcan
Ġconceived
ĠAverage
ĠGOODMAN
]]
Ġlend
ĠReynolds
ĠFighter
ĠUpper
Ġvacant
!!!!
cot
Ġreper
Ġculmin
Ġbore
ociated
Congress
ĠPOL
Ġdisabilities
Join
Ġdespair
Ġrichest
ĠJeb
anity
ĠFilip
Ġ..
Court
ĠNode
ĠMik
Ġextremism
âƀƝ;
ardon
ĠErik
Hop
Ġnominees
mg
Ġthoughtful
Ġ>>>
Redd
into
Ġnoticeable
ĠInsurance
Ġpipes
Ġingredient
atism
Ġdiamond
Ġdedication
without
ĠMets
Ġcornerback
ĠSaturn
workers
Ġthrone
äº
ĠDana
Ġtwent
Ġrightly
Ġnumer
inyl
ĠUg
ricanes
eval
Ġprohibit
Ġidiot
Ġperformers
Ġadvocating
Ġconditioning
ĠMaps
Ġ},
Lead
Ġtunnels
Ġexotic
Ġprag
Ġfueled
Ann
ĠTransport
insky
tz
JS
Ġrepay
Ġanat
Ġtil
Ġmethane
Ġstealth
UTC
ĠTurnbull
URE
Ġthesis
Ġfracking
Ġsenses
OUT
thouse
ĠÂ«
Ġcriticize
ĠTap
ĠLogan
Ġwarrior
Ġlover
Ġentirety
rave
Ġdetailing
Ġplasma
ĠIgn
Ġdisplaying
Ġoutfield
Ġartifacts
Republicans
except
uddenly
ĠCel
ĠReports
Ġgrit
ĠÐ¸
cipl
ndering
Ġunjust
achelor
Ġsuperf
Ġsingles
inement
guided
Find
Ġrecognizes
ĠVo
ĠScientology
ĠFreeman
ĠAdvis
ishment
Camp
Ġknocking
ĠFa
Ġbarred
Ġlocks
~~~~
ĠBasically
105
Ġdisasters
ĠLegends
ionage
Ġprejudice
ĠContact
Ġinflux
bled
Code
ĠSingle
Ġheadset
Ġmetadata
Ġadopting
isphere
Ġmerits
Ġmarathon
reddit
icable
Ġfurious
Ġacknowledges
BY
icularly
Ġrestart
ãƂƋ
ĠSaddam
Ġsurg
vasive
Ġpixels
Ġmercy
Ġstoryline
ĠPCs
Ġtraces
Ġcortex
parent
Ġwary
shirts
paper
Fin
Ġwiped
Ġredd
ĠEdinburgh
Ġunm
liber
Ġdilig
Ġbandwidth
ĠPersian
ĠBuc
ahar
Ġpunct
Ġvivid
Ġinaccurate
Ġlag
oco
Ġinstitute
alion
Ġillustration
Ġaltitude
Ġoffences
ĠFranken
Ġmankind
Ġoccupy
Ġdetr
Ġattain
ĠUnd
ĠStarting
2004
center
Getting
Ġdeer
Ġcows
Ġprevalent
ĠLith
ãƁ¦
heed
ĠAudio
ĠGy
were
Mel
Ġë
ĠStef
Ġrounded
Ġprolonged
inda
GH
ĠKnicks
Ġblessed
Ġinaugural
Ġexemption
ĠFROM
Around
Ġvest
ramid
Ġsettlers
Ġgluc
brand
Daniel
ĠRange
Pacific
Ġcoconut
ĠBurns
ĠMillenn
Ġfreedoms
Ġdy
changing
Ġseasonal
Ġabst
ĠPos
Ġphosph
Thomas
Elect
USE
Ġsmarter
business
ĠARE
ĠSUV
Ġinduced
Ġunstable
ĠPradesh
Ġwarrants
Ġpave
Ġerad
Ġcarpet
Ġcapita
Ġreferee
Ġexpedition
Ġbourgeois
Almost
Ġfist
Den
Ġmotives
Ġgrind
Ġaggregate
ĠDevil
ĠBuch
ĠPerl
Ġprogrammes
ĠEmbassy
Ġaccommodation
atinum
Ġhover
Ġcombines
ĠFifth
></
Ġcite
ĠSto
violent
ĠSNP
oys
Ent
!âƀƙ
ĠCaval
growing
course
ĠRift
Force
ĠSpeaking
Ġstems
inel
Ġlisteners
Ġtapped
Ġ1944
Ġgrin
Ġdefeating
complete
Exper
Ġdietary
Ġconqu
kara
Ġbenefited
Ġmiracle
abwe
Ġprogrammers
Ġcouncill
flight
Ġenthusiasts
Ġcrust
ĠHaiti
ĠICE
Very
ĠRhod
ĠAA
Ġrecommends
ĠTC
fact
ingham
Crit
ĠWizards
cig
Ġdefect
porting
ĠDash
Ġbureaucracy
oan
Ġstyl
Ġsanctuary
Ġcriticisms
Ġhoused
Ġsympath
Ġrigorous
ophers
imag
ĠNak
rt
ĠEisen
Recently
Ġreboot
Ġconcessions
icky
Ġprostitution
Ġpaperwork
amel
Ġupdating
Print
Ġsneak
icates
Ġbomber
ĠProgressive
)-
Ġstatistically
Ġunfamiliar
renched
pi
sequently
inqu
Ġlengths
Ġpredators
ĠSales
Ġuna
Ġdeton
ĠBasic
Ġruined
Ġmega
erk
Ġforfe
ĠStarbucks
Rock
WR
Ġhostility
Ġheavier
Ġdilem
Ġcharitable
ĠSchmidt
imbabwe
ĠHyper
ountain
ĠElectronic
avan
ĠRuth
ĠKob
ĠJulia
ĠIstanbul
Ġphilosopher
Ġunsafe
essors
chedel
ĠOt
Ġpositioning
Photos
Ġcoordinate
ĠHorse
ĠCe
urst
iov
Ġstunt
Ġterrific
Ġrebuilding
ĠRolling
ĠCad
Ġinsider
Ġdenounced
ĠLed
ĠCork
ĠEverton
Friday
ĠÃ®
Ġacquiring
speaking
Nobody
ixty
BD
ĠEST
Ġterribly
ĠGitHub
lict
Ġthereafter
Ġsimplicity
Ġperspectives
ĠWHO
sil
Ġcracked
Ġforbidden
ĠNJ
ighty
ĠSuz
ĠSeoul
ĠAngels
âƀ²
Ġwhit
Ġportal
ĠOkay
ĠOri
ondo
Ġsocio
Ġlaps
Ġsupervisor
illes
ĠTimothy
ĠPartnership
ĠLP
Ġillustrates
Ġfusion
Ġreferenced
Ġjournals
Beyond
ĠSebast
placement
Ġmultip
ipple
Ġobjection
Ġgran
Ġplat
ãƁ¨
istical
Ġshade
ĠTournament
ĠOwen
Ġinfringement
casting
Ġoffended
ĠMoroc
Ġsperm
ĠAV
sover
Ġbigot
restrial
Ġschizophren
ĠRomania
avin
ĠCitizen
Value
terson
Ġanalyzing
Ġtraction
Ġintroduces
orie
%).
Ġrequesting
Ġantibiotics
Ġjungle
ographics
Ġidentifies
McC
ĠSherman
Mex
Ġslog
Ġasc
Ġ2030
irection
Build
Ġdiplomacy
ĠSpaceX
ĠEN
cin
blood
Ġchill
ĠLeBron
Ġintentional
Ġborrowed
ratives
funding
Tech
ishops
ente
ĠNotre
ĠSame
ĠPrinceton
prim
Below
Ġskepticism
Ġbroker
Ġcertification
Additionally
lived
Ġaffidav
keepers
ĠLinda
Ġvolatile
blue
ĠVictorian
Ġfrightening
ĠMohamed
itus
Ġunchanged
vity
enberg
ĠScientists
patch
estine
Ġsuperb
Ġreclaim
ĠMaz
ĠAlways
umi
eted
Ġtonnes
Ġregain
Ġarche
olester
ĠPist
Ġsoap
Ġfatigue
ĠPokemon
Ġshells
Ġdetectives
Ġbetting
ngth
HR
ĠMao
NOT
Ġendured
ĠBeta
ĠPRO
123
ĠStern
Ġvine
Ġorchest
afia
ĠRare
ĠChev
ĠExperience
Ġindicators
ĠClear
ĠAuburn
mass
ĠJill
Ø§ÙƄ
ĠLiter
din
Ġvisas
Ġterrified
Ġshred
Wil
resses
ANK
Ġfren
Ġhealthier
Ġfavors
Ġabsorbed
ggie
iao
ieu
ĠAustrian
Ġrecons
Plan
Ġviruses
Ġcooperative
ĠKumar
ĠCourtesy
OWN
ĠCities
users
Ġrestriction
Ġgle
Ġ115
Turn
Ġcleaner
ername
ayan
Ġcircular
ĠLetter
ĠMurdoch
should
Ġmirrors
bial
ĠVince
Ġlowering
Ġcapac
itnesses
Ġcheating
Ġinterrogation
ĠISIL
Ġbronze
Ùƅ
Ġvintage
Ġpecul
tv
Ġshaping
ĠDani
ĠClare
ĠBris
avior
ĠPlant
erm
Ġundis
ĠAbdullah
edin
Ġbackyard
Ġ1941
omical
Ġrefriger
Ġsubmarine
Ġaccessories
sponsored
Ġexclude
Ġautop
Ġunusually
Ġ170
Ġphases
onso
ĠNL
opers
Ġnortheast
acs
hee
acted
Cy
Pay
Ġbeard
Produ
"]
Ġundergoing
Ġtackling
ĠPersonal
Ġemailed
inkle
Ġfreezing
ĠMig
Ġnationals
Ġcyl
Ġunreal
lings
Ġcellphone
Ġtakeover
Ġmineral
Ġhormone
Ġbast
Ġ---
Ġenduring
Ġdod
ĠDayton
Ġsubpo
ĠNice
ĠMiles
Ġlav
Ġcement
ĠRichards
ancers
Ġsqueeze
Ġdevastated
Ġfilmmaker
Ġgoalkeeper
Hi
ĠSaskat
etc
icester
Po
Ġbranded
inspired
Ġadvocated
Ġstrains
Week
ĠSpart
ãƁƟ
1990
Ġbeautifully
ĠJulie
Ġcommunicating
ĠAnnual
Ġinviting
uador
ĠRugby
ĠFriedman
ignment
Ġpsychologist
Ġfacto
Ġnavy
âƔƀâƔƀâƔƀâƔƀ
lette
Ġintric
Ġproudly
Ġposing
Ġhyster
Ġtouring
ĠBurg
ptive
\-
ĠCraft
Ġhorn
Ġgovernors
event
Ġrefined
ĠCeltics
ĠHi
gie
Ġallegation
wave
Ġmarker
orf
ickers
Ġenterprises
Ġdoi
Ġbackdrop
modern
Ġmetals
Ġswitches
Ġmodeling
Ġhappier
Ġstip
ĠSimmons
ĠNYPD
Ġcourtroom
oters
Ġpalm
Ġ240
ĠDot
ettings
Resp
Ġimperative
British
Ġscaling
Ġhandc
Ġexpon
ĠCorey
ĠRabb
Imagine
Ġresponsive
Ġinterfaces
Ġinsulin
ĠElite
Ġsnapped
Ġannouncements
ĠEverybody
weather
ossibly
balance
ĠMeyer
Ġdetermines
BP
Ġarchives
ĠEinstein
Ġstretching
Ġbalancing
Ken
Ġwaist
Ġcontamination
Kim
Ġ});
pector
Ġretaliation
plates
Ġreiterated
yers
Ġpulse
Ġundertaken
Ġrivalry
Ġarose
Ġthunder
Ġreceptor
Ġdevelops
folk
Ġsoda
Ġfost
Ġchaotic
ĠHawks
Ġ1947
ĠDOJ
Ġdependence
sided
Sar
Ġarsenal
Save
mult
ĠLay
BT
Pict
ĠONE
Ġstellar
Ġtravelers
Ġinfants
Ġauthentication
Ġpand
Ġhardcore
Ġengineered
Ġmerchandise
Ġwashing
Ġshorts
Ġattracting
umping
bling
Ġpine
ĠHarm
Ġobserving
Ġgallons
Ġimpair
leys
Ġdeceased
Ġconfirming
Ġjeans
ĠCatherine
ĠBahrain
Has
record
Ġcriticizing
Ġcompensate
Ġagreeing
Ġapparatus
Ġpredicting
square
Ġrevival
Ġspecialists
Ġreef
Ġinnovations
2018
Ġflame
Ġanticipate
ĠVision
ĠPanama
Ġvisually
Ġpossessed
ounty
arium
Eric
Ġeleven
Ġpenal
ĠGrad
Ġeyeb
Ġlaughter
Ġdelegate
ĠWalking
beh
ĠTW
sterdam
illon
buster
Ġepit
ĠTillerson
axies
Kevin
Ġopioid
ĠMaple
Ġresting
ĠCover
Ġcores
Ġwipe
ĠUltimately
ĠGilbert
Ġdistraction
Ġpotato
lux
ĠScore
Ġ(.
Ġtant
2001
ĠValve
Ġbroadcaster
Ġwarmer
Ġstarred
Ġautumn
ìƝ
allah
edu
Ġclearance
ĠUsers
Ġkidnapped
180
Ġwarriors
Ġprizes
wen
Ġburns
Ġsidelines
ifted
Additional
Ġregimes
ĠRapt
aca
Others
Ġdumped
Ġdomains
Ġurgency
ĠGrass
Ġendure
Ġhypothes
ãƁª
Ġecological
ĠExplorer
League
ĠCenters
ducted
ĠSimple
Windows
Ġconception
Ġolive
Ġbullshit
ĠManafort
Ġvisitor
Ġnegatively
ĠTi
Ġcontracted
ammad
ĠHerman
ĠDamage
Chief
!'
Ġrim
ĠProduction
Ġtheirs
Ġselective
Ġcaptures
Ġradioactive
Ġbilateral
Ġrode
Ġdubious
SW
Ray
ĠBrendan
Ġcategor
Ġprinter
etitive
Ġblows
ĠPE
Ġreactors
ema
ĠHayes
Ġvanilla
ĠShip
orian
Ġnodded
Ġradically
ĠMercury
Ġseizure
Ġrepairs
ortium
ĠPeninsula
ĠHogan
Ġunbelievable
Ġinstability
Ġdependency
osterone
moil
IAL
Ġlogin
Ġexplosions
Ġseverity
Ġvoluntarily
oped
////
Ġstal
asis
Ġillicit
ĠCrawford
ablished
placed
iencies
Ġqueer
Ġmarsh
Ġshelters
Ġastronauts
Ġscreenshot
project
ĠLegacy
Ġpean
ansing
ws
ĠDetails
Ġcontaminated
Ġobserver
ĠRiley
Ġgoodness
ĠComment
Ñƅ
oka
Johnson
ĠCards
lander
Ġsights
Ġprogrammer
Ġcrypto
Ġlonely
Upon
versely
oser
Ġaccuse
ĠCrisis
ĠEmirates
Ġassessments
ĠGross
ĠBristol
Ġcrunch
Ġsidewalk
Ġsubsidiary
ĠâƆƒ
Ġcontentious
Bitcoin
ĠGir
Ä«
ĠPlaza
Ġhollow
Ġtherape
Ġprophe
Adam
ĠConway
Reddit
Ġdwell
Ġpalace
ffiti
Ġfreak
Ġpathway
healthy
Ġstretches
Ġbisexual
ĠFF
parents
Ġrobotic
Ġhunter
ĠDecl
Ġdemise
OLL
Ġdisadvantage
ĠHernandez
Ġpouring
Ġshutting
Ġrigid
Hard
Ġfog
ĠHonor
Moreover
ĠSpicer
ĠVeh
Ġdirective
2003
November
Ġredund
ĠSchultz
Ġresemble
Ġjealous
Ġawaken
ĠJet
ĠBruins
ĠSend
Year
Ġrehe
Human
Kit
ĠFrame
Ġcookie
Ġcompetent
ĠLeo
fed
Ġtranslates
Ġfra
Ġempirical
ĠVienna
Ġruins
ĠSaw
Ġmetaphor
ĠEL
Ġdiving
ĠRoute
Ġvom
wic
Ġpleas
Ġtoe
Ġsom
Ill
Ġbend
Ġsack
ĠâƉ
Ġwithdrew
ĠTM
Ġsurprises
Ġseller
DO
Ġrenamed
ĠPain
ÄƟ
Ġlaund
ĠSuccess
pleasant
ĠShane
ĠAndrea
ischer
cry
Arch
ĠBlizzard
ĠWu
Ur
Ġcharities
ĠBert
cled
Ġexterior
Ġcosting
ĠReplay
bag
Ġranged
ĠJedi
Ġrelentless
ottesville
Ġremed
orest
Ġineffective
Ġparan
Ġdull
ĠCrist
Ġinserted
Ġcharm
ĠFlickr
Ġdoomed
rahim
Ġï
ounge
ĠBrennan
Ġbrig
cro
Ġtraced
Ġdigits
ĠRespons
ĠInvestment
Ð¹
ISA
Ġreminiscent
ĠNeg
ĠAPIs
sch
static
ĠAdelaide
Ġintox
ĠInvestigation
ĠEgg
Ġlemon
Ġleaking
Amazon
Ġowning
antry
Published
ĠJazz
Ġpreservation
Ġpopped
)?
ĠCheney
Ġsrc
Ġlou
ĠRegardless
Ġaccelerated
kowski
ĠNan
Ġmodifications
Ġallocation
Ġaven
abulary
Ġdictator
planes
Ġtam
Ġcontend
Ġviolates
Ġherb
Ġjuvenile
ĠDell
ĠFoods
Ġdownloads
Ġreplicate
times
ãƁ¯
Ġpencil
ĠSoph
Ġpensions
Ġpreserving
December
Ġdependencies
Ġpigs
Ġnotices
wife
SF
Ġrewarding
Ġmerchants
elected
ORY
Ġacceleration
Ġfeasible
Ġappointments
ĠCopy
ĠBun
Ġradius
Vol
atured
city
^{
ĠThan
Ġtwins
Ġmasks
ĠWebb
Something
Besides
Ġyeast
ĠLance
invest
Ġattachment
,âƀƙâƀƝ
ĠBehind
Ġoutdated
Ġdiscontin
Ġlaughs
identally
aft
Chinese
TL
Ġupheld
Ġspouse
Ġprosecute
Jones
Craft
Ġpointer
Ġrapper
Ġpossessions
Ġvandal
ĠObservatory
SB
Ġdeaf
Ġ000
anyon
ĠFact
Ġnurt
ĠTrent
item
FOR
Ġironic
Ġms
Ġ1959
ĠSkin
Dig
Ġatoms
ĠJudiciary
ĠArrow
Ġupwards
match
ĠKushner
inters
Ġretros
ĠPirates
ĠBranch
Ð¿
Ġenrollment
falls
essa
Ġinad
ĠRF
Ġneedle
Ġopera
Ġnegotiation
ĠPTS
HE
Ġvegetable
Ġspiral
Ġembracing
Group
ĠElementary
Ġprimitive
ĠTaking
Ġtrainer
inational
could
Ġcontributes
Ġresolutions
Ġfestivals
Ġdisse
hops
aways
Ever
Ġfertility
bee
Ġtossed
Ġdun
ĠBeatles
Ġmicrophone
Ġshrink
Ġvapor
Ġ102
Sund
atel
Ġbombings
Lou
ĠâƔ
Ġleaning
Ġhailed
Ġcongressman
Ġ&&
Ġshoots
Ġhunters
Ġteasp
secure
Ġvinyl
Ġ1800
ĠZucker
etti
ĠSyn
video
owns
root
Ġmerge
Ġallev
($
Ġcopied
Ġrejo
ĠProdu
Final
Ġpier
Ġallied
Ġcostumes
object
ĠSpecifically
Ġforecasts
Ġwithdrawn
Ġmodification
Mur
boro
Ġiteration
stad
Ġmechanic
Î¹
Between
ĠVolume
ĠDiscovery
ĠDevils
ĠBorn
Ġmyths
Ġapost
Å¾
Ġstamps
ivable
,âƀƙâƀƙ
Ġ104
Ġchamp
ĠConservation
status
mails
PE
Ġhopeless
Ġdiminished
ĠAbe
Ġdiscoveries
Ġdisappearance
ĠManuel
omeday
Ġchuck
sty
Ġinspector
ĠComedy
Support
Ġtally
ĠGul
ĠKiss
Ġeman
ĠÃ©
venant
Ġpertain
Jew
Ġaccessing
ĠMeet
ACA
Ġanticipation
Ġcosmic
Ġvoltage
mor
Ġvault
return
Ġdoubles
ariat
rh
Deb
Ġunsure
Vict
ĠProfessional
src
ileaks
Ġruth
Ġsmoothly
heid
Ġoutspoken
ĠRockets
ABC
Ġturmoil
ĠSterling
Ġgaze
Ġlb
ushi
entric
Ġsalad
ĠMirror
Ġgifted
uffer
cam
Ġmyriad
Ġmammals
Ġframed
ĠTwenty
Ġolig
Ġatheists
Ġalleging
largest
Ġpodium
Ġoccurrence
Ġforefront
Ġinterval
Ġairstrikes
false
Ġoffspring
ĠZimbabwe
ĠActive
Ġsexist
Ġextracted
ĠAlien
Ġforensic
ĠMemory
Ġradi
ĠMead
Ġvalidity
Ġmilitias
ĠWhatsApp
Ġadequately
leaning
ĠGeoff
Ġtouted
ĠSouthwest
ĠCord
photo
ĠUsually
ĠAdobe
ĠMountains
ISS
psy
Ġnaive
ĠNationals
Ġnarratives
fired
Ġtriggers
Ġintrins
Ġcompatibility
ĠFM
ĠBoss
Di
ĠTrack
Ġcancell
Ġneurolog
Ġcelebrations
reading
ĠQuality
Ġextrad
ĠDuty
cified
doc
ĠMonica
amic
Level
Ġjudging
anol
cf
tier
Ġransom
Ġcheek
ĠTrophy
Ġstimulation
Ġperceptions
Ġimmort
Nick
ĠBengals
Lin
Ġecc
Ma
Ġgrounded
ĠJoin
Democrats
ĠBass
ĠSimilar
Ġcrashing
Ġcreepy
Ġelevator
ĠRecently
Ġpretending
oton
issan
ĠBirth
othe
lins
Ġslept
Ġasteroid
before
ĠFlag
Ġwires
ouring
Ġexchanged
ĠClearly
Ġadolesc
Enter
create
Ġnarrowly
Ġunite
Ġmarkers
ĠTerrit
rez
partisan
ATA
Ġcollaborative
Semitism
Ġsuccession
Ġwholesale
ĠPars
overty
does
ĠAlger
Josh
Ġstrengthening
Ġjustices
Ġcleaned
ĠExcept
ĠBaldwin
ĠDLC
Islamic
Ġtops
Ġacknowledging
ustomed
Ġbolster
Ultimately
Prime
Ġretrieve
Ġplacebo
Ġunarmed
ucci
Ġorph
Ġnorthwest
ĠHond
Ġkin
elsen
ĠTrain
uds
Ġá
ĠKenneth
isure
Ġemploys
ĠScientific
ĠLebanese
Ġsupervision
ĠGrowth
Ġsustainability
Listen
Ġindoor
Ġsuperst
Ġindo
Ġ1939
Cast
Ġperfection
Wow
Create
Ġeject
ĠKoh
ĠBuddha
ĠSkype
ĠLud
ĠCoffee
Ġcurse
fight
Ġdomination
Ġcompares
wire
cross
Py
Ġrefreshing
Ġcans
Throughout
Ġspecially
Ġnutrients
Ġmeaningless
bands
Ġlunar
Ġashamed
Ġdepths
Ġdecay
ĠComing
Custom
Ġevacuated
DF
orsche
Ġreliance
Ġdisgusting
Ġbidding
ĠFloyd
Ġdischarge
ĠCurtis
Ġpredicts
Ġhypothetical
ĠMyster
ĠBengal
Ġ450
lia
Ġhalls
orsi
Ġdecentralized
.;
Ġsuspend
Ġsectarian
ĠBTC
ĠKot
115
Little
Ġoverlap
Ġhonesty
culture
ĠApart
ods
Ġblasted
Ġversatile
Ġdefeats
Ġleftist
Ġ220
ĠNike
Season
Ġscandals
ĠFresh
Ġrack
Ġresearching
Ġregulator
Ġperpetrators
University
Less
Ġhoax
ulatory
Ġpoorest
Ġbeaches
ĠYOUR
ĠPv
vered
Ġsober
ĠCros
arten
Ġfrequencies
ĠZoo
heard
Ġgranting
Ġconceptual
Ġexpired
ĠRew
ĠMonsanto
ĠRece
ĠKurdistan
Ġprince
Ġdeported
Ġfutures
Ġanarchist
ĠBuzzFeed
ĠJacksonville
ĠUltra
ivo
antine
Ġfirmware
Ġnightclub
Ġfrog
ĠÂ·
ĠJSON
stru
Making
ĠZimmerman
dogs
Ġpaste
ĠElder
ĠTechnologies
ĠAncient
Ġparental
Ġgoverned
ĠEvolution
country
Ġlooming
Ġdos
Ġtangible
Ġsignaling
Ġrelevance
Card
acial
emer
Western
Ġrampant
ĠAbbas
Ġturnover
Ġidol
ĠJur
Ġtodd
ĠChoice
Ġevaluating
Ġdeclines
Ġuncover
Ġspine
Ġlivestock
Ġrecycling
ĠFernand
Ġcruelty
Ġsting
January
Acc
hagen
coll
Ġjudgement
Ġextraction
ĠBog
Ġpent
Ġbitcoins
Ġembarrassment
Ġreps
Ġerr
ĠBrisbane
isans
Ham
Ġgit
ĠAnything
ĠHelen
Ġaccumulated
Lee
Ġrelieved
ĠLead
ĠBle
Ġbiography
ĠCambod
oustic
Ġfalsely
Yesterday
ĠCharter
Ġfilmmakers
Credit
Ġgy
ĠEcuador
French
Ġcorrespondence
Ġstakeholders
Ġglorious
ĠOval
Ġtaxation
ĠBlackBerry
ĠBil
rance
ĠResults
ĠCanucks
ĠBT
Ġsexism
ĠMidwest
Ġfragments
Ġunderwent
uba
ĠMcCl
Ġstatistic
Ġreinforced
Ġdiplomat
Ġairlines
assis
techn
rights
Ġweights
olia
Subject
Ġrealization
ĠCanon
Ġpartition
ĠEvents
æƜ
Ġyelled
Ġhooked
Ġdistracted
emy
Ġwanna
Ġclo
ĠCrus
ĠVP
ĠConc
ĠEasy
Ġreprint
obic
Ġsupermarket
ĠViolence
Ġbrass
ĠHeath
Ġech
expl
Str
Ġresembles
scient
Ġanalogy
Ġshiny
Prior
Ġstuffed
Ġgloss
Ġconstituency
regor
Ġsounding
ĠMonte
uled
Ġtheology
Ġdivorced
ĠUpdated
ĠJuda
ĠIrving
secutors
Ġmembr
Ġoutraged
Ġbombers
ĠBened
oit
inas
Ġindirectly
Ġdestabil
ĠCertainly
Ġjoked
ĠHag
akis
gage
Ġnominations
Ġburial
ÅƟ
boarding
arendra
ĠShot
Ġtrilogy
glass
Ġgroom
ĠInqu
ĠIndividual
ĠISPs
ĠAnders
Ġsung
,'"
Ġfundraiser
ĠLaunch
ĠCharlottesville
Ġbuys
ĠBrow
ÑƂÐ¾
metry
Ġsoutheast
ĠSalvador
ventional
ĠSig
ĠPerfect
ĠNest
128
ĠMint
104
Ġglow
idate
rington
Ġdrums
ĠPlanning
Ġheightened
Ġcompuls
IZ
Ġoverthrow
cod
Ġillnesses
Ġfraudulent
Ġsellers
idable
Ġkidnapping
Ir
Ġutilized
Ġgoalt
Ġbelievers
ĠGri
lantic
Ġchopped
ĠFans
Ġ1942
Enlarge
ĠLil
rene
Ġindefinitely
baum
Ġreconstruction
âƘ
arrison
itating
imation
ĠDarren
Ġcurtain
Ġacids
thy
Ġtin
Ġsusceptible
Ġirrational
ĠTier
Ġmelting
Furthermore
Ġsang
Third
Ġsurroundings
aqu
Ġhats
Ġceasefire
Ġtapes
Ġmiserable
Scientists
Ġlikewise
Topics
Ġstacked
ĠARM
ĠGur
2002
Ġurine
Ġpope
Ġmisses
Old
Foot
emade
number
Ġobsess
ĠSV
themed
ricted
Online
jah
Ġproclaim
Ġcatastrophe
places
hig
Ġstoring
ludes
ĠMotion
ln
ĠVers
Ġuniquely
marked
Ġremarked
ĠAngular
Ġlaptops
âƀ¦]
102
ANG
ĠRhode
Ġcharism
Rom
Ġspatial
ĠCer
Ġcouncils
ĠRS
Ġcomr
Ġheights
Ġexile
Îµ
Ġinquiries
Ġfaint
ĠDesert
Ġ1958
Ġcommentator
Ġrecurring
quarter
olesterol
February
Ġ\(
ĠGenesis
Ġjugg
ometric
gae
frac
ĠPanel
Ġsurgeon
Ġendeav
eele
average
Ġsupernatural
fill
Ġshrinking
ĠTah
ĠJazeera
ĠDucks
umbs
Federal
ĠJohns
Tem
Brian
ĠChin
Ġdispers
still
Ġunpleasant
Ġdislike
Ġcracks
ĠIllust
oil
igators
Ġtubes
ĠBlade
Item
ĠSchneider
ĠProtestant
ĠGiant
ĠAdmir
Su
Ġanth
ĠImport
ĠOg
Ġlifelong
Ġdestined
Ġauthorization
Ari
ĠNate
exper
Service
Ġoperatives
ĠLikewise
ĠCE
oody
ĠExxon
Water
Chicago
Brad
Ġdisagreement
ushima
Ġdifferential
Ġvalidation
Dist
Ġgalaxies
Ġeligibility
Ġwithhold
ulators
Ġoffender
Ġchlor
ĠKindle
aunch
Ġcontenders
ĠWyoming
IND
Ġoverturned
ĠCanyon
important
Ġregression
Ġphotographed
Ġmitigate
Martin
Ġbunk
pler
Ġmilitar
Ġmadness
ĠArs
Ġsurvivor
Ġpundits
Ġdesignation
Ġscoop
liner
GG
Ġï¿½
ĠAmsterdam
Sn
Ġweakened
ĠWer
ĠDowntown
Ġ1956
Ġslap
Ġrevolt
irteen
ĠLiu
ĠCustoms
Core
ĠMillion
ĠKem
Bat
Ġintermediate
ĠFortune
imo
Ġdeduct
Bur
ĠPra
ĠParticip
ĠFREE
Ġchambers
Light
Ġsharks
Ġproponents
hun
ĠHugh
ĠGallup
PDF
ĠDavies
Ġhonors
enment
due
Ġhinted
Ġbounds
ĠNear
ĠBarrett
Ġsham
Ġheterosexual
ĠBerry
piracy
Ġinterceptions
ĠBreaking
Ġsabot
Ġpunched
Ġpreparations
qualified
ĠTrevor
ĠEconomy
IB
Ġplague
ĠRestaur
artz
ĠQuestion
Ġtomb
Ġheroic
ĠDiane
Ġgrabbing
Ġcanvas
ĠShia
Ġconverting
circ
ĠRhodes
Ġwors
ĠCliff
Ġ103
OUND
ĠVas
Ð±
Sorry
isch
Ġfairy
angular
Ġunpaid
Ġworthwhile
small
Ġrehabilitation
Ġhelpless
ĠER
Consider
ĠShen
Aud
ĠProvince
Pan
ĠEston
ĠThroughout
Ġcloset
ificent
otle
Ġcomposer
ottest
Ġcrushing
ĠDiff
ivism
itures
Ġreop
London
Ġexh
Ġtenth
");
Ġdisciplinary
Ġdess
umped
ĠPirate
Query
ĠTag
Ġfranchises
Ġrumor
olation
icus
pering
Ġonset
Ġpoorer
ĠMega
ĠKitchen
Ġwolves
Ġgel
ubs
Gov
ĠPRE
cule
Ġforgive
ogene
Ġspeculate
Ġlungs
Number
ĠGem
ĠBayern
late
Ġunauthorized
Ġmarvel
ĠFX
ĠAmanda
ĠPierce
Ġcontingent
ernick
along
Ġlawmaker
Ġdrawings
ĠAdditional
Ġrejecting
icidal
Ġabnormal
450
ĠWorth
standard
GET
ĠCoy
death
Ġprints
ĠKi
Ġcollar
ĠNortheast
WE
Ġpedestrians
ĠInternal
avez
Ġaspirations
DonaldTrump
Due
ĠColonel
-$
Ġzombies
igger
Fort
hash
Sk
Ġscouting
Jes
Ġsuing
tar
Ġlandsc
Ġkidney
Ġadvertisements
Ġretention
idad
Exp
Ġabundant
ĠDS
quet
Ġeditions
rared
ĠÂ§
Ġsmoked
Ġglucose
ĠMyers
Ġinfantry
Ġforesee
Ġsplash
Ġgays
Ġvoy
Ġimagin
Ġclone
risy
Ġminerals
ĠMate
103
Ġdiagram
Ġhex
hon
Ġlbs
ĠPam
affeine
Ġrebound
Ġinstallment
Ġsupremacy
Ġfallout
Ġreconciliation
ĠMoy
ĠHaven
Ġwinger
ĠHassan
Ġzoo
ĠTas
ĠVita
Ber
Ġverification
ĠRebecca
Could
Ġtelescope
ĠGuinea
Ġplayground
Ġchancellor
Ġalignment
iman
Ġtelevised
comb
ĠFell
arius
Ġcoerc
ĠPrest
Rather
Ġresh
Ġcompilation
Ġefficacy
Ġcoherent
ĠDance
Fun
ĠLakes
Ġ1954
PER
ĠStanding
ospace
Ġtsun
Ġrogue
ĠWine
personal
Ve
ĠQuant
iza
Price
Ġdrafting
Israeli
Ġmortgages
Ġexcuses
cano
vable
Connect
ĠRSS
assed
Ġsuppression
Ġclusters
Ġcocktail
ĠAtlas
Ġdisable
Opp
Ġsmashed
focused
bey
Ġsouthwest
Ġorganizer
bons
umen
Ġsaga
Ġfantas
ilib
ĠPine
ĠWit
Ġscout
Ġstumbled
Ġblueprint
rio
ratt
ĠTestament
Ġstrive
umni
lich
hou
Ġapples
ĠRating
ĠVir
rice
Ġsuperstar
Ġmonarch
OND
ĠHav
mag
Ġplagued
Ġdictatorship
ĠMoses
Path
deter
JUST
ĠJak
move
ĠSah
uddy
Ġdisagreed
ĠDiaz
Ġcirculated
Ġgluten
Ġcountryside
vs
California
ĠComplex
Ġunanimously
Ġchorus
NP
Ġundersc
Ġproclaimed
Ġumbrella
Ġroller
ĠGujar
heavy
Ġaccusation
ĠCounsel
trade
Ġlob
Ġpeculiar
ĠVote
Jose
Ġmerged
ĠRocky
Ġ106
Ġmanipulated
ĠLeicester
Wall
ĠPremium
Journal
Ġdismissal
Ġpersuaded
Ġstaffer
Ġaccomplishments
tarians
Ġreceptors
Ġtiles
Ġdialog
ĠRol
kinson
Ġmultinational
ĠUSS
ĠLar
yll
Ġprohibits
Ġion
Ġostens
grand
efficient
Ġaffidavit
ãƂƒ
Ġenerget
LP
Ġsomeday
ĠIsis
Ġmint
Ġcompression
ĠWagner
Ġtorrent
ĠJackie
Ġbun
ĠCAP
henko
Ġintimidation
Ġinstructor
Death
Ġlearns
ĠLynn
ĠVern
TM
Ġlith
Ġmaid
Ġpremie
à¥
Ġlakes
xxxx
production
Ġdots
ĠPlatform
ĠHugo
Ġcontinuation
ĠNepal
ĠCompanies
003
ĠWarrior
Ġunlocked
ĠMist
Ġprotested
Ġmessy
icultural
Ġdrastic
Ġbreweries
ĠWon
Ġ1917
Ron
Ġdur
Ġcrafting
zan
ĠSR
ĠIndustries
ĠOsborne
educated
anga
Ġpanc
gio
Ġstair
Ġinnocence
Ġbiblical
otti
ĠBag
fiction
Ġnas
='
Ġmesh
Ġrationale
Ġbelly
ĠRevenue
Ġsquat
Ġbrowsing
wartz
ifax
bourg
Ġfade
Ġdock
Ġheadphones
ablishment
Ġtherapeutic
Ġstaple
ĠHamb
Ġlid
oxic
elli
Ġcant
ĠSugar
belief
ĠManufact
Nearly
ĠFargo
ĠNOW
Ġmarching
Ġeste
Ġtelecom
Ġfringe
Ġclerk
Australia
ĠÐº
Ġmajors
Ġcommodities
NASA
ĠYorker
ĠNarendra
Ġbyte
Inside
Ġprogressives
vement
reatment
Professor
Ġbark
Ġcros
ĠAzer
stro
Ġreimb
ĠReply
ĠRefuge
realDonaldTrump
Sky
Ġshattered
ĠPO
Ġswiftly
Ġfreelance
ĠBast
Ġsegregation
Ġinteracting
ĠKub
ĠISO
sor
usra
auf
prop
Ġneoc
Ġkillers
Ġoxid
ĠRunning
pherd
Ġaccustomed
religious
Secret
Ġadjusting
Ġubiquitous
Ġbadge
ĠTIME
Ġunden
Ġresisted
Ġproposes
ĠWaters
Ġpuls
Ġ750
uilt
Ġpolite
Ġreproduction
Ġcarved
llington
ĠNW
odore
Ġneglected
Ġdestiny
Ġindicted
ĠHuck
eda
ĠMAR
wild
ĠZomb
ĠHour
Ġsettling
etr
abase
ĠManit
Ġwax
ĠRise
oliberal
Ġopposes
Ġscanning
ãƁƙ
Authorities
Ġskies
Prov
ĠStrategy
Ġdecorated
special
ĠBurton
Ġgospel
Ġdilemma
ĠKoreans
Ġadvertisers
Ġsolitary
ĠFeel
ĠWave
ĠEuropa
ILE
Ġantit
ĠBoris
Ġbackpack
Ġpoisoning
Ġharmony
Ġcohes
ĠTay
ĠInterview
Ġdisregard
gerald
enzie
ĠAWS
Everybody
Ġaccidental
Ġng
ĠLuckily
general
ĠWald
ĠLenin
edience
Ġunto
iolet
ĠOfficials
Ġspider
Ġshooters
Ġliable
ĠLinkedIn
yrus
Ġthankful
Ġcrosses
iya
Ġadvertised
atri
ĠEugene
Ġmighty
ĠPep
Ġrepression
Ġemerges
ĠPunj
ĠClaire
Ġmisdemeanor
ĠMourinho
Wal
ochem
facebook
Ġwaking
Ġreplies
Ġgeographic
Ġcollector
ĠAnglo
ĠStark
ĠShawn
ĠChurchill
orman
ĠGaddafi
ĠCONT
ĠArmenian
Ġya
why
Ġgovernmental
Ġstalled
ĠAviv
choice
Ġangel
ĠVic
Ġomn
ĠOriginally
ĠLeh
cium
Ġwilderness
ĠNewman
Ġthanked
ĠReligious
article
Ġdoubling
mt
ĠSerbia
ĠRey
ĠMarxist
faced
ĠPeru
Ġ1957
Dark
Ġverge
ĠBoot
ĠMale
inth
English
ĠIF
safe
Ġsubmissions
ETA
ĠNPC
ĠSit
Player
Ġstationed
Ġreproduce
Ġremake
Ġcynical
ĠStyle
ĠAmericas
ĠFury
Ġricher
Ġaka
Ġsor
ĠShut
fashion
Ġ1953
Ġschedules
Ġexistential
Ġtraps
sheet
ĠRising
Ġdownloading
111
Charl
Ġweighs
Ġbrace
orde
ranking
Ġparole
rob
ĠLabs
ĠHungarian
Mary
Ġmansion
coholic
Members
ACH
Ġspecifications
Ġpiracy
their
Ġvegetarian
Ġscreenshots
Fund
Ġtransplant
ĠPeriod
ĠDy
Ġantagon
Ġconcerts
ĠDems
arel
Ġsystematically
109
ĠOUT
CBC
Ġunanimous
Ġclutch
Ġprocure
Ġgarnered
union
orously
Ġrestruct
Ġgardens
ĠDocker
fest
Ġsurgical
Ġlakh
Ġvow
ĠConstitutional
Location
Ġtumor
ĠFleet
nom
Ġpsychedel
Ġpolicymakers
ĠHeather
mis
Ġdemocrat
astics
Ġthriving
Ġdivisive
INK
Ġ};
Ġfried
Ġearnest
aline
Ġlenders
Ġcommenting
mia
Sunday
ĠGE
Ġmedicines
ĠSorry
Ġlogistics
ĠResearchers
ĠHammond
Ġcertificates
Ġirregular
Ġremedy
Ġexaggerated
Ġcharming
Ġbranding
ogram
Mont
Ġâƀƕ
Ġdownside
criptions
Global
turn
ĠOutside
Ġwasting
Ġsentiments
Ġenforcing
ĠFeed
Anyway
acey
Ġpac
ĠOL
Ġmythology
Ġcit
Ġstigma
Ġincarn
ĠMaid
Iron
Ġdinosaurs
ĠÂƗ
Ġfal
Ġ<<
istence
Ġsized
ĠRocket
Ġsponsorship
Ġarchitectural
ĠReich
productive
Ġbloggers
ĠForward
illas
dies
ĠCongressman
love
ĠTool
angerous
Connor
ĠSynd
ovy
Ġignores
Ġcommunal
Ġample
ĠNoble
fuel
Ġservant
ĠLenn
ĠAnkara
Ut
Ġshortages
Ġimpart
zip
herence
Starting
Ġ(#
Ġtweeting
Ġdepicting
Ġcloses
ĠRapids
Ġarom
Ġarchitects
Ġ1943
Ġcongestion
ĠConsult
Ġpads
Ġformidable
ĠSyrians
ĠAce
ichi
Sad
UCK
Ġretiring
ĠFrederick
Ġseated
Ġanimations
Ġdamp
Ġconceal
Ġevenly
ĠHigher
asser
ĠRaymond
Ġpatrons
ĠNeigh
Ġcracking
Ġacclaimed
Ġ1955
encia
Ġloudly
ĠWheeler
uu
compet
Ġsocietal
ĠLegion
Ġdrills
ĠCongo
Ġpathways
Ġarises
Ġaggravated
elo
Ġbucks
Ġnep
ĠREAD
yet
Ġmassively
Govern
Ġmonkey
Ġrooft
Ġbodily
moon
Ġincapable
founded
fig
Ġinjected
ructions
ĠWriting
bishop
Ġrefresh
Ġmum
Ġskelet
Ġseizures
Ġenvelope
iked
ĠKatie
ĠAFC
Ġplummet
ongo
Ġcannon
ĠZelda
ĠFri
enza
ĠPowers
abee
inj
Jason
Ġgoalie
Ġdescended
oldown
ĠVenus
otta
efined
Ġoverc
ĠMR
Ġsupplier
Ġperimeter
Ġmerchant
Ġevacuation
ĠCert
guy
Ġrefrain
Ġimpending
Ġdeepest
Ġfireworks
Ð³
Neill
Ġpact
Ġgradual
fires
ĠGardner
ĠCW
solete
ihil
Ġscans
ICS
ipes
Load
ĠSonic
Ġmans
Ġinitiate
Hen
Ġjurisdictions
wheel
MO
Ġlasts
Ġwhereby
ĠBuddhism
170
Ġwhopping
Ġantenna
ĠSmash
ĠSexual
ĠSikh
opia
Ġcough
ĠLanka
ĠRCMP
close
Ġunidentified
Ġaverages
Ã¯
DD
Ġannot
ĠReligion
Ġmedd
ĠMY
ĠSafe
ĠOfficers
Ġpupils
Ġinduce
ĠEllen
ĠPhase
nas
Ġreservations
Ġcompanions
ĠCombat
tical
private
dependent
Ġproportions
Ġcounseling
ĠHansen
ĠJoyce
ĠDB
icular
Cam
Ġditch
Ġforged
ĠPorsche
ĠHein
ĠDre
Ġdegr
asio
ĠLauren
Ġplayable
Ġexploits
.âƀƝ)
Ġpredecessors
Ġaffiliation
ĠVictory
Ġtruths
Ġspectacle
ohyd
Ġtapping
Ġrulers
Ġnitrogen
ĠLSU
ĠIo
Ġirresponsible
eddy
Neither
Ġdop
hm
Ġsir
seys
Ġrenewal
Ġrented
meaning
Ġfascist
epernick
prus
Ġoppressed
Ġbrakes
Ġswall
Mond
Ġburger
ĠFighting
)[
ĠLTE
ĠBrief
Ġmedals
Ġbree
ĠIncome
ĠApache
Ġclan
Expl
Ġswear
target
ĠNolan
Ġsensory
Ġphilanthrop
ĠGut
ĠAndrews
Rev
Est
ĠSpark
Ġcirculating
ĠMinority
ĠCardinal
Ġregistry
Ġphotographers
Ġ107
Ġcafe
ĠPu
ĠCous
ĠSantos
Ġproliferation
Ġelephants
Left
Ã±o
Ġdemons
Ġatrocities
ĠSans
ĠGET
Ġtransforming
Ġstubborn
Ġundo
Ġgestures
ĠKuwait
Ġ1949
arus
rue
ĠTumblr
scill
./
ĠReality
Ġvou
Ġstrongh
Ġruntime
Ġhighs
ranch
Ġbreasts
Ġ108
Ġfier
ĠFrost
ĠEmanuel
ĠBom
ĠNiet
Ã¡s
illions
Ġoz
Ġhemp
Ġdisruptive
Ġculprit
ronics
odynam
Ġspeeding
Ġchunks
stre
Ġmeme
Ġalley
Ġawake
atra
Ġgoodbye
Ġfloods
ĠProductions
Ġsuccessive
ĠMahm
Ġstrips
ĠGent
UB
ĠBraves
isman
Ġlimbs
ĠGolf
Semitic
TB
ĠNeo
ĠDifferent
Ġhalted
ĠMedal
Ġinadvert
creat
Ġandroid
openhagen
ĠRaspberry
Ġmutations
Ġallegiance
Business
ĠCultural
atical
Ġlaundering
ĠInspector
ĠSavage
ĠRoyals
Ġstall
Ġmutation
Ġgratitude
ĠSuperior
ĠSleep
ĠCeltic
etics
Ġpopping
Ġslope
Ġremn
Ġrude
ĠEnjoy
ldon
Ġrevive
ĠCornell
Ġexpenditure
Stephen
ÃƟ
oi
Wed
Ġgrabs
ÂƗ
itsu
Ġplanetary
Ġmemoir
ĠPresent
ĠGarrett
ĠFen
ĠCOU
tta
present
ĠElectoral
ĠJudaism
Ġonion
VIDIA
Cru
Ġrespectful
Ġspur
Ġcomfortably
Ġsurreal
Ġlimitation
106
rugged
Mic
Ġrestoring
ĠDuck
OSS
reb
commerce
Ġvillains
ĠRelated
ĠEcho
adic
True
Ġpoker
Ġchickens
ettes
pictured
ĠWenger
Ġhug
International
360
Ġcontinuity
committee
ĠDNS
++++
Ġsadness
Ġdeparted
Ġcorrelated
aris
Ġpseudo
Design
Ġundergraduate
Ġtriangle
Ġ112
MR
ĠMedium
Ġrobbed
ĠPetersburg
ĠGreeks
ĠCamera
Ġharassed
ĠCharleston
rath
256
oshop
ĠResistance
Ġtemporal
skin
ÑƀÐµ
bai
Ġmicrobi
Ġworldview
ĠBA
nick
Ġpivotal
Ġincorrectly
Ġexceptionally
Ġforc
Ġauthenticity
von
ricks
pensive
Ġsucks
ĠBelfast
api
Ġprofoundly
Ġincub
ĠKur
Music
Ġgrains
Ġinterception
ĠPav
Ġgeop
Ġbuddy
assing
ĠPale
incre
Ġslate
Ġdiets
Ġelbow
Ġdiscrep
ĠGL
Ġsimplest
verts
Ġdiscern
iji
chin
Ġsliding
release
Ġstd
Ġcommercially
asketball
Ġverte
ĠAlban
itant
Ġgenerals
Ġgeek
Ġcamping
oslav
ĠMarketing
Mag
Ġunofficial
journal
odo
ename
alker
Ġassessing
å¤
lang
Ġov
existing
Ġhitter
ĠPrep
ĠKre
Ġsins
Ġperformer
ĠJail
since
ĠWeight
Ġremoves
ĠTucker
Ġrespir
Ġdiscomfort
ĠReporter
Ġincarceration
Ġamen
ĠTSA
ĠHarold
idelity
Ġskeleton
Regardless
Ġimpeachment
ĠPodesta
Ġlure
Ġessays
dain
Ġallerg
Ġnephew
ĠJoan
utory
âƗ
ĠExtra
centric
ĠFlore
Bad
Ġhypocrisy
Ġdrift
ãƁƌ
stant
eworthy
Ġsou
Ġexecuting
ISIS
Ġspecs
ĠTechnical
ĠMohammad
ĠÐ´
Ġzip
Ġincidence
Ġequals
ĠStur
ohan
Ġburgl
Ġ1946
Ġseaf
Ġcove
ĠEz
Å«
emon
Ġsynthes
ĠDuc
Ġpharmac
Ġworkload
border
Ġmisery
ĠChristine
Ġbloom
ĠPopular
Ġspeculated
Ġconfessed
character
ikers
LAY
ĠRevolutionary
HH
Ġpert
Ġpilgr
Ġinjunction
Ġhalluc
Ġelic
Ġtissues
actly
Ġgraffiti
ĠCaucus
Ġrainfall
Ten
Ġtestosterone
Ġprovocative
Ġdecreases
ĠNicole
ÏƄ
Ġnud
gressive
Ġwast
ĠShore
ĠSebastian
ĠRole
Canadian
ĠColbert
ĠEthics
ĠListen
issue
anye
ĠMulti
Ġtotals
ĠMarathon
ĠMTV
ĠComput
Ġxen
Ġsituated
ooter
Ġprepares
Ġdecomp
ĠTeen
Ġbigotry
ĠCarp
Ġrailroad
Ġcampaigned
Ġdevote
justed
Ġinflammation
Ġsyrup
uously
ONG
Ġcollusion
dan
Ġruler
ĠPedro
Wait
Ġboarding
Ġshining
Ġinvaded
teenth
Ġtendencies
esque
Ġpuzzles
ĠDurant
threatening
ĠBlocked
ĠFuller
ĠAmnesty
ĠRecent
ubarak
Ġbaked
oya
ĠStrategic
NF
GT
atz
ĠPatriot
capital
Ġintervals
ĠApplication
Ġstain
Tit
Ġunaff
ĠMAN
ĠThing
ĠND
WC
Ġnotions
ĠDEA
ĠFactory
Ġperil
ĠNR
global
Ġtabs
Stream
Ġschizophrenia
107
Ġsmash
Ġdictate
Ġnewborn
ĠDragons
ritional
ktop
Ġvillagers
ĠZhang
aucas
Ġtheoretically
Ġbaff
ĠVit
ĠPoor
Williams
Ġkings
Base
Ġprolific
Ġboil
Ġreplay
Ġpreceding
ĠArist
raine
ĠHeb
ĠJab
ĠButter
utterstock
tim
Ġfilib
ĠSize
won
Ġspecialty
ĠFlyers
hetics
Ġconflicting
ĠSaid
ĠDHS
Ġquir
ĠTHC
ĠPretty
ousse
ĠSevent
ĠMechan
github
Ġoutwe
spot
hardt
irling
Ġtoughest
Ġsalmon
Ġrapp
Ġpairing
ĠLeeds
ĠAudi
money
Ġcounters
button
ĠArchives
Ġ230
ĠdÃ©
taking
Ġprefers
ĠPitt
Ġprow
ĠJas
notes
ĠUAE
ĠBug
aic
Ġ-->
usa
Ġbrake
Know
ĠVander
ĠInfo
Security
Going
ĠWitch
ĠPatterson
Ġstrat
Nevertheless
Ġinexpensive
east
Ġneighbouring
ĠVoy
OLD
Ġsurrog
ĠNotice
ĠZika
ĠBulgar
Ġyearly
Ġlocking
Ġinvasive
Ġsmiles
raining
ĠLamar
Ùƈ
1999
Ġfills
ĠEpic
Ġplac
Ġwhip
Ġexpelled
Ġclay
ĠLieutenant
Ġexplode
Ġurges
Ġ109
France
Ġplight
those
enh
135
Ġsimulations
Ġrotating
ĠÃ¢
Ġinsiders
ĠCalvin
ĠLicense
cats
Ġemission
ĠIndonesian
Ġrabbit
Ġgigantic
ĠMelissa
ĠFeatures
Works
Germany
Ġrestrictive
Ġadminister
ĠBradford
Ġpasser
ĠAid
Ġconfigure
Ġexplores
ĠStam
hibition
Ġsteer
Ġmailing
beck
Ġvocabulary
Ġcheat
ĠSara
ĠGods
ĠLun
ivor
crime
Ġappend
ĠLac
ICA
ĠXia
Ġatom
ĠCuomo
Ġmas
Ġguessing
ĠRash
ĠHoney
eus
ĠMyan
Ġuniversally
Ġinstallations
Ġpacking
ĠGujarat
Ġcues
ĠWiFi
ĠWhole
Ġglam
ĠGrove
ĠChang
ĠAvailable
Ġimperfect
Mil
Ġdeport
ymes
hawks
Ġscorer
Ġnowadays
Ġcholesterol
Ġgrammar
Ġalerted
Ġcondemnation
Ġamazed
camera
Senator
Ġaccumulation
boat
Ġvaccination
Ġimpaired
compl
Ġpersona
ĠIssue
Carl
Ġlifes
Ġhottest
ĠBillboard
gering
ĠGerald
Fast
ketch
System
Ã±a
Ġhates
Major
cp
Ġcommercials
Ġapplause
ĠFitzgerald
awk
Ġcelebrates
ĠJohann
Ġdevelopmental
.*
Ġposture
Ġdefenseman
Ġlectures
ĠChavez
Ġratios
Ġbrink
Ġpolitic
Ġawe
IGN
Ġcommunism
Ġdisproportionately
Ġtherm
Ġsalv
ochond
Ġlawful
atta
Ġjihadists
Ġexpire
java
ĠBaylor
Ġrituals
duty
ĠNom
rentice
Ġsmuggling
ĠSolutions
Ġcrisp
swer
William
Ġdictionary
rendered
nton
TI
Ġsubsidy
Ġdisturbed
Ġ/*
Ġlev
Ġinsulting
ĠUE
ĠNASCAR
ĠKeystone
ĠGuate
Ġdescendants
ĠWyn
ĠSoros
Ġremembering
ĠChapman
Ġundermining
Ġrav
Ġcoached
ĠDeV
ĠWong
ctica
ĠSettings
ĠMarijuana
Senate
ĠMyanmar
Government
ĠDocument
ĠLibertarian
gard
ĠGamer
Ġchilling
ĠCoul
PO
women
Ġoils
Ġinfectious
ocating
Ġfox
Ġexpenditures
Ġinsurgents
Priv
Ġglowing
ĠTwilight
Ġrumored
ĠLindsey
Ġfoam
Ġhormones
icz
chewan
avier
Ġexperimenting
ĠWash
Ġspecification
Ġdiscriminatory
ĠNicolas
112
Ġairing
manned
Ġpractitioners
ĠHos
Ġconstructive
Ro
ĠLB
ĠPhilippine
ĠOrigin
Coll
Ġclergy
ĠSheikh
raits
kick
fell
ĠWAS
Ġtraumatic
Ġimpuls
ĠStephanie
Ġfamed
odus
Ġmotors
Ġextinct
ailure
Originally
extreme
Ġtranscend
Ġslew
Ġbapt
Ġ135
Cost
ĠShir
berries
Ġdefinite
Â½
Case
Ġdecreasing
Ġfriction
ĠDisplay
Similarly
ĠRi
Comment
Ġconfigured
ĠWrite
ĠZionist
liable
Size
uristic
enary
Ġhandsome
Ġprose
ĠResponse
Ġpatriot
Ġdynasty
Ġcemetery
Ġrests
ĠFukushima
Ġ):
Taking
!),
ĠMental
ĠComments
ifts
Ġpeas
ĠPizza
Ġpetty
ĠCain
ĠWid
Ġpolished
ĠRid
ignant
Ġmocked
ĠPharm
Ġmunicipalities
Ġexhibited
Stand
ĠCed
Ġnicotine
ĠStrat
ĠLeslie
ĠACA
fat
Ġconfess
ARS
Ġori
ovsky
ĠCopenhagen
Ġtsunami
Ġconsulted
Ġfortunes
ĠOpposition
ĠEld
Ġunreasonable
Ġjudiciary
ĠFreddie
Ġtipped
ĠWILL
ĠUnderground
ĠStandards
amoto
ĠSolomon
Ġtract
Ġrestraint
rÃ©
Ġsulf
Ġoutdoors
mson
bc
Ts
Ġdwarf
Ġhistories
Ġcontradiction
ĠSSD
Ġinsign
ĠTyson
ivities
Ġreversal
ĠPsychology
ĠBee
Ġsandwic
Ġphenomenal
Ġtrunk
Ġbubbles
txt
ourcing
ivery
Ġcybersecurity
ĠIPA
Eff
ĠAW
Ġfaded
upert
ĠHaskell
ĠHello
Ġreconsider
regulated
allic
Ġdispatched
ea
108
Ġscheduling
Ġlamp
Ġinterpretations
aude
short
Luc
vidia
idas
Pack
Ġemploying
ĠTeams
ĠOsama
Nov
Ġ1952
Ġtearing
finals
obil
Ġplugins
Palest
Ġcherry
luent
ĠFraser
ĠConstruction
ãƃ³
broken
ĠCyprus
ĠOpera
ĠBenedict
athing
Ġmonuments
ĠTrend
Ġinstincts
Ġprincess
Ġcommemor
isy
iovascular
ĠTrinity
ISH
Ġmushrooms
ĠObserver
Ġgeometry
ĠCharacter
Ġpains
ĠBrigade
Ġ1500
ĠRum
Ġdistributing
.âƀƙâƀƙ
Ġespionage
Econom
Ġrents
Ġraided
Earth
Ġmillennials
Ġgrandparents
Ġgeography
Ġboosting
ĠDogs
ĠAstros
Ġsarc
Ġpins
ĠNissan
Ġpartnered
ĠShortly
ĠAssass
Ġpenetration
anamo
Ġfulfilling
mediately
Ġoutsiders
Ġblatant
Ġunspe
Ġshale
Ġ119
needed
essim
Original
EMA
Ġcollectors
wagen
Matthew
Ġpassages
ĠNonetheless
enton
critical
ambo
ĠEVER
ALLY
Ġmandated
Ġkindness
ĠMalt
management
Ġslash
Ġfeminine
Ġdragging
ĠValentine
ĠSke
ĠAns
anan
cuts
Ġeclipse
Ġconcussion
kt
corn
ĠGru
maid
Ġsupplements
Ġobstruction
Ġoptimization
ĠSharks
ril
Ġdiscourage
ĠDetective
Pop
Ġstartling
azingly
ĠMK
ĠUnblock
ĠInnovation
Ġsinking
ĠUnknown
ĠRochester
Ġprescrib
ĠSharp
hma
ĠGC
Ġlongstanding
tlement
nn
Ġracially
Ġstrengthened
Ġhomework
ĠFranco
default
Ġregulating
Ġclarified
ĠBend
ÅƂ
ivist
Ġfronts
Ġsacked
Ġreadings
Ġinmate
ĠInterestingly
ĠFrontier
Ġhears
Ġecosystems
Ġconcurrent
ĠAsked
ĠMiguel
Ġfinanced
ĠCV
uddle
Ġmanifesto
Ġsorted
Ġexcellence
Ġnap
ĠArchive
Ġiv
ranked
andro
.âƀƔ
Ġrighteous
sten
Ġgunfire
Ġethic
ornings
Flor
ipal
ilot
aja
Ġstatues
Ġmaritime
laughs
East
eon
Ġsubset
Ġguiding
ĠKirby
Ġheavyweight
Ġgenres
iola
OG
Ġoptimized
ĠJavascript
Ġcompeted
ĠSchwar
ucing
iating
hene
Ġ1933
patrick
Ġmaternal
Ġblues
ĠYug
ĠMotorola
...]
ĠExpect
Previous
Ġfrontier
ĠHers
mot
Ġjewelry
Ġfatally
ĠDeclaration
zero
osophy
Ġlegends
Ġyouths
ĠLords
Ġounce
reath
Ġindications
Ġoutgoing
Ġchased
ĠAviation
wy
ĠArticles
Ġgateway
Ġfulfilled
Ġencl
lide
Ġhamm
ĠSpotify
achine
ĠFrances
Ġethnicity
share
ammy
Ġdwind
Ġarcade
vine
ĠOdd
Ġproceeding
ĠBaron
DM
herty
Ġinvoked
Ġinflammatory
established
activity
Ġrunway
umbles
ldom
ĠAstron
NR
Ġcartoons
ĠJohnston
ako
film
Block
ĠChicken
Ġpesticides
Ġtrailing
Ġrealizes
Ġbully
Judge
ieri
UMP
aida
Ġspun
Ġadam
ĠEy
Ġopenness
ĠPP
ĠArtist
ĠAllied
ĠLuk
ĠJacobs
ysics
Ġdeploying
Ġpumping
ĠCorrect
psych
Ġworkshops
Ġunleashed
ĠPublishing
Ġmisrepresent
Ġpeninsula
ĠIsn
Ġunavailable
Ġimplication
Ġexploiting
ĠPayPal
ĠNer
manship
hea
Ġobliged
lists
Ġoverride
ĠTank
ceptive
Ġfeder
Breaking
Ġorganizational
ĠAnyway
Ġsunk
ĠChart
Ġdefects
ĠCustomer
Ġ256
sted
Ġtac
Ġrocky
ĠPrevious
Too
:[
Ġnarciss
Ġcohort
Ġastronomers
Ġpraying
Ġblur
ĠMonroe
ĠIbrahim
Ġunexpectedly
ovable
Ġmoisture
Ġburnt
Ġabruptly
Ġoverseeing
Ġmund
Ġknives
ograms
ĠLok
Ġholdings
ĠAfricans
ĠGren
send
ĠDoom
Ġparcel
Ġchord
inges
ĠFry
Ġpeaks
Ġframeworks
Ġobese
between
Ġparenting
Ġferry
enf
Ġblink
ĠVPN
Ġmodular
Ġhesitate
ĠVon
utsche
Ġyielded
Happy
Ġchallenger
Ġbiom
ĠShannon
Prop
ĠArms
ĠConnor
Ġworm
Ġunins
Ohio
igated
Ġsplitting
Ġvibe
Ġeve
ĠOttoman
Ġtermination
Ġadmissions
Ġvisuals
Ġassemble
ĠScout
rag
olden
Bon
ANC
Ġwishing
ĠKris
stown
TF
ĠInto
Ġphilosophers
ĠAthletic
ĠStockholm
ĠCycling
Ġchassis
ĠSolo
Ġnotoriously
Clearly
ĠJanet
ĠCoc
Ġtore
Ġnotify
Ġsummoned
mort
114
Ġplanting
Ġlabeling
ĠWATCHED
ĠHil
kish
Ġsnipp
Ra
ossip
mentia
ifty
Ġillumin
Action
Rest
Ġhiking
attled
Ġspontaneous
Ġpenny
ĠLis
usually
Ġretali
Ġkidding
Ġenergetic
Ġcav
visors
evil
Ġwithstand
Ġgrandchildren
Ġconve
Ġensl
Ġdeclares
Ġceremonies
Ġmicrow
Ġ((
ucking
ANN
Ġbroadcasts
pires
Jewish
"?
Ġslogans
Ġbacterial
Ġflipped
ĠAber
ĠKaepernick
åƅ
lated
eno
ĠANY
aciÃ³n
Ġwandering
ĠCommercial
Ġhandler
tree
Ġ175
Ġunin
Ġgenerators
Ġcontraception
Ġundermined
Ġhomemade
usch
smith
Ġsilicon
Ġcosm
Ġmods
got
account
Ġcentralized
Ġblonde
Ġdemolition
ĠAlbum
ÐµÑƂ
Ġpervasive
Ġfixture
ĠOpportun
regulation
Ġslick
ĠGIF
Ġbeverage
hyd
Eventually
Ġtriggering
Ġmotivations
Ġexcluding
ĠKol
Ġescalation
cool
ĠBurger
Ġstranded
utz
Ġsocks
ĠGoldberg
Ġwizard
Ġheap
ĠRegist
ogo
itious
Uk
olicy
array
loss
Mrs
Content
Ġtomatoes
Ġlent
uckland
Lim
Ġretaining
Ġprogressed
175
ĠSally
ĠKabul
240
ĠSword
ĠAurora
Ġbids
ĠSecurities
luence
Ġfilings
ĠAlv
ĠFields
ĠBath
ximately
Ġsprawling
Ġprocedural
Ġevid
Ġdental
ĠSark
ĠMacron
png
Ġorthodox
Ġpas
ĠÂƖ
recogn
ĠPenguins
ÑƎ
Van
ĠScand
ĠDraw
Ġobsolete
Ġdissatisf
/-
ĠHiro
Ġmetropolitan
ĠNigel
ĠChi
getown
inav
Ġsatir
ĠTorres
ĠOption
Ġrespectable
Ġlosers
ĠWool
areth
ĠHannity
Ġbureaucratic
ĠMHz
Ġblockade
Ġ1914
icially
Ġdomest
Ġsideline
Ġsquares
Ġmisguided
ĠCec
Ġsodium
Ġdeclar
ĠSantorum
oos
Ġpioneer
Via
ĠNewark
ĠHorizon
json
Sean
ENS
Ġresisting
Ġconquer
ĠDas
agent
ĠPure
ĠPixel
Scroll
Ġdurable
udget
Ġbush
chet
Ġglue
Ġhighways
Ġdataset
ĠLI
google
digit
Ġresear
ĠMozilla
Ġrejects
ĠRutgers
ocalyptic
Ġaisle
NI
Ġstatutory
Ġlord
Ġcancellation
Ġmaturity
ĠÎ±
Ġcorro
Ġcaffeine
------------
ĠGuantanamo
ĠSteele
ĠPerth
ĠLucy
Ġrestricting
Ġsynthesis
ĠMaduro
onial
rar
omorph
ĠDew
Ġimaginary
ĠBlacks
Ġawait
ĠAAA
ĠRandom
ĠHarb
Ġmetabolic
atible
avorite
Ġundec
Ġbalances
ussy
goers
Ġmonkeys
Ġvanished
Ġtestament
Ġassim
ĠLaws
RY
Ġassisting
Ġrespiratory
iago
Sex
Ġcubic
Ġseating
Ġleisure
ĠAdvisory
Ġcheering
Ġalphabet
ÏƁ
Ġsigh
Ġlabs
Ġimpover
forth
chens
Ġsmokers
ĠVolks
ĠRescue
Ġarrows
Error
ĠPip
Ġutilizing
Ġstressful
Ġcancers
eight
Ġmagnificent
nothing
Ġvisions
Thursday
Ġdiscarded
ĠPTSD
Ġprevailing
Ġarmored
Ġconsultants
tab
ongevity
mith
isine
Ġsinister
Ġrumours
Ġdemographics
ibo
Message
Ġunfor
ĠPodcast
Monday
Ġversa
Ġrewrite
ĠNI
ĠHang
ĠMoz
Ġthieves
Ġceased
ĠFusion
Sat
Ġobjected
ĠFah
Gate
ĠFit
almost
clair
Ġfuzz
Ġstandardized
Ġliking
atts
Ġlaundry
Ġelectrons
Ġcraz
ĠZuckerberg
Ġabusing
ĠJoey
owship
Justice
Ġinsistence
Ġcircuits
ĠFul
ĠAgg
ruce
really
Ġexpands
Ġlivelihood
udo
racuse
ĠFi
ĠBoyd
ĠQuestions
Ġprolet
Ġarbitration
iba
Ġimpressions
Ġ[âƀ¦]
operation
Ġ1951
Ġtelecommunications
Ġautobi
ordered
drive
veillance
Ġscaled
essment
Ġneoliberal
Ġjudgments
ĠTwitch
ĠPool
irrel
Friend
Ġreliably
Ġadhere
Ġacoustic
ĠWeber
Ġaided
ĠSina
ĠCreated
Ġ1918
better
################
ĠAges
pex
Research
CLOSE
Ġrehears
Ġpumped
ĠFE
ĠDaniels
Ġ1938
ĠGreene
ocre
Ġprominence
Ġdeception
ĠMubarak
Ġstimulate
Ġswinging
ĠSubject
ĠRiot
Ġinconsist
ĠNu
Ġtan
ĠSadly
Ġfearful
jad
ĠAntarctica
ronting
Ġcondemning
odi
model
ĠMonitor
Organ
Ġdiffers
Ġsacrifices
ĠPhysics
Ġgn
ĠWhenever
onel
Ġgraduating
Ġteaspoon
ĠMarty
ĠMarriage
ĠMau
ĠHoffman
ĠCompl
Ġprovoked
yg
Ġgast
Comments
ymph
cloud
blems
Ġjihadist
ĠAnaheim
rafted
FE
ĠAlleg
gic
Ġdisrupted
ĠACT
Ġrouter
ĠWolver
Ġnause
Ġdisgrace
Ġtextures
ĠVII
ilibrium
agnetic
ĠStatus
Ġterminated
ĠROM
Ġelevation
ĠLinks
ĠHannah
Ġpacket
dates
Ġpirate
Ġbullpen
letion
Ġconfession
ishi
Stay
Ġoriented
Ġnostalgia
Ġhurry
Ġcompute
Ġbolt
Shortly
Ġtheatrical
Ġstared
ĠSchwartz
ĠFinnish
git
Ġcollaborate
ĠTonight
ĠSou
ĠManitoba
ĠSuff
ĠIX
Ġ114
Ã¦
Ġsubstit
ĠHistorical
ĠHash
Ġhefty
Ġconservatism
ĠCritics
Ġunsett
Ġresumed
Money
ĠRNA
Ġskyrock
Ġpirates
ĠGust
Ġpossesses
ĠWikileaks
Ġpresumed
Ġmelted
Ġburdens
AMA
Ġwheelchair
Ġdownturn
Ġ123
Ġtrolls
Ġein
Access
Ð¾Ð»
angling
Ġendurance
Fre
Ġingen
Ġcapped
ĠElections
fashioned
Ġrewritten
Ġlays
Ġoversees
ĠRan
Ġmimic
168
ĠJP
Ġostensibly
Ġtempted
adan
Ġrevol
inness
Japanese
ĠSz
Ġconfinement
ĠBU
ĠRaq
Ã´
orst
Low
Ġpunches
Ġscouts
Ġmog
Written
Ġunfairly
Ġkeyword
perfect
percent
laughter
Ġwaving
Ġchromos
ĠMickey
ĠDIY
ĠGig
yrr
ĠOrioles
ĠLimb
Ġmonst
Ġthigh
Ġinsults
industrial
ĠVC
ffield
ĠMH
ĠIDF
inion
ĠArray
ĠYORK
ĠWillie
ĠRanch
ĠKazakh
Small
Actually
Ġfolded
113
ĠDol
Ġgunshot
ĠSwe
owler
Ġoutward
Ġentitlement
Neil
Ġtones
Ġviolently
Ġrotate
Ġharmless
KA
erem
Ġlegalized
Ġbanana
ĠUganda
OTH
Ġace
Ġguessed
ĠBundes
utable
Ġextr
Ġrecap
Ġdar
ĠBooker
Ġgravitational
Ġdrank
ĠReason
dead
ĠPull
ĠKnox
Turkey
Ġpipelines
Ġthinkers
Ġexert
IAN
Ġtermed
Ġmetabolism
Ġfunnel
vd
jet
Ġtransferring
Ġsalvation
ĠSaskatchewan
ĠHardy
ĠArg
sold
agi
Ġcommanding
ĠTut
elin
FM
Dead
Ġmutually
ĠØ§ÙƄ
Ġjointly
Ġerosion
Ð»Ð¸
statement
idis
Ġexercising
ĠIranians
Late
ĠCory
Ġunused
Ġspies
Ġpoles
Ġboast
Pakistan
andra
Ġpne
ĠAch
ĠSyracuse
INS
Ġamp
position
Ġteamed
Ġclassics
ĠPom
ĠDeveloper
outheastern
ĠDiana
ĠWorlds
ĠPerkins
255
Ġrigged
Ġfiltering
series
117
ĠLiz
urations
Ġresentment
raven
Ġbishops
Eight
Ġà¤
Ġwarmth
Ġescaping
Ġantiqu
127
Ġbegging
ĠCroatia
Ġmarketed
Ġbets
ĠSue
ĠMahar
Ġundertake
Ġmiscon
find
ĠPont
Ġvein
Ġlen
ĠLiberation
Description
ĠProperty
innamon
BU
ĠGian
asses
Ġspelling
Ġguitarist
cz
ĠLDS
Ã©n
Tell
ĠRomans
ĠHours
Ġdebating
ĠHerbert
ĠBoulder
apple
Ġarous
ĠReader
Ġbarbar
busters
ATT
Rod
ĠLap
ixtures
119
Ġsands
Ġ190
kan
Lu
Ġwidow
ĠLif
lord
Ġpeaked
ĠProblem
Ġspeculative
cause
itimate
ĠBalk
EV
ĠClement
imi
Quick
Ġyen
saving
ahon
ĠWelcome
ĠSouthampton
linked
belie
à²
ĠÐ½Ð°
Ġacquaint
Ġsq
Ġmeltdown
Ġreservation
Ġmarginalized
Ġ3000
Ġcumulative
ĠContract
åƏ
ĠSinger
ĠAHL
haus
ĠAzerbai
Ġsemif
Ġfrightened
Ġinspectors
Ġthrill
Ġdiscounts
Ġcockpit
ĠRainbow
Ġfals
Ġboosted
Ġillum
ĠMarqu
fan
Ġseparating
ĠSlow
ĠDear
agher
\"
Ġdebunk
ienced
Ġoverturn
Ġcontexts
650
Park
Ġtransitions
Ġdistorted
ĠRivera
ĠPOLIT
FX
Ġoverdose
ĠMinutes
Ġtsp
ĠFernando
Ġeup
ĠRafael
ppe
olls
Ġpledges
Ġensured
ĠEmmy
ozy
Ġpackaged
ĠMultiple
ĠDriver
Ġscept
ennial
Ġdepicts
ĠOT
lower
next
ĠFAA
Ġhazardous
Ġamnesty
ĠJal
Ġpony
Ġclicks
ĠOrt
Ġsocket
Ġexecutions
ĠRein
thinking
loc
Ġencouragement
ayette
Ġoutlines
ĠJaguars
Ġdreamed
Ġthereof
Ġchiefs
Ġlingering
Ġcoral
ĠRosa
Ġhallway
Ġusable
Ġshaft
Ġdaunting
ĠKun
unged
Ġshoppers
hift
rase
Ġblockbuster
ĠCBD
Ġnotebook
ĠPlaying
Model
Ġenvisioned
Ġbitch
jack
Ġfoes
Ñƈ
Element
Ġundertaking
ĠThreat
ĠBeauty
Ġvariability
Ġelusive
Ġoverweight
Ġalliances
ĠManila
ĠGW
ĠBie
ships
Ġslices
Ġpossessing
Ġurl
lications
Ġcinematic
Ġprud
omez
Ġsniff
ĠKC
Ġdominating
ĠPhantom
Ġanomal
gam
DL
Èƙ
tre
Ġoperative
probably
Ġprops
ĠDort
ĠBlockchain
ĠClintons
missible
ĠWriter
ĠHouth
ĠUncle
ĠAzure
ĠEdgar
ãƁ¾
Ġloops
ĠRequ
ĠBolt
Ġearthquakes
ĠIslamists
Ġ1936
clamation
Ġrallied
ĠInstitution
exe
ĠAdmiral
enos
Ġtiger
furt
RB
Phones
ĠNeal
Ġautomobile
sal
Ġmelee
lb
Ġbooming
walks
Ġdealings
ĠRepe
ĠPBS
wig
Ġunhealthy
Ġcopying
ORN
Ġdistributions
ĠRouge
ĠOre
Science
Ġscrutin
Mid
220
Ġthickness
Ġsubstantive
Ġlearnt
ibe
Ġunintended
price
ERY
Ġsailors
Ġharmed
Ġguild
ĠFlying
ĠBronx
Ġsurpassed
ĠFemin
ĠHull
Ġturf
Ġbrightness
Ġnerves
Tuesday
Ġlobbyist
ĠCavaliers
usr
atorium
whether
Ġpunching
analysis
Ġprophet
Ġore
ifi
Ġexceeds
ĠBarcl
lis
Ġdiscriminate
Ġtread
Ġfa
Ġredevelop
Ġparody
Ġcardiovascular
ĠCody
ultan
electric
ĠBulgaria
andum
Ġirres
Ø§Ø
Ġprofessionally
Ġcoordinates
Ġbiod
uding
ĠChanges
nation
ĠDodd
âƀ¦"
Sir
Ġcaller
ĠAbove
urai
pent
Ġcaptive
ĠWhereas
ĠChrys
Ġgentleman
Ġtying
Ġgamer
ĠMyth
ĠFemale
Ġasym
carbon
ĠTamil
ĠDoing
999
Ġfocal
HI
Charles
Ġferv
Ġamounted
ĠHollande
ĠDrum
Ġfinalized
ĠHammer
imon
Comb
ĠKeynes
ĠHoliday
mage
ĠRanger
ĠNem
âƀƜ[
Ð¾Ð¼
Ġnewcomers
ĠCaesar
Ġpant
Ġgenetics
cip
Had
Ġsetback
Ġresurg
Ġreapp
Ġassignments
Ġtoes
Ġborrowers
Ġzoning
Ġextras
ĠRena
ĠMinor
umbo
rand
Ġensuing
ĠProtocol
rugu
Times
ĠKO
Ġshields
AFTA
Ġsemester
ovakia
Ġintercepted
Ġegreg
Ġsubpoena
Ġcorrectness
Ġpeek
Ġlieutenant
atsu
Land
Ġcorpse
ossier
Ġcatcher
Ġ:=
ĠIGN
Ġmour
Ġquoting
Ġphysicist
Ġdisciplined
icals
Ġplaintiff
Ġcush
Ġannounces
tml
Ġmultitude
Ġnails
rolls
á¹
Born
Ġnationalists
Recent
Manager
Ġoutsk
Ġcries
Ġcomposite
Tony
Ġcommanded
ĠDavidson
demand
ãƁƋ
Ġswings
ĠPhysical
Ġendeavor
hin
Ġdisgust
ĠÃ®n
Ger
Ġcorrections
ĠTow
oks
Ġobey
Ġfetch
ĠOC
ĠMartha
ĠLomb
ĠChandler
Ġautomotive
scenes
Ġtweaks
Ġrays
Ġdumping
figure
Incre
Ġlimb
Ġrover
ÏƂ
Ġpointless
Ġbureaucrats
ĠRoberto
inh
Ġseldom
Ġscrim
thought
Ġturbines
ĠSentinel
seven
ĠWendy
ĠNapole
ĠCaucas
aunted
Ġhomelessness
Ġfascism
Ġcollects
Ġmish
Ġstaging
ĠScalia
ourced
ĠTB
veyard
Ġsculpture
Ġchanting
ĠWhites
ĠJennings
ĠAAP
Ġerected
ƙƂ
ynchron
etsk
ĠHunting
ĠDepending
ricia
gradation
Coun
Soon
ĠOrganisation
ĠAboriginal
)âƀƔ
Ġaudition
Ġattractions
ENCE
ocese
Ġpes
ĠPill
Ġwiret
Ġpessim
Ġcurves
ĠWeaver
ĠNVIDIA
Ð½Ð¸
ordinate
Ġliberalism
Ġhavoc
ĠWS
ĠHQ
ĠCave
ichever
ĠICO
Abs
';
Ġcoward
bid
Method
Ġweekday
Search
pub
Ġupgrading
Ġtomato
Ġcollateral
Ġchore
lab
ĠDOM
holes
Ġdaylight
ĠInstall
ĠRd
Give
Ġthriller
yrrha
Ġreelection
Ġorn
Ġfatty
emb
Write
Ġtolerated
Ġshowdown
Sep
Ġambiguous
witz
Ġpresentations
Ġmotions
Ġbreakout
ĠSIM
raper
eteenth
Ġdevised
Ġaunt
Cross
Ġoutsider
ĠHank
Ġstandalone
Ġoft
pract
Sher
Ġchin
Ġsupremacist
Ġinterchange
ĠMcLaren
ĠDion
Ġreflex
ĠLeadership
Ġirrig
Steven
Ġmornings
Ġimpulse
Ġoutfits
Ġharmon
tails
Ġsunny
annah
rehens
Ġgreatness
çƚ
ĠRestaurant
Ġtweak
fy
Ġcontinental
ĠThatcher
ĠVIP
ĠFalse
positive
ĠTunisia
ĠSpo
ĠCEOs
Ġstare
ĠIvanka
ĠEstate
================================
Ġblitz
ĠCAR
ĠGuer
Ġpreceded
Ġpolish
ÙƇ
Ġrenewables
ĠSax
ĠRicky
AI
Ġreaff
Ġbishop
GHz
ĠKant
Ġspreads
Ġimperialism
ĠEffects
ĠCherry
comment
oby
Ġinvites
shots
protected
Ġly
ĠSims
iq
FK
Ġoutskirts
ĠFlip
Ġdecree
ĠAddress
reaching
Ġrainbow
Ġlatency
Ġexcel
ĠRoma
ĠCage
Ġimplicated
ĠPie
ĠGund
Ġtuning
Ġresilience
Ġintellectuals
ĠOrb
dar
walker
Ġprope
Ġdinosaur
Ġlineman
Ġexams
ĠRate
Ġvind
Ġordeal
Sarah
OTO
Ġpoke
ĠPunjab
tlet
Ġgems
Ġstandings
wyn
Ġnude
ĠRaqqa
ĠNX
ĠCind
ĠBri
Ġvigilant
Ġsimilarity
ĠStefan
ĠShap
Ġ!=
1980
âƀ¦âƀ¦âƀ¦âƀ¦
appa
Ġdas
Ġmysteries
ĠSays
ĠHuckabee
stead
cation
Ġimplementations
ĠGain
Ġscreamed
ĠTools
worm
leader
cutting
Ġsimplified
Ġrepresentations
Ġassertions
ĠConsidering
ĠCanadiens
Ġlegalize
ĠSed
Activity
Ġpinch
orkshire
irez
Ġindependents
Ġreneg
ĠBenef
ĠTomorrow
ĠIPCC
letcher
Ġnood
ERN
ench
dark
athering
ĠAuckland
Ġsteals
ĠDwight
Someone
Master
Ġgroundbreaking
ĠTurks
ĠLoren
ursor
ascal
Way
ĠDoctors
velength
Ġmates
Ġpressured
Ġrang
ĠLah
ĠSpringfield
tro
ĠOilers
Change
ĠArlington
Ġentrenched
Ġblades
Ġbounty
Ġoscill
ĠKatrina
ĠGol
ĠMcGregor
Ġsupplying
ĠEar
ĠActor
question
Ġtempo
ĠKra
Ġowes
ĠDonovan
input
Ġrevived
Ġhaunted
ãƅ
$$
tale
Ġtherapist
Ġrecreation
Ġdrunken
Ġdissolved
ĠYel
Ġgallon
Ġdeprived
estinal
Ġquantitative
Ġpou
ĠBarr
wright
ĠLone
YS
Ġsuperiority
Common
Apparently
lead
ĠBullet
Ġlithium
ĠFest
ĠFI
ĠCousins
facing
umbered
riber
Coming
ĠGos
ĠBasketball
Ġfootsteps
Ġdiary
umat
amental
Ġobliv
ĠResolution
ĠMcGu
occupied
ĠTaj
ĠHB
init
Ġnoteworthy
Ġbleak
num
Labour
Ġcultivation
Need
comings
abortion
Ġzu
ĠJung
Ġtroll
bt
Ġjoints
ĠCampus
Family
BSD
Ġstimuli
Jonathan
Ġvariance
malink
geries
EXT
Ġmuseums
Ġjurors
ĠMorocco
Iraq
Ġparaly
ĠWizard
ĠRifle
Ġinheritance
Ġfinite
lane
Ġtilt
Ġemperor
Ġcalcium
Ġdismay
ĠShares
Ali
ĠTrou
Ġquarterly
ĠChaos
Ġvi
Ġpurse
Ġyoungsters
Ġhitters
Ġ2050
Ġsaus
ĠCarbon
Ġescalating
Ġclassmates
Ġstockp
ĠNetworks
Ġsunset
Ġenlarge
Ġannoyed
ĠSharon
ĠMT
Ġcomprehend
ĠSuns
ĠHaley
Ġredesign
Ġbrighter
athe
acting
Ġshaken
ĠDurham
Ġants
Ġalumni
imson
Ġsuccumb
ĠHear
Ġdrafts
Ġscrat
Ġbiases
rovers
Ġsticky
Ġethanol
ĠMali
borg
IGH
Ġparish
ĠGospel
profits
md
Ġtasting
Ġcongregation
ĠAlbany
defined
Ġreminding
âƈ
Ġimperson
Ġetern
Ġcleanup
Advertising
Ġcapsule
ĠFilms
ĠIslanders
ĠBeverly
Democratic
ĠTate
ĠKanye
ĠBike
SAN
Ġneon
Ġencoding
vez
Ġenjoyment
Ġhurdles
Ġtextbook
Ġhid
Ġdishonest
Ġarmour
ĠSketch
ĠNewsletter
ĠNets
Ġadmired
Ġaccomplishment
ĠFut
Ġwoes
Ġorganism
ĠNielsen
ĠKes
wik
enko
Ġmodeled
ĠMuk
ĠInterstate
Ġstabbing
ĠAbsolutely
created
Ġintimidating
Ġbarr
Ġisolate
Ġbetrayed
Ġpeanut
ĠRee
ride
Ġfloated
}{
Ġprecinct
ĠPhotoshop
ĠKaw
Ġrobber
Hot
Ġsoaring
ĠEarn
ogens
Report
Ġranch
Ġsailing
Ġcombust
ĠWo
Ġculturally
116
Ġinsurgency
ĠWeiner
Bank
maybe
Ġwicked
Ġempowered
ĠMaxwell
rots
Ġist
Ġinadvertently
ĠSaudis
Tra
select
)"
Ġinforming
ĠVaugh
âƂ¬âƄ¢
Ġepidem
Ġadvising
Ġsurrendered
ĠPG
ĠPier
iologist
Ġgeographical
Ġ113
Ġoccupying
ĠAthe
Ġherd
Ġglor
ĠSilk
ĠLego
ĠLevin
Anth
Ġfoil
ĠCruise
Tre
often
ECD
Ġcommute
Ġabolition
ĠStafford
ĠConsequently
mong
Ġsanctioned
Ġcreditors
ctory
anco
Ġdividends
Ġwre
Ġbriefed
ĠPrimary
Ġcrossover
ĠRooney
ackers
Ġperf
ĠGn
azers
Ġsuppressed
Ġsavvy
Ġcomrades
ĠGreenland
Ġdemolished
Ġbarn
idian
ĠSpeech
Introduction
Ġbooking
ĠGodd
contin
abouts
ĠWireless
anic
ĠSchedule
uggets
Ġwallets
Ġnutritional
ĠProvidence
unciation
riminal
ĠEvangel
ĠVive
design
ĠDL
mala
Ġshades
ĠNormal
ĠFT
ĠDeck
verages
ĠAside
ĠWrestling
Talk
Few
Ġsuicidal
Ġglaring
ĠFur
ku
Ġtemplates
Background
Ġwaiver
ĠHulk
Ġassistants
ĠWins
ä»
Ġsnapshot
Ġenlisted
ĠVista
Learn
Ġprominently
caps
Ġgor
Ġdialect
ĠTall
ĠSporting
ĠSchol
ĠBing
Ġprogrammed
urances
ĠEquality
Jac
Ġol
Nazi
Ġmediocre
Ġlore
avoid
Ġquint
hom
Hopefully
Ġexperimentation
posts
Ġidle
ĠPix
ĠCannabis
iets
Wednesday
118
Ġtighter
Ġfragment
welling
ĠMartian
Director
agar
ĠKathleen
fighting
Ġonboard
Ġchees
ĠLiberties
Ġinvoke
Ġ1937
edo
Ġonions
Ġechoes
Ġborough
Ġtempting
ĠChes
Ġparallels
ĠGeorgetown
Ġtents
ĠAmber
Guard
Ġbricks
ĠEden
Ġ))
uton
thread
Ġstandoff
umers
ordinarily
Ġloosely
irsty
amus
Ġcardboard
ovie
Ġsecretive
feeding
Ġassaulting
ĠResident
ĠMcKin
Aw
Ġrecess
ĠLSD
Ġscrewed
Ġdetract
Kat
Ġshipments
Ġasserts
ĠCardiff
ĠBub
draw
resistant
Ġconfronting
ĠRide
Ġvicinity
ocamp
BLE
ĠFunction
ushes
Techn
Ġgoddess
ĠPenny
elfare
bral
ĠUsed
ĠMeeting
Ġ116
Ġcryptocurrencies
Ġharbor
ĠPublished
Ġhi
Ġeats
Dar
Ġreplaces
cyclop
WAR
Ġdistrust
perties
anz
ĠAval
Ġprevail
Ġmosques
Ġdementia
itiveness
alities
Hit
Ġmonet
ĠHoover
ĠWellington
1998
Ġnumbered
Ġafforded
School
Ġresilient
images
ĠDunn
Ġwhistleblower
Ġdoom
Ġseism
Ġboiling
Ġzeal
Ġounces
Ġhay
ĠVul
ĠRNC
Å£
Found
Ġpops
ĠKnowledge
ĠPluto
imps
Ġlabelled
Ġadvancement
GEL
Ġsimulated
ĠSiber
Èƛ
ĠHamburg
clear
Ġhydra
ĠXen
ĠFol
perhaps
AH
Ġslightest
ĠThomson
Ġlongevity
Ġcontradictory
ĠOle
ĠJump
ĠFairfax
Ġtile
Ġherald
Ġabandoning
Food
Ġfury
ĠWolves
Ġhateful
Ġderivatives
blown
Ġverses
Ġtribunal
kef
Ġsubmitting
these
Ġplotting
Ġsnakes
igator
ĠDixon
Ġswords
Ġdaring
ĠShiite
Picture
Ġdischarged
Ġgoat
ĠSubaru
total
produced
ĠDru
Ġvirgin
Ġheadache
ravity
Ġanarchists
ĠWeapon
ugin
Hol
ĠClemson
apture
Ġul
Ġpinpoint
unky
Ġbrutally
ĠPearson
Ġplanners
Ġomin
Ġfascinated
ĠSuddenly
rans
checked
Ġqualifications
ĠTraffic
Ġprototypes
Ġparse
Ġcongreg
ĠSense
otally
Ġsubmarines
ĠRisk
Ġstickers
Ġspawned
Ġfactual
ÃƃÃƂÃƃÃƂÃƃÃƂÃƃÃƂÃƃÃƂÃƃÃƂÃƃÃƂÃƃÃƂÃƃÃƂÃƃÃƂÃƃÃƂÃƃÃƂÃƃÃƂÃƃÃƂÃƃÃƂÃƃÃƂ
Controller
Ġmitochond
Investigators
ĠJoker
ĠGoodman
Ġwitnessing
quist
Toronto
ICH
Ġbreaches
ĠKobe
Ġpeacefully
Ġalcoholic
----------------------------------------------------------------
Ġconverts
spir
meg
Pres
Ġleaned
Wood
ĠÐ¼
Ġelectr
ĠAlready
Ġcampaigners
Ġtariffs
Ġflourish
ĠGrade
Ġinteger
mode
Ġelectrom
Ġdepressing
rique
oooo
Ġlistener
Ġeasing
ĠOH
Ġinvari
Ġillustrations
ĠRenaissance
ĠWC
ĠTac
ĠAway
wp
ĠiPhones
ĠEyes
afety
ĠSpiel
Ġwraps
ĠDortmund
Ġresidency
ĠRamsey
agogue
Ġintensified
lus
Ġ650
Ġnominal
alla
Ġunderwear
Ġsymptom
Ġinterviewing
inition
129
ĠCald
ĠScha
ibi
Ġimmensely
ĠMiche
platform
Ġselections
Ġearns
rimp
Ġale
ĠAntarctic
udic
writers
eps
ĠFarage
Ġshores
ĠScandinav
:\
ĠRobot
ĠCNBC
waves
Ġ/>
Ġcommits
Ġoutp
Ġcatalyst
Example
Ġpurity
ĠHaram
Ġpunishing
Ġinception
train
Los
Ġarist
ĠAston
Ġgenital
ĠEthiopia
Ġtyranny
lene
Ġrestructuring
Ġdividing
Ġaddicted
ĠWide
toos
hetamine
ebus
birth
ĠDob
onnaissance
mostly
Ġbaseman
ĠChocolate
Ġforgiveness
ĠTreasure
Â¢
Ġcer
ĠApps
Cat
ĠAlternative
Ġunsc
Ġtwentieth
Ġhops
ĠGRE
much
Really
ĠYorkshire
Ġunravel
Ġtipping
Ġliquidity
ĠBes
ĠAbstract
tank
230
ĠMacBook
Ġrecognizable
Ġhierarch
Ġinefficient
ĠPhilly
Ġ117
intern
Ġhello
ĠGardens
ugger
Ġsupers
Ġportrayal
Ġcartel
ĠProtect
ĠMcCoy
Ġheel
Ġfatalities
ĠLCD
kil
olphin
olithic
ĠJS
Ġcircumstance
ajo
ĠRade
afa
Ġescalated
Ġsucked
Ġintricate
Ġskating
Ġclosures
Ġabd
ĠPatch
Ġsleeve
sever
Ġrant
ĠSheffield
smart
etus
ĠSoldier
ĠPepper
ĠDreams
Palestinian
introdu
Ġhostages
ĠDoyle
eties
ĠPDT
ĠMick
ĠCarey
ĠCream
MT
ĠChester
igating
Ġexceeding
ĠOrient
rises
polit
ulus
Ġmasked
ĠClaim
ÑƀÐ¸
ĠViv
Ġoppressive
Ġbillionaires
Jackson
Ġtailored
Ġprovoke
Ġsnack
Ġfridge
Ġshortcomings
Ġdrummer
nders
Lord
Dave
ĠAlexis
Ġcaval
idepress
ĠGender
ibli
VEL
ranging
odic
Newsletter
Ġpuppet
Ġlig
Ġdisappearing
Ġboasted
Ġunsur
Ġlouder
Ġrulings
Ġoutcry
ĠCars
Ġbean
Ġlandlord
TOR
Ġpyramid
Ġphysiological
ĠExcell
duino
fre
Ġdifferentiate
Ġ127
Ã«
Indian
Ġsitcom
wiki
Tri
ĠSharia
ĠLevy
ĠRudd
Ġlandlords
ĠInitially
mac
formers
Ġhacks
Ġdisproportionate
ĠHutch
Sound
ifference
mania
ĠHawk
ĠHicks
Ġdownright
ĠECB
andem
Ġviewpoint
ĠClara
Ġpython
Ġtimer
Ġappe
performance
Ġfoll
ĠGoal
Ġambient
Working
ĠBrewery
Ġexpansive
paying
ĠBrom
Ġdevotion
pus
ĠGlad
iband
geant
Fortunately
Climate
.âƀƝ[
ĠLights
ĠCambodia
Ġvolcanic
Ġunrealistic
Ġpragmatic
Ġmalf
Ġauditor
Ġwording
ĠPhillip
}\
Ġconstituted
ĠMaver
report
label
Ġassail
ĠDerby
Field
Ġresurrect
fu
amph
Ġwherein
ĠLer
withstanding
Ġbait
Ġeurozone
Ġdisparity
otional
heit
Ġlar
ambig
OA
Ġpoems
redits
tun
berman
ĠAlcohol
Jud
Bernie
counter
Ġstacks
ĠBean
ritz
Ġmolecule
Ġkne
ĠHonduras
Grand
ĠPurd
ĠDebbie
Smart
Ġgum
Ġwrapping
çƚƄ
Ġcorresponds
ĠLiquid
ussia
Ġ[]
ĠMalaysian
ĠICC
liness
aminer
Ġrealism
ĠCarn
Ġruthless
ĠGiul
ãƁ£
Ġgrie
fake
Ġeducators
Ġdonating
negie
Ash
Ġ215
Ġstereoty
Ġdopamine
Ġregrets
Ġhatch
ribe
ĠResource
ĠAbrams
Ġsensational
Ġembro
Ġconfuse
pta
ellation
ĠWass
usement
iciaries
elman
Arab
breaks
Ġindicative
Ġuh
Ġmonopol
ĠFlat
Florida
Ġcoined
ĠStack
ĠTickets
ĠSomali
ĠCannon
ĠSurely
Ġ1916
rr
ĠPapers
ĠHew
growth
Ġinfrared
ĠMilton
ĠCotton
Ġsingled
Ġpetroleum
Ġhikes
ĠEngineers
Ġturkey
Officers
ĠVenezuelan
ĠOrwell
liners
alis
Round
Ġoptimize
Ġdegradation
boot
Ġowing
Ġcreations
ĠDex
berra
Ġarchaeological
Pad
APP
Ġreside
Ġswath
Ġemit
Ġcommence
gall
Ġvolatility
Ġjour
files
support
ĠClippers
Ġmapped
ĠWear
ouns
Ġcousins
ĠTerminal
ĠLatinos
older
Ġupro
ĠSham
nm
Ġshareholder
ĠCoca
Unless
Ġreddit
zai
Ġcustomize
Ġcausal
Ġhomage
Ġhect
middle
Ġproductions
gang
approved
odor
Ġmenus
ĠUSDA
ĠEllison
().
Ġfilibuster
ĠWatts
Ġvalidate
Ġsniper
Ġagon
Ġcrowdfunding
oths
ARC
Ġperipheral
å®
unicipality
ĠGat
Ġhangs
inker
Ġalleviate
ĠFlames
orem
Ġparanoid
Ġabide
Ġsickness
ĠReady
ĠLevi
aji
Critics
ĠLots
PORT
Ġbeverages
ĠAgu
orean
ĠEther
iggle
ĠRabbi
colored
Question
Ġnil
ĠRES
ĠMonetary
Ġkeeper
Ġcanal
ĠScouts
olean
Cola
Ġlibertarians
Ġdispatch
ĠDrugs
ĠiPod
ĠMW
Ġripe
Ġ365
yton
payer
Ġupl
Ġnickel
ĠKhal
worker
wd
height
elig
ĠVolkswagen
Ġ225
1997
Ġsob
Ġreperc
Ġenhancing
kefeller
ĠArmenia
Ġstresses
ĠNGOs
ĠBlasio
ellectual
Ġbeforehand
Ġindec
çƔ
ĠJamaica
ĠAssault
ĠCompetition
ĠFamilies
ryan
Ġintegrating
ĠScots
ĠCafe
Ġchoke
Summary
Ġclown
ĠSeriously
reported
Ġsteak
Ġstaunch
370
bians
145
Ġmandates
Ġdiffering
Ġtet
ĠHunts
ÂƝ
Ġbetrayal
ĠLor
Ġ2025
1996
Ġfeathers
organized
Ġcheapest
lot
Interestingly
Ġmercury
ERT
Ġeyebrows
ĠÑ
rost
ĠVernon
:"
urchase
Ġguerr
Ġoneself
Ġfue
Ġperiodically
anguard
Ġted
Ġos
ĠScotia
Ġaddictive
asking
omination
Center
Anti
Ġerrone
ĠEvidence
ĠAlexandria
ĠOwens
Ġmotorists
Ġexhibits
Ġbeliever
font
enery
');
Ġrecycled
ĠPush
Ġ2022
eros
Ġrelay
ĠBain
performing
ieg
Select
ĠRaptors
Ġsilk
Ġscreams
Ġprofiling
Ġcourthouse
ĠLocation
Ġcircus
once
ĠPaulo
ĠDonna
Ġmater
rued
owd
Ġundisclosed
Ġslowdown
Ġdecidedly
Ky
1995
ophile
Ġwhiskey
Android
Tax
Ġspecializes
Ġpatriarch
ĠParents
Ġwrongly
Ġusername
Ġconditional
Ġarising
Â´
Ġvain
ĠYas
ĠGriffith
Harry
Ġmathematic
Ġdisclosures
Ġbiologist
ĠSwansea
tingu
swick
Ġinflicted
Ġbald
ĠRoh
Sing
Ġpackets
Ġfastball
ĠHundreds
Mexico
Beh
Ġbombed
ĠNEWS
cu
Aside
Ġgarner
Ġaccelerating
Ġreload
Ġreviewers
Ġgeopolitical
ĠMouse
Ġunreliable
laws
Ġaspiring
Ġbites
Ġaccessibility
effective
Ġswallow
Ġclassrooms
Age
Ġspecimens
Ġpraising
Ġscanner
Ġhusbands
ĠUrugu
Ġlistings
Ġapplicant
zman
ĠAJ
Ġpronounce
ĠCycl
spl
usat
cultural
Ġbowling
ĠLimbaugh
iliated
ĠRogue
Players
Ġmorale
Ġcounterfe
geoning
Ġvirtues
Ġstrap
ĠProducts
ĠPopulation
Ġspoon
Ġprestige
Ġmantra
Ġincorporating
Ġbuilder
Ġalias
Ġ1929
Ġdont
ĠInteractive
anoia
ĠLeone
Ġ210
Soft
ĠJourney
rica
Ġsuspicions
Ġhull
float
Ġginger
aleb
Ġundergone
Ġcomet
Ġevidenced
ï¼ƌ
dominated
Ġtaller
Ġintrinsic
Ġ118
Ġspinal
ullah
Ġmourn
ĠeSports
ĠHispanics
ĠHonest
Ġdiminish
daily
Impro
Ġpardon
ĠRac
Ġglyph
zon
Ġgamble
âƘƅ
ealing
ĠStorage
ĠHolt
Ġeccentric
hower
Ġtrending
Ġscrub
Ġoutset
ologne
affer
Greg
Ġpits
Ġadulthood
ĠEmmanuel
plement
155
Ġtemples
Ġsticker
Ġpetrol
wat
pared
Outside
Ġcheckpoint
Andre
ĠKlan
ĠCrosby
Ġadministrations
ĠBod
ĠFellow
Ġaugmented
ĠCumm
ocracies
endered
ĠNvidia
Images
ĠTownship
Ġworkouts
ppery
Ġmasculine
engeance
cas
Ġammo
Ġmocking
Ġloser
Ġbathrooms
ĠAnimals
meter
Ġunans
client
Ġ270
reci
lake
Ġpoliceman
Ġpostponed
Modern
Ġflank
Ġdesperation
Ġconstructing
Ġadmiration
ĠGhana
ĠCod
Bi
Ġwavelength
Ġdisl
Ġdetrimental
ĠGotham
HO
Ġjoking
Ġcarbohyd
Ġbilled
Info
Ġmanipulating
bnb
atti
ĠMile
ĠGmail
ĠAdvertisement
types
ropolis
Students
ĠSherlock
ĠScale
Ġdreaming
ĠPacers
^^
Server
Ġautopsy
yssey
sle
Ġeyew
ĠKiller
190
Ġrever
ĠUSSR
ĠNorthwestern
onte
Children
Ġpenned
ysc
Ġdefensively
Ġindisc
Ġamusing
ĠPreview
ĠLeah
ĠAmazing
Ã¨re
Ġmisuse
Ġhospitalized
ĠMegan
Ġchalk
Ġbogus
Ġwo
Ġrelocated
Ġbloss
Ġbattled
Ġperpetual
Ġpasta
Ġarticulate
ĠCanal
!,
Ġheir
loo
ĠNZ
ĠKN
ĠBelarus
oren
Ġwired
Ġordin
Ġbri
ĠBowie
ĠMiy
Ġdungeon
ĠPractice
ĠLuxem
ĠDenis
Ġminiature
ĠTwe
priced
aleigh
install
Prom
Political
rade
Chapter
ĠRemove
Ġconfigurations
Ġportraits
122
Ġpassports
ĠGone
Meet
???
320
199
Ġhorrors
ĠScarborough
Ġtex
Ġcurrents
ADA
ĠTwins
ĠTou
ĠRails
ĠMahmoud
ï½
Pot
ĠFrankfurt
Ġundes
Wild
Ġsidel
forms
ursion
Ġsummed
Ġblaze
EY
Ġcitation
Ġupstairs
Ġquests
Ġ1910
Arthur
Ġbarric
Ġmisinformation
ĠEmployment
ĠSlate
Rog
DT
ĠAdult
ĠVick
aneously
eating
ĠTsar
Ġbattleground
ĠBerger
Ġegregious
ewater
Vs
Continue
ĠFischer
ĠBroadcasting
games
ĠMatters
uzzle
ĠAlonso
Ġuninsured
Ġscent
Ġmedicinal
Ġexemptions
ĠBring
Ġtranslations
ĠRobb
Ġglut
Ġcommunicated
ĠClock
Ġwart
ĠDonetsk
isitions
Ġmoons
Ġregistering
Ġpatriotic
âƀ¢âƀ¢âƀ¢âƀ¢
erenn
berto
Therefore
Jay
Ġcardiac
Ġcue
ftime
Ġincremental
Import
Ġretains
Ġhorns
orton
imming
eeks
ĠSoviets
vic
intelligence
Ġcautioned
Ġswamp
ĠHomer
åƐ
otto
Ġimmersive
Ġgraphs
ĠSic
ĠMari
ĠMang
pard
ippers
designed
Ġunmanned
Ġsparse
ĠLaf
.....
Ġangels
Ġdiagnostic
Ġ""
Ġexpresses
ĠOpening
ĠWindsor
ĠKro
ĠCivic
Ġrevital
ĠYugoslav
Ġrelieve
Ġrelic
Ġsaturated
Ġgunmen
Ġforehead
prime
noticed
Ġthief
Ġsliced
Ġreflective
Ġtasty
enabled
iversal
Jam
Ġspectators
Ġsewage
Ġextraordinarily
ĠHyde
imet
Anthony
Ġmembrane
strike
fet
ĠOsw
oji
inous
Ġrevisit
ĠChoose
Ġ192
ambled
Coin
AMP
Ġassurance
ĠExtreme
male
ĠMinecraft
buy
Ġtrek
Ġpissed
Ġconsequently
ĠMariners
Ġ320
floor
axis
Ġcalculating
ĠCaller
irming
Ġstereotype
ivated
ĠDuffy
133
ĠTibetan
Ã¤r
ilion
Ġattribut
Ġrepetitive
ethical
Ġplunged
Ġweaponry
Ġlows
ĠHawaiian
assic
Ġnovelty
Ġbalcon
Ġinspections
ĠThousands
ulz
ĠAbuse
redients
uctions
ishly
Ġsignaled
Ġpaved
Ġbusinessmen
ĠLockheed
Ġrails
Ġinflated
Ġbrewers
ĠDollar
ussed
ĠSpy
ĠAssociate
Ġconcession
ĠDart
ĠTip
kok
cop
rivation
itched
000000
ĠWeapons
endo
ĠSpike
rescent
Ġupright
ĠCorporate
ĠAdventures
Ġnov
Ġliteracy
states
bottom
Ġcaliber
ĠWesley
Similar
ĠCul
Ġvegetation
Ġraced
Ġpredator
Ġ1919
ĠPOLITICO
ĠGU
Graph
ĠAuthorities
Ġaffluent
ĠHorror
akedown
Squ
Ġfiery
Ġdisdain
chel
Ġsixty
Ġnoticing
ĠMarkets
ĠClayton
Ġuncont
Ġstripes
Ġconstrained
ĠSDK
ĠDestiny
ĠBaltic
particularly
Ġreunion
Ġdistortion
ĠLAN
ĠÑƂ
Available
naire
ĠNorris
Ġneatly
Record
Ġflashing
ĠPablo
Ġprotester
Ġpaused
Ġoffending
Ġprotestors
cÃ©
Ġsmells
ĠJudicial
nen
Ġmetic
Ġinsecurity
Ġ1934
Ġ145
ĠElon
ĠAvery
Ġtherapies
Ġimprov
124
ascist
Ġturnaround
reon
Ġderive
Anna
kered
ĠMiliband
appointed
ĠMonst
Ġproportional
Ġinh
Ġarresting
Â±
GF
Ġpsychologists
error
ĠFAQ
Ġappalling
ĠPoc
Ġbilling
ĠBhar
turned
Ġequations
ĠQualcomm
ãƁƆ
save
quote
Ġconquest
ĠUnic
ĠArgentine
Ġger
Ġbots
ĠChemical
Ð¶
Ġcaus
ĠUpgrade
bern
Ġdisguise
ĠPeak
ĠIA
ĠFiles
Patrick
Ġunconventional
Ġsilently
Ġpolicemen
Ġgroundwater
licted
Ġdepiction
ĠRw
ĠYard
strap
ĠAnnie
Ġinval
ĠRoot
ĠDW
bench
ALE
Ġseasoned
Ġbeneficiaries
ĠFont
Ġspit
Ġmisunderstanding
Ġdispensaries
Ġ1915
rolet
Return
Ap
Ġelders
ĠAllan
ĠAU
idget
Ġstrained
Ġflush
Ġdiscouraged
ĠRenew
ourage
Ġouting
Ġghosts
jury
ĠCharge
audi
Ġsandwiches
Ġfishermen
irie
Daily
Ġrobotics
obo
Ġwealthiest
Ġspurred
Ġopenings
Ġgrandson
ĠPurple
Ġlame
ĠSylv
adia
Ġsincerely
Ġreplica
Il
wolf
Ġrubble
Ġironically
ĠLetters
ĠLumia
KO
Ġtreason
Ġranc
Ġdeliveries
street
Defense
Ġbounced
ĠSloven
ĠSources
Roy
ĠBucks
hammer
Ġtutorials
,,
ĠNit
Ġunexpl
Ġba
ĠMIN
ĠConcept
Ġtoilets
Ġtoast
Ġguarded
Ġstern
Ġrazor
ĠAnniversary
Ġrecounted
Ġ260
Ġtyped
unningham
dot
Ha
Ġtheorists
Ġmonks
ĠTicket
ĠLit
released
Ġdashboard
Ġbachelor
ĠMilk
Ġmasterpiece
Ġarrogant
ĠMam
unit
Ġbury
ĠRings
ĠCritical
ĠChrom
Malley
staff
serious
Ġimpoverished
Ġconcede
ĠMaya
program
Ġforge
Prem
Ġcube
Seven
ĠGaw
ĠDominican
raising
Ġbanker
ĠRubin
ĠGrid
Ġtreaties
Ġlodged
ĠFeinstein
Ġinterpreter
ĠArabian
Ġsacrificed
Ġpsychiatrist
Ġbanners
ĠWebster
Ġswipe
eye
126
Ġworthless
fc
Ġsimulate
ĠTrad
ĠOFF
ĠIvy
shoot
Ġheadaches
ĠSunder
phies
Ġgrenade
Ġmundane
ĠUV
atellite
Ġglove
»¿
ĠPreviously
ĠHip
Ġtrainers
Ġrebuilt
Ġ[...]
ĠNinja
lopp
follow
Ġpumps
Ġlateral
Ġimmoral
parable
Ġpetitions
Ġlan
Ġcaste
Ġbelts
ĠHydro
Ġamph
ĠTeachers
ĠLC
DER
121
Hon
Ġknockout
Ġgeared
cigarettes
BBC
Ġlinguistic
ĠRiy
Ġexpectancy
Ġalright
Ġsabotage
ĠBrunswick
Ġwaved
Ġtucked
Ġpermissions
ĠInfinity
ĠPru
ĠPV
NBA
Ġantidepress
ologic
Ġsyll
âƖƈâƖƈâƖƈâƖƈ
odka
include
Ġstray
Ġpunt
Ġcla
ĠJihad
exc
akin
Ġauthored
Ġasserting
Ġ280
pty
Ġtroop
Ġorth
Ġventures
Ġpremiered
mobile
ĠEra
ESPN
Ġsudo
Ġintolerance
Ġdenomin
ĠRockefeller
ĠGuatemala
neck
Battle
ĠHawkins
published
Liber
ĠKerr
ĠHAVE
ĠCarlson
Try
?).
._
Ġnuanced
untary
Ġtowel
Ġsnacks
Ġqualification
ĠCarnegie
ussen
ropical
iak
Hun
1994
ĠMant
resolution
ĠBeautiful
rne
FB
ĠKelley
olson
Associated
Ġadapter
ĠSafari
Ġnarrator
Ġantibiotic
AGE
Ġsimplify
Ġoutweigh
Ġcrystals
ĠNewt
Ġthrilling
ĠMonaco
ĠHearts
ĠGomez
ivas
governmental
ĠLars
ĠGuardians
Louis
liberal
ĠMaced
uchi
Ġwines
Ġregener
double
Ġdele
ĠUW
ĠCorner
Ġimmortal
Ġdamned
imates
Ġsafeguard
Ġdragons
node
Ġtorque
shaw
sewhere
arrett
erate
Sus
Ġtornado
Ġousted
Ġdens
ĠFoley
ĠVoting
ĠPriest
Ġdeduction
ĠFowler
Ġinexper
ĠQuad
).âƀƝ
Ġcorrobor
ĠBehavior
otechnology
aucuses
Ġavenues
ĠTVs
ĠGrande
Ġstormed
dat
Ġepile
ĠPicks
ĠUm
Ġavid
Building
stat
Ġrepercussions
ĠGavin
rites
Ġallege
ĠExc
bil
Ġprioritize
Ġdisciplines
Ġsuperv
Ġmushroom
Ġscrapped
Ġhers
ĠSinai
ĠLiam
Ġcircumvent
ĠBetty
lasting
Ġconcluding
ĠVault
Ġresponders
uder
Ġviability
Ġmeddling
ĠParkinson
robe
reli
Ġtemp
ramble
ĠVenice
eto
cier
Ġâƀƞ
Ġpermitting
ĠIRA
ĠCalder
Ġdisob
ĠYo
Ġcasually
Ġangered
ĠDescription
Ġprowess
Ġskins
Ġalmond
option
ĠWent
ĠAnat
ĠGors
Ġmurderer
Ġmulticultural
ĠMcMahon
Snow
anni
Ġreimburse
ĠNorton
ĠIE
ĠFIR
Ġcomputational
Ġcommonplace
bsp
Ġacademia
Ġgraves
HAHA
Gar
Ġwander
Ġfreight
Ġcyclist
Lo
Ġspikes
Ġharb
ĠHindus
ĠClaud
zyme
Ġhurdle
Ġconvoy
Ġterminology
ĠMug
Ġtemptation
Ġrunoff
Ġconfiscated
Ġancestry
Ġbarring
.ÂƔ
unless
Ġsprink
ĠPercent
Sty
Night
ĠAcross
another
Ġmicrobes
Ġconsciously
2019
ĠTracy
WATCH
Radio
Ġsprings
ĠRecovery
Ġconsortium
ĠTuc
Courtesy
director
Ġslipping
Ġhooks
Ġbackbone
ĠJosÃ©
Index
Ġroyalty
Ġrains
Ġequilibrium
Ġfacebook
Tele
Ġerase
Ġdeeds
Ġ<-
olkien
Ġlyn
Ġapartheid
ĠHM
Ġ978
ĠKang
acters
gregated
Nic
Ġseriousness
ĠTransfer
ĠFletcher
regn
Ġdocumenting
Ġconfer
Ġcandle
ĠObamaCare
iÄƇ
Ġprecipitation
serving
olla
Ġtram
Ġimplying
Ġbeams
Hall
ĠExample
Ġtotalitarian
Ġsizable
Ġrallying
Ġhelmets
breaker
Ġvaguely
Ġtattoos
Ġduel
Ġbells
Ġadaptive
umption
Ġhumour
Ġgossip
ĠWis
Ġmouths
Ġcasts
ĠGenerally
few
erala
Ġtorch
Ġcommissioners
Ġclicked
ĠBritt
Ġdiscovers
Ġadren
ĠProspect
Ġmatt
Ġcontamin
ĠRas
adin
rule
Ġabolished
Ġtheological
ĠWow
ĠMell
Ġescorted
ĠTT
mares
Ġspilled
Ġfractured
Ġbride
ĠHollow
Ġfooting
ĠPig
essential
ĠIraqis
ĠCay
Ġmism
ĠBarton
param
xd
Ġbrowse
umably
ĠArcher
Ġawhile
ĠClinic
dir
ĠTA
iann
Ġinvade
Ġaux
ĠRamirez
Ïƃ
until
ĠVert
harm
Ġweighted
ĠCause
Ġtoddler
Ġdecriminal
ĠPhillies
ĠPatel
sector
Ho
gre
Ġcompressed
Basically
Ġfraternity
Ġallowance
Ġaltering
becue
Ġworkflow
ĠHate
Ġoutputs
anke
Ġpneum
ACP
[...]
