Ā
ā
Ă
ă
Ą
ą
Ć
ć
Ĉ
ĉ
Ċ
ċ
Č
č
Ď
ď
Đ
đ
Ē
ē
Ĕ
ĕ
Ė
ė
Ę
ę
Ě
ě
Ĝ
ĝ
Ğ
ğ
Ġ
!
"
#
$
%
&
'
(
)
*
+
,
-
.
/
0
1
2
3
4
5
6
7
8
9
:
;
<
=
>
?
@
A
B
C
D
E
F
G
H
I
J
K
L
M
N
O
P
Q
R
S
T
U
V
W
X
Y
Z
[
\
]
^
_
`
a
b
c
d
e
f
g
h
i
j
k
l
m
n
o
p
q
r
s
t
u
v
w
x
y
z
{
|
}
~
ſ
ƀ
Ɓ
Ƃ
ƃ
Ƅ
ƅ
Ɔ
Ƈ
ƈ
Ɖ
Ɗ
Ƌ
ƌ
ƍ
Ǝ
Ə
Ɛ
Ƒ
ƒ
Ɠ
Ɣ
ƕ
Ɩ
Ɨ
Ƙ
ƙ
ƚ
ƛ
Ɯ
Ɲ
ƞ
Ɵ
Ơ
¡
¢
£
¤
¥
¦
§
¨
©
ª
«
¬
ƭ
®
¯
°
±
²
³
´
µ
¶
·
¸
¹
º
»
¼
½
¾
¿
À
Á
Â
Ã
Ä
Å
Æ
Ç
È
É
Ê
Ë
Ì
Í
Î
Ï
Ð
Ñ
Ò
Ó
Ô
Õ
Ö
×
Ø
Ù
Ú
Û
Ü
Ý
Þ
ß
à
á
â
ã
ä
å
æ
ç
è
é
ê
ë
ì
í
î
ï
ð
ñ
ò
ó
ô
õ
ö
÷
ø
ù
ú
û
ü
ý
þ
ÿ
Ġt
he
Ġa
Ġs
Ġw
nd
Ġthe
ed
Ġb
Ġto
Ġand
Ġh
Ġf
in
ĠT
Ġwa
re
it
ou
Ġl
Ġd
Ġc
Ġp
ay
Ġm
er
Ġwas
om
ĠThe
Ġhe
is
ar
Ġn
im
on
Ġsa
id
ll
Ġha
Ġg
at
ĠS
ing
ot
en
an
le
or
ir
am
et
ĠH
Ġit
Ġth
ig
ĠThey
Ġin
il
Ġpl
ĠHe
Ġ"
ow
ver
ri
ut
Ġbe
Ġu
Ġsaid
Ġplay
ith
Ġday
Ġwith
pp
On
Ġo
Ġy
oo
ked
Ġr
Ġher
ce
ĠI
ĠShe
ld
ĠTim
Ġhis
Ġst
ke
Ġe
Ġbig
nt
ck
Ġyou
very
st
ve
end
Ġon
un
Ġhapp
riend
Ġfriend
all
ily
ĠL
Ġthey
Ġwe
Ġhad
Ġnot
Ġli
Ġup
her
Ġwant
Ġof
ad
itt
se
ĠB
Ġdo
Ġhappy
ent
Ġvery
ĠM
es
Ġthat
Ġsaw
One
's
ould
Ġmom
Ġfor
Ġsh
ittle
Ġlittle
Ġso
Ġshe
ch
ime
Ġne
Ġnam
."
Ġtime
Ġk
ound
Ġthere
Ġnamed
Ġsm
Ġbo
Ġwere
ĠLily
Ġwanted
Ġbut
out
The
Ġfriends
ved
!"
ht
ĠTom
ird
el
Ġbird
al
Ġan
ake
Ġtoo
ome
ĠIt
ug
ide
Ġwent
Ġwh
Ġhel
Once
Ġis
Ġall
Ġhelp
ue
Ġloo
Ġlo
ter
ĠA
Ġupon
ry
ore
ind
Ġfun
get
Ġtoy
ill
ame
Ġas
Ġat
ra
Ġj
Ġdid
gether
Ġre
ur
Ġse
Ġtogether
ack
Ġcat
ly
Ġtre
ood
ic
ted
Ġdog
Ġcould
Ġcan
Ġtheir
ard
ec
ark
Ġgir
Ġplayed
Ġhim
Ġball
?"
Ġgirl
way
Ġro
Ġgo
hed
my
Ġare
Ġout
Ġle
Ġfr
ain
Ġkn
hen
Ġthem
um
't
ax
Ġsad
ul
Ġboy
Ġtree
other
Ġhave
Ġman
Ġcl
Ġloved
Ġlooked
oug
Ġfound
Ġsp
Ġstar
ĠSue
one
hing
Ġsc
Ġback
own
ĠMax
are
Ġlike
ful
side
Ġme
Ġbec
Ġpark
ight
ong
Ġcar
op
elt
ĠOne
Ġliked
Ġwould
Ġmake
round
Ġla
Ġfa
Ġfelt
You
ĠW
ell
Ġsee
ĠBut
omet
Ġasked
ag
Ġnew
Ġno
ice
ĠSam
ouse
Ġstarted
ared
Ġcame
ĠBen
Ġal
Ġother
ought
iled
Ġsomet
Ġag
Ġgood
Ġsmall
ss
Ġbr
Ġsmiled
Ġsay
ried
ade
ings
ob
pot
Ġwor
Ġfind
Ġex
ia
Ġaway
ty
Ġput
Ġwhat
Ġsomething
Ġco
Ġfrom
Ġmade
Ġthought
ened
Ġhome
Ġplaying
ook
Ġevery
Ġwal
Ġmu
uc
ach
arn
ĠSpot
Ġran
ile
ĠF
ie
ĠJ
ave
Ġagain
Ġsome
Ġlaug
dd
Ġhouse
Ġdown
Ġfl
king
Ġtook
Ġscared
Ġpr
ny
ure
Ġtoys
Ġlearn
ĠYou
if
Ġwill
Ġbox
ick
ret
ab
ep
Ġmy
Ġaround
Ġthings
Ġyour
oud
Ġbl
uck
Ġwhen
ish
Ġlived
Ġfe
Ġthen
Ġsun
as
Ġsw
,"
Ġch
us
pped
Ġab
ĠMia
ank
Ġget
ucy
Tim
ump
Th
Ġlot
ist
oth
Ġtried
ap
Ġknow
Ġsays
Ġgot
ited
Ġwho
Ġkne
ust
Ġmany
nder
Ġint
Ġabout
Lily
Ġpret
Ġdec
Ġany
Ġred
ĠD
ive
Ġknew
ace
ous
Ġmore
ise
Ġcare
ally
Ġpic
au
qu
Ġhug
ĠLucy
Ġlearned
Ġpo
Ġwater
fter
Ġv
Ġbecame
Ġbest
ause
Ġop
Ġgre
Ġexc
urp
ways
âƀ
Ġoutside
Ġlaughed
Ġlook
Ġalways
Ġdecid
Ġshow
Ġun
ant
ĠBob
Ġroom
fe
Ġdecided
Ġho
Ġbecause
ĠSo
Ġinto
Ġeat
ite
Ġjump
ĠAnd
Ġpe
Ġboth
ers
ĠMom
Ġdad
They
udd
Ġke
Ġone
nn
Ġthis
Ġexcited
Ġfast
Ġnice
ĠE
Ġfeel
Tom
Yes
Ġrun
Ġlong
Ġtold
Ġsk
Ġam
urpr
our
Ġinside
ull
Ġtr
Ġsurpr
Ġmo
ink
Ġpretty
iny
Ġsor
Wh
Ġtake
og
Ġsl
Ġeach
Ġgave
Ġmuch
Ġgra
lew
nna
Ġrock
Ġhow
Ġstr
ara
imal
Ġanimal
ged
Ġneed
Ġthan
But
ven
etter
Ġtow
Ġor
ĠC
Ġunder
ess
Ġold
Ġsorry
ge
ised
ro
urt
Ġcle
Ġfish
Ġwalked
Ġclo
and
Ġbear
ft
ase
ast
Ġhand
urn
ĠWe
Ġkind
ĠHis
Ġte
here
Ġhappened
Ġjust
Ġflow
Ġfood
Ġlist
Ġdidn
Ġanimals
Ġhig
pl
Ġnear
Ġwat
Ġide
Ġtry
ched
Ġsky
ine
Ġsn
ving
Ġfi
rom
Ġus
Ġidea
Ġbetter
ĠAmy
Ġbug
Ġheard
gry
Ġits
Ġtw
Ġlet
pec
ate
able
ff
Ġen
Ġcareful
Ġshare
ex
Ġif
Thank
Mom
Ġfly
Ġstor
ial
Ġflew
more
Ġanymore
ĠTh
Ġspec
Ġspecial
ion
Ġcom
Ġlots
Ġnever
Ġby
lf
ream
Ġdan
Ġbu
Ġfo
Ġwind
Ġdon
Ġtal
Ġclean
ort
Ġgr
Ġlove
rm
ber
Ġend
ĊĊ
ĠThen
ople
Ġeven
Ġmag
Ġhard
Ġshiny
udden
Ġfore
Ġover
Ġcake
ak
Ġbook
Ġcol
Ġturn
Ġfam
Ġbad
Ġsafe
Ġafter
ady
ĠAnna
uddenly
Ġpeople
Ġproud
ĠEvery
Ġsurprised
pected
Let
Ġhigh
Ġcu
Ġhurt
Ġcome
imb
arden
Ġdoor
Ġgarden
bb
Ġground
Ġopened
Ġpicked
Ġloud
Ġclimb
expected
Ġunexpected
Ġgl
Ġche
ild
Ġim
As
Ġgive
Ġway
ail
'm
Ġthanked
Ġcolor
Ġblue
Ġstill
Ġever
Ġhugged
ĠFrom
Ġcall
Ġfar
ip
ĠHer
ĠSara
ĠWhen
No
Ġoff
Ġmagic
iz
ough
age
ummy
ĠK
Ġjumped
Ġshould
Ġfamily
Ġpar
ool
Ġkid
Ġsmile
hes
uff
Ġplace
kay
Ġwalk
Ġnow
ct
ĠIn
Ġgreat
em
ture
Ġqu
les
Ġstrong
Ġstay
Ġunt
Ġsto
aut
Ġforest
ane
Ġbra
itty
ĠP
Ġfrog
Ġbro
Ġuntil
oon
Ġbeaut
dy
Ġsqu
Ġstick
xt
Ġnext
Ġboat
lease
ning
Ġhappily
Ġlisten
aking
Ġkids
Ġtra
ies
iful
Ġbeautiful
Ġapp
th
Ġhelped
Ġdra
Ġshowed
Ġclos
be
Ġimp
Ġstory
unny
oy
Ġwhile
Ġtown
rel
pt
Ġrain
ress
Ġpicture
Ġbeing
Ġrem
Ġeveryone
It
ary
ree
Ġmor
Ġhat
Ġcalled
Ġmet
Ġstopped
Ġad
Ġgame
Now
He
Can
Ġangry
ger
uffy
Ġopen
Ġwo
Ġtruck
Ġkeep
Ġsoft
When
Ġcry
Ġyummy
Ġlost
Ġbed
ĠLet
ĠSally
Ġwarm
by
vent
Ġbrave
Ġmouse
ĠWh
Ġate
ĠKitty
ished
Ġde
fore
Ġdoll
so
Ġcouldn
Ġwatch
Ġleave
Ġalso
dded
Ġfell
Ġgreen
Ġface
Ġtwo
gan
iss
Ġflowers
bit
What
ĠR
ble
Ġnoise
abbit
irst
owl
Ġwhere
az
ock
Ġsoon
self
Ġslide
Ġrabbit
Ġhole
luffy
Ġbefore
irrel
Ġpus
ired
Ġsat
illy
Ġhear
Ġuse
âƀƝ
Hi
Ġpa
Ġkept
âƀƜ
That
Ġsquirrel
ear
Then
ma
Ġnodded
Ġexpl
Ġstore
Ġcook
Ġhands
Look
Ġbirds
Ġpain
Ġgoing
Ġfunny
Ġhaving
day
Ġsing
aybe
uch
Ġey
aug
Ġcatch
aught
ĠCan
ĠFluffy
uit
Ġyell
Ġthink
leep
Ġcra
Ġfin
Ben
Ġbre
Ġfix
Ġtired
Ġbunny
Ġused
Ġlooking
Ġbus
ange
air
Ġwork
Ġwr
Ġour
Ġpull
We
Ġthr
thing
ĠNow
Ġwait
Ġkit
Ġsound
ting
Ġjo
Ġhas
ĠG
Ġmean
Ġpond
ember
Ġbeh
Ġdr
Ġsunny
led
Ġothers
Ġask
ng
chen
Ġkitchen
Ġtalk
Ġflo
Ġdif
rew
Ġpie
ĠJo
Ġhead
Ġreal
Ġfirst
Ġtri
Ġmommy
Ġeyes
ello
Ġimport
Hello
Ġfav
ath
joy
Ġz
Ġremember
Ġright
Ġflower
Ġcon
Ġmess
Ġparty
Ġcold
ĠDo
Ġvo
Ġswe
ious
Ġsand
ĠâƀƜ
ac
orn
Ġrace
Ġcuri
imes
Ġimportant
Ġduck
Ġmoral
Ġshared
zy
ount
ĠJack
Ġice
Ġokay
Ġadvent
Ġworked
llow
At
Ġenjoy
Ġdress
Ġbright
Ġmaking
Ġcurious
Ġown
Ġtall
Ġdir
Ġhop
reed
Ġhid
Ġfavor
Ġri
hn
Ġsleep
Ġdis
Wow
Ġfavorite
Ġthing
Ġbegan
Ġmon
Ġbag
Ġhill
Don
Ġcla
Ġdraw
Ġrest
Ġhere
Ġyard
Ġtell
ĠFin
ster
Ġwatched
que
Ġfollow
Ġmove
Ġbel
ect
Ġcut
Ġnight
Ġagreed
Ġpick
co
Ġblock
Ġhun
aper
lly
Ġstop
Ġbehind
ĠThis
Ġsurprise
ied
Ġsho
Ġhot
After
Ġtable
Ġgrass
Ġworry
Ġdark
Ġtrees
Ġvoice
Ġwalking
fere
Ġfloor
Ġfarm
Ġlion
Ġtop
Ġdiffere
Ġplease
Ġru
Ġsong
Ġbutter
Ġtail
Ġsweet
Max
Ġshout
Ġcolors
Ġread
ĠDad
Ġlady
Ġforg
isy
Ġleaves
Ġcloser
ign
Ġcars
Ġturned
Ġneeded
Ġtast
Why
aring
Ġwood
Ġcried
Ġdifferent
Ġlaugh
Ġdel
Ġpiece
âƀƙ
ered
ĠMr
Ġroll
Ġadventure
Ġfire
Ġdoes
ike
Ġcr
Ġhungry
Ġhair
ĠSuddenly
Ġpaper
Ġfeeling
Ġyellow
Ġfull
bo
Ġprin
Sue
Ġtouch
ĠAs
Anna
Sam
Ġwet
Ġfriendly
Ġper
oom
ken
cked
ached
Ġswing
Ġfruit
ient
Ġbroken
Ġready
bye
ppy
Ġprom
ĠThat
Ġanother
Ġlight
Ġpretend
Ġdance
ater
Ġclimbed
where
Ġlistened
ĠBobo
Ġdanc
Ġrunning
Ġonly
Ġplan
Ġgone
Ġswim
bbed
Suddenly
sh
Ġtrain
ila
ndma
Sara
ĠJane
Ġclose
av
She
Ġsmell
So
aby
Ġamaz
Ġhold
Ġblocks
Ġwonder
ĠTimmy
Ġrepl
ĠAll
Ġbutterf
Ġsees
Ġreached
Ġwall
Ġpu
oney
red
Ġslow
Ġhelping
Ġdri
Ġcream
Ġcool
Ġglad
af
Ġant
Ġless
Ġbeen
Ġgoodbye
Ġac
Ġfight
ather
Mia
Ġpushed
iced
Ġfair
Ġmust
Ġhide
Ġmoment
Ġwindow
ĠO
Ġsit
Ġballoon
Ġsnow
Ġchild
Ġexplore
ĠEveryone
Ġar
Ġwished
Ġbaby
Ġdone
Ġwag
Ġste
Ġbuy
Ġstuck
Ġperf
Ġthank
Ġmight
icy
Ġname
ized
Ġtrying
Ġbit
Ġcoming
Ġbar
Ġquick
Ġfall
Ġapple
ash
Ġscary
Ġlooks
Ġbuild
Ġdoing
Ġwin
Ġunderst
aisy
Ġdin
Ġdream
Ġdirty
Ġheld
ames
Ġbooks
Ġmar
In
Ġbutterfly
Ġleft
Ġshouted
Ġcount
Ġreplied
avy
Ġreach
Ġtiny
Ġthrough
ott
Ġdro
Ġwhy
Ġair
Ġbran
Ġland
key
Ġthree
Ġpulled
Ġspl
Ġgrow
Ġtreat
Ġbrother
Ġwise
Ġwoods
Ġsure
're
Ġchair
ix
Ġmat
ins
Ġseen
Ġpink
Ġclapped
Ġplant
ely
Ġowl
Ġcup
ield
Ġsometimes
andy
Ġfill
Ġcloud
ask
Ġswam
outh
Ġjob
Ġcolorful
Ġremembered
Ġbigger
Ġnest
Ġmouth
pe
Okay
Ġlesson
Ġjoin
Ġcre
ph
ĠThere
oup
room
art
Ġwaved
uddy
Ġgrabbed
Ġstayed
Oh
Ġpaint
This
Ġclot
Ġcont
Ġclothes
Ġve
ower
ĠAfter
Ġwaited
Ġquickly
cle
Ġword
Ġbroke
ucky
Ġgames
Ġcast
Ġblew
Ġgent
ĠMommy
Ġenjoyed
Ġnoticed
Jo
ries
ation
Ġset
Ġlikes
Ġpictures
ton
de
Ġsea
Ġheavy
Ġmus
Ġalone
Ġgif
asure
Ġanything
Ġspot
Ġmiss
Ġhopped
Ġworld
Ġturns
orm
Ġyear
der
Ġbott
Ġpat
Ġpot
Ġpen
lc
Her
Ġmix
Ġarm
Ġbike
Ġtight
Ġeverywhere
Ġwon
Lucy
Ġtower
Ġthrew
Ġhimself
Ġfollowed
ĠBuddy
Ġride
man
less
Ġju
Ġje
amp
Bob
ape
Ġcomp
Ġkey
row
".
Ġwhite
ctor
Ġwrong
ĠDaisy
Ġmakes
ĠWhat
Ġbreak
Ġblack
arent
ee
ner
Spot
Do
Ġdeep
thy
Ġmusic
Ġpol
Ġdelic
cess
ued
Ġforgot
Ġbee
Ġparent
Ġcastle
ves
olly
Ġem
iet
Ġwear
Ġhit
ister
oun
Ġquiet
Ġround
ance
Ġstu
Ġdanced
Ġvis
ully
Ġwants
Ġleaf
Ġmonster
Ġnap
ĠJohn
Ġunderstand
ang
Ġbowl
os
rot
ren
Ġbor
Ġtalked
itten
Ġdry
Ġfaster
Ġcookies
Ġbrought
fully
Ġleg
ross
Ġmum
zz
Ġside
ts
From
Ġsign
ĠInside
Ġsmart
cy
Ġrocks
Ġsomeone
His
Ġpoin
Ġsec
Ġsharing
Ġfox
Ġwell
Ġres
Ġrel
Ġhappen
Ġbutton
Ġbranch
ĠLila
Ġreally
Ġfinished
ence
ards
Ġdinner
Ġsister
Ġflying
eddy
Ġcontin
Ġworried
Ġele
ĠTo
Ġvisit
ĠMaybe
Ġbeach
Ġque
Ġsecret
Ġel
ĠSarah
Ġking
John
gy
Ġtoday
Ġperfect
Ġriver
Ġeverything
Ġsilly
Ġshin
ĠJoe
Ġdanger
ipp
Ġchildren
Ġgu
ĠSoon
Ġfield
Ġfilled
Ġfur
Ġelse
Ġsmiles
Ġwelc
ĠAt
Ġwish
ĠEm
While
Ġsang
Ġgi
ze
Ġpudd
Ġsnack
Ġeating
Ġrealized
Ġpieces
Ġpromised
ord
Ġspr
Ġpig
Ġfree
Ġcontinued
Ġbite
ead
Ġparents
Ġcarefully
ated
itting
Ġear
Just
Ġjar
Maybe
Ġcow
Amy
Ġblank
Ġdrag
stead
Ġorange
Ġmud
Ġcrying
Ġblanket
Ġenough
Ġrolled
cket
Ġsoup
Ġsail
Ġpurp
imi
Ġyes
ale
Ġdrink
Ġsnake
ses
Ġboun
Ġpet
Ġcrab
Ġthrow
Ġlaughing
Ġfairy
Ġwords
Ġamazing
Ġbath
ich
Ġpurple
ĠZ
Ġwithout
ire
Ġbottle
ĠBilly
Ġgift
Ġgrandma
Fin
used
ons
Ġpast
Ġmoney
iver
fort
Ġmail
ĠGra
Ġbarked
Ġwagged
Ġatt
chool
Ġmonkey
Ġdoctor
unch
Ġbrown
Ġmoved
ises
Ġasks
Ġgetting
Ġclosed
Ġwhe
Ġwelcome
Ġsu
Ġcandy
Ġschool
Ġmorning
Ġowner
gg
Ġlon
Ġmother
Ġhigher
Ġsitting
Ġtreasure
.âƀƝ
Ġsmo
!âƀƝ
Ġdangerous
Ġlonely
ĠCh
Ġliving
Ġapples
ush
Ġshop
ased
Ġstrange
vel
Ġshining
Ġroad
ere
ĠTommy
Ġcreat
una
Ġpaw
Ġra
ey
Ġshoes
Ġpre
ible
Ġ-
Ġstre
Ġtalking
althy
Ġcaught
Ġegg
ol
Ġpass
me
Ġlake
Ġruns
Ġbuck
Ġletter
Ġwings
Ġchee
fish
Ġmad
Ġfan
asket
Ġbasket
ass
Ġdragon
app
Mommy
set
cks
Ġstone
Ġthinks
Ġstand
Ġdelicious
Ġnose
Ġpuddle
Ġtom
ĠBl
ĠMimi
Ġbelie
Ġfarmer
Ġsame
Ġyears
board
Ġteddy
Ġbat
isk
itch
Ġmine
Ġsear
Ġcoat
ches
igh
Ġdays
Ġbring
Ġgentle
Ġfit
Ġstart
Ġfinally
Ġwhist
Ġcray
igg
Ġscream
Ġkite
Ġpill
phant
arm
Ġvill
Ġcho
Ġsinging
ella
sw
ined
Ġtasty
Ġph
Ġben
Ġtrou
Ġshell
Ġherself
Ġhoped
Ġansw
Ġwore
Ġswings
sy
Ġhor
Ġbelong
Please
Ġpush
Ġbush
iskers
Ġcarrot
Ġarri
aughty
Ġteach
bow
ract
Ġnaughty
Ġelephant
Ġdropped
Ġshap
ier
Ġcoll
sc
Ġteac
emy
Ġwoke
ball
Ġpile
Ġhiding
Ġcour
isa
erry
Ġtouc
Ġmin
Ġpuppy
'll
Ġseem
llie
Ġtwins
ama
Ġlunch
Ġbow
Ġsack
Ġpers
Ġcourse
Ġcheered
Ġshapes
ĠJen
Ġgrew
fused
Ġrope
Ġvillage
irth
irthday
Ġjuice
ipped
Ġrainbow
Ġspin
OK
Ġshook
Jack
Ġspoon
Ġbench
Ġstreet
Ġfence
Ġcute
ĠFred
Ġrob
Ġnut
Ġcheese
Ġprob
Ġtouched
idge
col
Ġjoy
ĠWhiskers
Ġarrived
Ġseed
Ġwar
Ġteacher
Ġcorn
Good
Ġforever
Ġable
Ġbell
Ġfew
Ġcarry
Ġmost
Ġplane
ĠBlue
lem
Ġeas
Ġsounds
lla
Ġdes
Ġspo
Ġproblem
Ġbirthday
Ġpower
Ġinc
umb
br
ĊĠ
Ġbugs
ilk
Ġwonderful
Ġdolls
Ġbusy
ato
irp
eb
Ġwra
Ġpromise
ĠThank
Ġfeels
ian
ĠEmma
eter
Ġbread
Ġneck
Finally
Ġmilk
Ġrobot
Ġrec
Ġshy
ountain
Ġkiss
irt
Ġheart
Ġband
Ġcave
Ġpocket
ub
Ġhelpful
gly
Ġslowly
Ġbelieve
Ġshake
umpy
eared
Ġpatient
Ġpop
Ġob
arp
Ġlive
Ġstorm
Ġholding
Ġugly
Ġtowards
Ġupset
Ġturt
Ġshr
adow
Ġcover
Ġkitten
ost
ĠRemy
Ġsharp
Ġdisapp
Ġstories
Ġsuc
Ġhoney
ove
ĠBella
read
Ġnoises
ĠLe
Ġcir
Ġballs
Ġspark
Ġgray
Ġdist
Ġdirt
oggy
Ġlate
Ġdriver
Ġseat
Ġbucket
Ġmeet
Ġyoung
Ġamazed
Ġturtle
alm
Ġspid
Ġtreats
Ġmagical
unt
ator
Ġglow
Ġseek
Ġzoom
Ġlem
Ġsandw
fortable
umber
Ġtrip
Ġmist
ourn
Ġsplas
Ġmark
Ġjourn
Ġfold
Ġmach
Ġpuzz
Ġpart
ling
Ġhorse
Ġorgan
Ġwild
Ġprincess
pping
oose
Ġcookie
Sure
ens
Ġhugs
ĠMark
Ġtaking
ung
Ġwheel
epend
Ġcloth
ĠLisa
Ġsug
Ġinstead
Ġbubb
Ġstring
Ġnet
Ġdrove
iling
Ġrude
Ġhuge
ĠJim
Ġcoin
Ġstars
Ġfighting
Be
Ġspicy
Ġlucky
Of
Ġcraw
Hey
Ġbone
Ġinv
ĠGrandma
ors
not
Ġca
pper
Ġforget
up
Ġdi
aur
Ġsal
ĠFinally
Ġcannot
Ġwhistle
Ġcard
Ġsick
Ġpath
Ġcou
Ġspider
Ġwide
Lila
Ġfoot
Ġsnowman
Ġsongs
Ġlife
Ġpillow
ize
ular
ĠJust
Later
est
ĠAnn
ert
Ġfixed
Ġgiant
oph
rill
Ġnod
Ġboss
Ġlast
Ġcomes
Ġjoke
Ġmoon
Ġtaste
den
Ġmachine
Ġgrumpy
Ġwave
Ġthin
Ġdrive
Ġcart
Ġash
Ġser
Ġgrab
Ġpeace
lower
Ġdaddy
ĠOn
ĠLeo
ery
Ġsel
Ġshelf
Ġhidden
erest
Ġsuddenly
Ġwasn
Ġwrite
Ġlanded
Ġconfused
Ġring
Ġchange
Ġworm
Ġinterest
Ġchased
oop
Ġfruits
Ġsour
ity
Ġmyster
Ġbark
Ġrad
Ġsmooth
ĠCome
Ġadventures
Ġval
Ġstepped
Ġfle
ope
Ġoven
Ġtakes
Ġmissed
Ġselfish
kin
Ġsheep
Ġmessy
To
Ġacross
Ġent
Ġexp
to
Ġce
Ġlater
elly
ĠN
ife
Ġsticks
Ġtie
St
ever
ĠLuna
Ġstep
Ġbought
Ġdrew
Ġtea
pect
Ġban
irpy
box
?âƀƝ
Ġwash
Ġlay
Ġpour
Ġbeak
ose
Ġjog
Ġgrate
Ġducks
Ġspe
Ġlegs
ugg
Ġfil
ĠBu
Ġemp
mer
Ġhope
Ġempty
Ġslid
Ġfeather
Ġsleepy
Ġdrum
amed
ars
eth
Ġzoo
Ġpan
Ġphone
Ġgrateful
Ġfing
ions
Ġlemon
let
ĠCat
Ġclever
ĠMolly
Ġsmelly
Ġimag
Ġsplash
Ġinteresting
ĠJill
Ġsave
Ġchick
Ġcalm
Ġmed
Ġwatching
Soon
izzy
izz
Ġplate
Ġign
yard
Ġclouds
Ġbanan
Ġline
Ġfaces
Ġba
Ġact
Ġlift
Ġthough
Ġwolf
Ġbackyard
wel
Ġseemed
Ġdogs
Ġspray
Come
Ġprot
Ġwhole
Ġmot
Ġfancy
ĠDaddy
Ġquest
Ġarms
Ġpuzzle
Ġhealthy
Ġsupp
ward
Ġfinish
erly
Ġalong
llo
Ġrocket
Ġexplain
dge
Ġeasy
Ġjewel
ont
Ġpract
Ġjelly
ĠChirpy
Ġtid
Ġfake
Ġcrayons
Ġwondered
Ġmaybe
Ġscar
Ġship
Ġnothing
onest
Ġemb
iger
Ġpool
Ġlonger
Ġanyone
ĠBe
ĠJerry
ually
Ġfront
Ġworking
Ġgives
irr
Ġpack
Ġsuch
ĠBunny
ocked
ment
Ġbossy
ĠDoggy
Ġtrouble
Ġsmelled
Ġsaved
Ġpin
rass
Ġneigh
arrass
iting
Ġhonest
Ġav
arge
Ġembarrass
Ġvan
Ġforgive
Ġtidy
Ġweak
urse
Ġputs
unk
Ġkick
Ġshirt
ĠWith
Ġmind
ĠOllie
Ġneighb
Ġplants
Ġsol
ĠMomo
Ġgently
Ġcozy
orrow
ming
Ġexplor
sp
Ġmistake
Ġyog
oc
oomy
Ġpointed
Ġlad
Ġaf
Ġstood
ork
Ġonto
Ġwaiting
Ġjumping
Ġprince
Ġcross
Ġlock
Ġcheer
Ġqueen
ĠWhy
ĠMary
Ġwing
ones
we
Ġlarge
Ġlovely
ult
Ġsur
Ġret
And
Ġdeer
Ġchew
Ġcouch
Ġbal
aughter
Ġstret
era
ĠTheir
Ġplaces
ĠMy
Ġladder
oof
Ġreturn
raid
Ġants
Ġdish
Ġafraid
Ġcleaned
Ġtomorrow
Ġbuilding
Ġsandwich
Ġperson
Sally
ned
Ġpretended
Ġbounce
Ġwip
gest
Ġmatch
Ġrich
uce
Ġpizz
Ġgather
Ġsearch
Ġboring
oman
ĠSomet
Ġteeth
Ġhum
Kitty
My
aced
Ġdaughter
Ġwoman
Ġscarf
Ġgoes
ĠTogether
Ġlaw
Ġstra
Ġswimming
Ġfurry
Ġsplashed
Ġpri
Ġloves
Ġtrue
Ġscreamed
Ġlazy
Ġgen
Ġanswer
Ġnumber
Ġeag
Ġashamed
Ġpizza
aw
Ġappeared
Ġfear
Ġnearby
Ġpowerful
Ġflag
ĠSt
Ġhang
vous
Ġclown
ek
Ġchase
Ġmotor
Ġwand
ĠTV
Ġrub
Ġsuccess
Ġchocol
ĠIf
Ġcreative
Ġtrust
Ġwearing
Ġnoisy
Ġmatter
pa
Ġdig
Ġhello
Ġner
Ġtool
Ġsaf
ĠBird
ado
Ġnervous
elp
Ġtest
Ġsmiling
Ġsold
icked
oppy
osaur
Ġcircle
mb
Ġmap
Ġdrank
Ġclass
Ġtries
Ġchocolate
ĠPlease
Ġimpress
Ġknee
Ġgener
Ġdinosaur
Ġpolite
Ġmirr
ĠBobby
ĠTiny
Ġballoons
Ġgold
Ġrare
Ġprotect
Ġcand
Stop
Ġcarried
ĠGo
ensive
Ġap
Ġshadow
Ġmirror
ĠDon
Ġbald
Ġgun
ina
Ġexpensive
Ġreg
iff
Ġmysterious
ĠSp
Ġpump
Ġnote
Ġhero
Ġmarch
Ġhar
arl
Ġicy
Ġrespect
Ġweird
Ġsnee
Ġcri
Ġgate
Ġsoap
rag
ute
issors
Ġthese
Ġpoor
Ġtowel
Ġwhale
Ġfeet
Ġtape
Ġdizzy
itter
Ġgenerous
ndpa
Ġpres
ĠBenny
nic
Ġdisco
Help
ventually
Ġpicnic
Ġmic
Ġlead
Ġsque
Ġembarrassed
Ġjourney
Ġsugar
isp
scape
Ġboot
Ġtent
Ġpeaceful
Ġfat
ĠBear
Ġscissors
Ġtasted
Ġyelled
Tommy
Ġtick
Ġmel
Ġbrush
Ġdancing
ness
Ġglue
Ġhur
Ġrough
Ġclap
Ġbridge
ote
Ġdecor
Ġcloset
Ġcrown
Ġstir
ual
imp
Ġprint
ĠSometimes
owed
airs
ĠHow
ume
Ġcap
Ġlamp
Ġvase
Ġscare
lebr
Ġrelie
lves
any
Ġeld
Ġtele
Ġcelebr
Ġgigg
Ġwhisp
Ġlog
Ġsco
Ġblow
Ġpainted
ĠDucky
Ġpay
erries
Ġwis
Ġberries
Ġmixed
Ġspread
Ġwouldn
Ġcage
Ġbake
rob
getable
Ġmountain
Ġadm
Ġdrawing
Ġbecome
Ġfamous
Ġknocked
Ġbean
Ġnorm
Ġvegetable
asp
Ġkicked
ustr
Ġshark
ser
Ġincred
Ġlose
Ġnormal
Ġwrap
ced
Ġgroup
Ġthick
Ġ3
Ġfine
Ġglass
Ġignor
Ġclock
Ġteam
Ġelderly
Ġclear
Ġcorner
Ġfrustr
Ġmighty
robe
Ġcone
Ġincredible
ĠBr
ighed
Dad
Ġmoms
Ġbalance
Ġsock
Ġspace
Ġjam
ragile
Ġfright
Ġorganized
Ġbranches
Ġroar
port
Ġsword
alous
ĠMama
Ġguess
Ġfool
Ġsell
Ġfeed
ĠSome
Ġwhich
Ġhorn
Ġpresent
Ġjealous
Ġyarn
ony
Ġfragile
Ġburn
Ġunderstood
Ġmis
Ġstubb
Ġter
Ġfrustrated
Where
ray
Ġhose
cient
Ġspent
Ġshoe
Ġtaught
Ġstubborn
Ġtwist
Ġcreature
Ġchest
Ġspoiled
Ġrelieved
Ġancient
ique
Ġwake
Ġfier
Ġpray
Ġfierce
Ġeggs
Ġcab
Ġterri
Ġbarn
Ġpumpkin
Ġcomfortable
Ġord
ym
Ġfrightened
orry
Ġtoug
Ġunique
Ġmeasure
Ġgoat
Ġwagon
Ġunus
Ġbreath
Ġfoolish
Ġuseful
Ġexploring
dle
Ġstraw
Ġunusual
Ġdug
Ġclay
Ġdiscover
Ġtomato
ĠPe
Ġdead
Ġfinding
Ġpolice
Ġwrote
Ġclum
Ġexam
lace
Ġwaves
Ġsquare
Ġhears
Ġcabin
Ġtells
Ġnecklace
Ġdull
Ġclumsy
Ġtough
Ġbubbles
Ġnosy
kn
Ġsearched
Together
Ġwashed
Ġbathroom
Ġpaws
bby
ond
unn
anged
Ġboard
fic
known
Ġasking
Ġcrazy
Ġthankful
Ġsunf
Ġbitter
yal
Ġpir
berry
alk
Ġind
Ġdiffic
Ġrose
cil
Ġswan
Ġbloom
Ġunknown
ĠElla
Ġcovered
Ġdifficult
Ġadd
Ġpencil
Ġfinger
Ġham
Ġhoop
Ġjet
Ġwitch
Ġdrop
Me
Ġ'
Ġchicken
Ġgloomy
apped
Ġloyal
als
Here
Ġwealthy
com
light
Ġunl
Ġcats
Ġending
Ġguit
bled
shine
Ġdove
Ġjoined
Ġcher
anut
Ġmov
Ġterrible
Ġyours
iant
ĠU
ĠRex
Ġsalad
ĠAndy
Ġnuts
Ġrat
ground
Ġtiger
Ġpotato
Ġmask
xible
selves
Ġvalue
Ġchanged
Ġmoving
Ġexciting
ormous
ĠMany
Ġbody
ĠTr
Ġtoast
Ġrecord
erp
Ġzip
Ġdisg
Ġcheap
Ġguitar
irsty
Ġknowing
Ġadventur
Ġyourself
Ġenormous
Ġhairy
Every
Ġshoot
ĠBrown
Ġbored
Ġpepper
Ġremind
ory
land
Ġacorn
Ġadventurous
Ġsunshine
Ġsmaller
Ġstuff
Ġhats
Ġsolve
ĠJimmy
Ġflexible
Ġcost
rilliant
Ġknife
Ġperform
Ġsnacks
Ġnods
Ġshore
Ġbrilliant
Ġthirsty
Ġdelicate
Ġfrown
Ġdisgust
Ġcollect
Ġstri
Ġseeds
Ġcounted
Ġasleep
Ġbanana
reen
Ġmailbox
iness
Ġdough
Ġtrick
Ġneighbor
ungle
Ġheal
live
Who
Ġstage
ident
Ġmarket
Ġcube
Ġstat
Ġjungle
Ġsquee
mbre
Ġexplained
ates
Ġumbre
Ġdisgusting
Jim
fted
Ġlab
Ġjolly
Ġflash
und
Ġfridge
inal
pid
ilt
Ġcrane
corn
Ġsuit
Ġrh
iddle
Ġsunflower
Ġtimes
ĠAl
erpill
Ġcaterpill
Ġrelax
Ġshiver
Ġfour
Ġisland
iginal
Ġharm
ict
ĠWhile
ying
Ġstupid
Ġmedic
ĠInstead
Ġcomb
Ġgoose
Ġcro
edient
ĠWill
Ġstove
If
Are
Ġindepend
Mum
most
Ġspring
Ġgem
Ġbatter
Ġsighed
Ġvegetables
Ġstones
pes
Ġshine
How
Ġmedicine
Ġdepend
Ġrug
ĠYour
Ġcareless
Ġoriginal
Ġstamp
Ġgar
Ġcries
Inside
gu
Ġcarrots
Ġscr
Ġsuccessful
Ġsauce
Ġjeep
Ġpopcorn
Ġmeal
Ġobedient
Ġalmost
Ġmiddle
Ġmagn
Ġstudy
Ġindependent
Ġfearful
Ġjack
met
inky
Sorry
ĠSammy
Ġescape
Ġcaterpillar
Ġserious
Ġpeanut
Ġbedroom
Ġeager
aken
Ġgets
Ġparrot
Ġstatue
Ġhelmet
Ġpebb
ĠNo
Ġfountain
Ġraven
Ġang
Ġpasta
Ġumbrella
Ġcompet
There
Ġjacket
Ġbelonged
Ġdest
Ġfilthy
Ġdesign
Ġborrow
Ġcam
erable
Ġhouses
Ġprize
Ġhay
Ġbrace
Ġstanding
Ġmiserable
Ġraced
Ġtaken
ages
Ġfork
Ġcrayon
Ġpainting
io
Ġtriang
Ġimpressive
Ġchoose
Ġfig
Ġtied
iable
Ġspotted
Ġlifted
Ġslipped
ours
Ġtank
Ġthoughtful
Ġdependable
Ġsteal
Ġgarage
enny
Ġbuilt
Ġmush
Ġer
ipe
Ġmole
Ġcrawled
Ġscale
Ġboats
Ġpian
Ġpant
Ġhammer
Ġbottom
lph
Ġcheerful
Ġusing
Ġsmoke
Ġpicks
Ġmoder
berries
Ġshows
rn
Ġpiano
Ġmagnet
dile
codile
Ġhurts
inary
Ġref
Ġcrack
Ġeng
Ġaunt
Ġmelon
Ġwaff
Ġmodern
Ġdolph
unnel
cream
pack
Ġtunnel
oin
Ġarrow
Ġreliable
Ġhopping
Ġmushroom
Ġjug
Timmy
Ġsquash
Ġgum
Ġsink
Ġmovie
Ġtax
Ġflute
Ġbeet
Ġlean
Their
iv
Ġpopular
opter
icopter
Ġcryst
Ġones
Ġsil
Ġcompetit
Ġhelicopter
aser
Ġneeds
ipop
llipop
Ġcrocodile
Ġliz
Molly
Ġpress
Ġtroubled
Ġpige
Ġlocked
Ġtricks
Ġlollipop
Ġplayful
Ġhumble
Ġtaxi
Ġkissed
Ġlow
appy
comfortable
amond
Ġuncomfortable
Ġrid
host
Ġwander
atch
Ġangel
edy
cles
Ġtorn
Ġgrace
Ġanx
Ġwrapped
Ġmuff
Ġtwig
Ġpants
Ġdisappoin
ĠSn
Ġhelps
Ġdiamond
Ġcamera
atter
oto
Ġanxious
Ġghost
Ġtears
Ġruined
cident
ĠJenny
ilty
Ġquar
aff
ĠEven
Ġfis
opl
Ġbelt
eropl
Ġenv
Ġguilty
Ġbull
Ġaeropl
Ġhelpless
Ġhappiness
Ġlizard
Ġboys
cut
ext
Ġcere
Ġwalks
cean
Ġpassed
Ġmeant
Ġocean
Ġfluffy
Ġwire
Ġnail
Ġbracelet
Ġdeaf
zed
Ġstretch
Ġcandle
Ġcact
tt
Ġbeetle
Ġmop
Ġharmless
umpet
Ġordinary
Ġanswered
Ġcollar
Ġcop
Ġbees
Ġtire
Ġshape
Ġquarrel
Ġradio
Ġflashlight
Ġcrystal
Ġharder
Ġpoured
Ġtrumpet
Ġengine
Mama
Ġpersist
Ġhunt
Ġtooth
Ġcereal
Ġinvited
Ġcomput
Ġtag
Ġoffice
Ġmelt
Ġspill
Ġcharm
coa
Ġlit
Ġscoot
Ġcomet
Ġtriangle
ief
Ġmug
Ġrep
ube
Ġyogurt
Ġspend
Ġcompass
Ġaccident
Ġshade
hett
aghett
aghetti
Ġdisappointed
Ġlicked
Ġcactus
Ġpale
Ġcush
Ġfigure
Ġregular
Ġgiving
Ġavoc
Ġpro
Ġsheet
Ġwhispered
aze
uth
ellig
Ġcreate
Ġbarber
Ġintellig
Ġpipe
Ġrode
Ġroof
Jane
Ġthread
ither
Ġvi
Ġload
Ġlibr
Ġgifted
ccol
Ġpracticed
Ġdelight
ccoli
Ġharsh
asses
Ġpow
Ġdust
ĠTrue
Ġbicy
azz
Ġspaghetti
Ġcompassion
Ġsailed
urkey
ubby
Ġforward
Ġpersistent
Ġspeed
Ġmitten
Ġcocoa
Ġenvel
Ġquestions
Ġcomputer
Ġcoo
Ġfeathers
hip
Ġglove
ging
Bobo
Ġrice
Ġshrimp
Ġdesk
Ġstream
Ġinse
Ġpigeon
Ġcharming
Ġears
Ġcarp
lcan
Ġraft
Ġenvious
Ġknot
Ġturkey
Ġstronger
omes
Ġcoins
Ġtap
lcano
weet
Ġtrap
umbers
Ġaeroplane
Ġtrunk
Ġwheat
Ġboxes
Ġchubby
Ġcarpet
Ġrestless
Ġintelligent
Ġtube
Ġspun
Ġdreams
Ġfriendship
ulif
olin
Ġhalf
Ġloop
Ġcrawl
Ġbroccoli
Ġonion
Ġdeliver
anger
Ġacce
Ġvide
Ġvolcano
ĠJake
Ġsle
Ġtrack
Ġbri
Ġcaulif
Ġvine
ye
Ġticket
Ġthief
essie
cycle
Ġlouder
Ġinsect
Ġnumbers
asing
Ġyaw
Ġhaircut
ital
Ġsleeping
Ġmill
Ġeventually
Ġalert
Ġexcite
Ġpebble
Ġhosp
Ġattract
Ġplanet
ĠToday
Ġuniver
isted
ulu
Ġhospital
Ġeraser
Ġreturned
Ġdestro
Ġgraceful
Ġhappening
ache
ĠOK
ĠEmily
Ġdecide
Ġlearning
Ġscreen
rework
Ġnicely
Ġleop
Ġcauliflower
Ġcompetitive
Ġpoem
Ġcelebrate
Ġcurt
Ġpeach
Ġsoldier
Ġsaus
Ġparade
atient
Ġattractive
Ġcurtain
Ġdolphin
Ġbase
Ġviolin
Ġways
Go
ats
Ġtravel
ten
Ġrod
Ġignorant
ulb
Ġwheels
Ġyach
Ġscatter
Ġdeter
Ġcompassionate
Ġbarrel
Ġenvelope
Ġbubble
Ġlying
Ġfirework
Ġsort
Ġquestion
zzy
ĠPipp
Ġscooter
Ġdeterm
Ġrag
Ġthu
Ġbicycle
elery
Ġneedle
ĠFr
Ġjudge
Ġbulb
Ġleopard
Ġtem
Ġyacht
Ġpony
Ġcricket
Ġorder
Ġhomes
Ġador
tern
Ġtruth
Ġhook
dom
Ġrubbed
ete
igator
Ġbushes
Sarah
Ġuncle
Ġcushion
Ġspell
Ġgrown
Ġcooked
Ġadorable
Ġchalk
Ġsoar
Ġpurse
Ġskin
Ġthemselves
Ġimpatient
Ġcelery
Ġtray
Ġshells
Ġpengu
Ġsniff
Ġprun
Ġwalls
Ġseal
Ġlively
Ġcase
Ġalligator
Ġdistant
Ġradish
Ġsaying
Ġspeak
Ġmotorcycle
Ġmeat
Ġsend
illa
Ġspinning
Ġforth
Ġcounting
Ġenth
Ġbounced
Ġchain
Ġed
Ġcleaning
ebra
Ġfilm
Ġslept
Ġpit
Ġsurf
Ġmarry
usia
Ġwallet
Ġenthusia
Ġmetal
urb
ebook
Ġbin
Ġweek
Ġnotebook
Ġwiped
Ġskip
ision
chair
Ġbiggest
Ġimpro
Ġavocado
Ġbehave
Ġdestroy
vator
Ġbandage
Ġlaughs
Ġsteak
Ġpattern
ĠSh
Ġpost
Ġelevator
ĠBuzz
usie
Ġdive
Ġshut
Ġskipped
Ġunlock
Ġdiary
dest
ject
Ġzebra
Ġbags
ating
Ġarmchair
rage
aged
Ġdisturb
Ġoy
Ġpole
Ġshowing
Ġgathered
Ġclub
Ġnurse
bul
Ġearth
Ġenc
Ġstranger
Ġsweater
Ġjellyfish
Ġscrew
Ġtemp
ĠPoppy
Ġcompl
Ġmixer
Give
Ġskull
Ġlime
Ġbump
bulance
Ġambulance
nam
Ġfather
Ġjournal
Gra
Ġloudly
ito
Ġfolder
Ġshield
ĠBet
ĠLulu
Ġlibrary
ĠPeter
Ġbuttons
Ġplayground
Ġtrucks
Ġink
Ġlights
Ġtummy
Ġpointing
Ġcity
Ġdecorate
Ġstation
irit
Ġprep
Ġfalls
quito
ĠPolly
Billy
Ġfu
ĠFo
ention
nger
ĠBirdy
lies
Ġherb
nament
Ġornament
Ġmodest
Ġguard
Ġmos
Ġknows
Ġcord
Ġpolish
Ġmarble
oby
Ġmosquito
umbled
Ġsalt
Ġattic
Ġwhenever
Ġvest
ctop
Ġresc
Ġyet
Ġple
Ġdisappeared
ceed
Ġstrawberry
Ġonce
ĠMum
Ġkay
Ġbrothers
Ġitch
Ġpirate
Ġfootball
Ġsplit
kele
keleton
Ġhipp
Ġaut
Ġled
uring
ctopus
Ġdriving
Ġcable
Ġsupport
Ġcalling
Ġcupboard
aky
ushed
Ġwishes
Ġcomplet
Ġtripped
Ġroot
Ġkayak
Ġoctopus
obile
Ġadded
Ġedge
Ġmild
stic
Ġdetermined
Ġsucceed
?".
Ġreading
omobile
Ġcoal
Well
gl
utes
par
Ġsuggest
Ġstack
Ġthunder
Ġkindness
Ġautomobile
Ġcomplain
Ġenthusiastic
Ġsneeze
Ġcartoon
Ġyoga
ĠLittle
Ġgrowl
htub
Ġflea
la
Ġmeadow
Ġdrawer
Ġbathtub
Ġribb
ophone
Ġmeans
Ġhall
Ġgolf
Ġskeleton
Ġmath
Ġveil
Ġhunter
Ġgor
Ġflame
Ġpoke
Ġvideo
Ġchess
Ġtroph
Ġcups
Ġglowing
Ġmatt
Ġoyster
work
Ġpenny
Ġspear
Ġitself
Ġdrawings
Ġhippo
Ġrepair
Ġswitch
glasses
Ġsunglasses
Ġteleph
Ġcostume
Ġdess
Ġzipp
,âƀƝ
Ġrepe
Ġmuffin
Ġarg
Ġpastry
Ġpun
Ġrolling
Ġminutes
Ġpacked
Ġmakeup
iron
ric
ĠPeople
Ġwaffle
case
Ġhandle
Ġpear
Ġmaze
Ġtelephone
Ġpine
ait
Ġgear
Ġhedge
Ġmattress
Ġpackage
aving
ĠMiss
Ġshocked
ines
Ġtrophy
Ġpowder
Ġknight
Ġcob
Ġmissile
Ġmanaged
Ġframe
Ġencou
Ġwife
Ġok
Ġsepar
web
Ġstairs
Ġrot
Ġcamp
urch
rophone
Ġmagaz
Ġstrugg
Ġcolour
Ġgrapes
time
Ġfile
head
ĠTina
Ġbasketball
Bye
old
per
Ġcobweb
Re
Jimmy
ĠTweet
See
Ġperm
Ġwool
ĠDan
Ġmicrophone
esday
Ġeye
Ġleash
Ġgasp
iew
keep
Ġweep
Ġbarking
ature
Ġsafely
Ġtear
Ġview
ffe
Ġslides
Ġsteps
istol
ffee
Ġbananas
Ġstaff
Ġspirit
Ġtask
Ġgiggled
Ġhoc
Ġhockey
Ġvend
Ġthose
Ġgorilla
Jill
Ġcooler
ĠRose
was
cing
Ġearly
Ġmarched
rosc
Ġmint
ĠLook
washer
Ġflour
Ġhotel
hic
Ġsailor
Ġdessert
Ġphoto
roscope
Ġvehic
ilot
Ġoften
Ġchurch
ĠPete
Ġcooking
Ġremain
Ġfive
Ġsausage
otter
Ġten
Ġtools
Ġmedal
Ġeither
Ġfireman
chor
Ġgrandpa
Ġotter
Ġbaseball
Ġpretending
Ġpistol
Ġdishwasher
Ġrever
Ġorganize
Ġpee
Ġvendor
Ġknock
Ġsight
Ġgrill
Ġtemple
Ġbattery
Ġthinking
Ġopens
Ġow
Ġrealised
Ġiron
Ġlaser
Ġsne
Ġsandbox
Ġoil
Ġpatch
Ġhours
Ġrise
Ġwhip
'd
ctory
ĠGive
Ġanchor
Ġtrash
ense
Ġshort
ney
ĠBetty
Ġrhin
Ġfactory
seum
Ġmay
Ġward
ately
Ġcardboard
ugged
Ġlotion
Al
Ġmessage
Ġvalu
Ġwardrobe
Ġcell
Ġmuseum
apers
Ġur
ination
Ġhanging
ucet
ailable
ĠSunny
ĠZoom
Ġhive
eer
Ġtowers
keeper
Ġblackboard
Ġmem
Ġexcitement
Ġcoffee
Ġpilot
ready
Fluffy
Ġnapkin
Ġpenguin
ron
Ġcheck
Ġreward
loo
Ġquit
ĠPippin
Ġcane
Ġpicking
place
ĠSnow
azor
Ġfaucet
Ġig
Ġpassport
ĠRob
Ġstumbled
Ġdreamed
Ġigloo
ĠBessie
aroo
angaroo
Ġfreez
Ġjuicy
Ġallowed
play
Ġholds
Ġalready
Ġavailable
Ġsett
Ġbathe
Ġtornado
imney
Ġfingers
htray
Ġhanger
Ġnewsp
Ġsize
Ġlaund
Ġlend
Ġchimney
Ġlaundry
Ġoak
Ġfisher
Ġkangaroo
Ġmen
ĠEverywhere
Ġtelling
Em
Ġnovel
body
Ġmummy
Ġpal
Ġmule
Ġcherries
Ġnotice
Ġpractice
Ġspilled
Ġreind
Ġcomplete
Ġenjoying
Ġmicroscope
arian
ampoo
Ġgain
Ġsub
Ġfireplace
Ġimagine
anda
Ġdisplay
ocer
ĠZip
Ġfastest
Ġmagazine
Ġhurry
Ġcabinet
Ġshrink
Ġashtray
Wait
Ġcows
ĠSpike
Joe
gen
Ġpalace
Ġimprove
aches
Ġrake
Ġreindeer
Ġfalling
oceros
Ġskirt
ured
Ġdiscovered
Ġstared
Ġroared
aid
Ġsilver
Ġtub
Ġtrail
Is
Ġminer
come
Ġbill
iction
Ġfog
Ġax
stairs
ilet
Ġhut
Ġhappier
Ġtaller
ictionary
Ġoats
Ġfisherman
Ġobject
Ġpor
vision
Ġvaluable
Ġshampoo
Ġholes
Ġoffered
Ġboots
Ġrhinoceros
Ġnames
Ġtoilet
Ġclimbing
Ġblin
vice
Ow
Ġstretched
iest
Ġzipper
Ġlistening
Ġsym
Ġbathrobe
alend
Ġjewelry
ĠHere
Ġjokes
Ġtelevision
Ġprov
Ġcalend
Ġstops
Ġaxe
Ġjumps
Ġfuel
cu
Ġsparkly
Ġperfume
ĠSusie
Ġbury
bol
Mummy
lu
Ġpressed
ĠKim
reek
Ġrece
fa
ĠToby
Ġneat
Ġcreek
Ġpopped
Ġopera
Ġcalendar
Ġsnap
Ġgasped
Ġattach
Ġsymbol
Ġtuna
ĠMar
Ġpapers
Mr
Ġunpack
Ġresist
Ġdictionary
Ġsubway
Ġletters
Ġfreezer
Ġchose
Ġpinch
zag
Ġspoke
Ġanyway
Ġsuper
Ġporch
Ġhelper
affe
Ġbikes
Ġlie
arry
iches
Ġtightly
Ġcomfort
Ġshaking
Ġbookcase
Ġson
Ġrazor
aurant
Ġsandwiches
ĠAre
igzag
Ġweigh
Ġagainst
Ġstickers
Ġrestaurant
Ġnewspaper
Ġblouse
Ġvehicle
Ġswinging
Ġped
Ġdisag
Ġnature
Ġsquirrels
ival
Ġbelongs
Ġswamp
Ġbutterflies
Ġgym
del
Ġinclu
Ġgrowing
Ġbuckle
omed
Ġstirred
Ġmustache
Ġbillboard
xy
Ġbeep
te
Ġalarm
Ġlightning
Ġlip
Ġfest
Ġhung
utor
Ġdistance
ogn
Ġcards
Ġobser
Ġagree
Little
Ġext
Ġtease
Ġrecogn
Ġrubber
ik
Ġhate
fast
ef
Ouch
Ġdoesn
Ġmusician
Ġadvice
Ġbeef
Ġserve
aspoon
Ġsweetie
Ġmodel
lter
Ġcrib
Ġblueberries
Ġsofa
Ġcircles
Ġbreakfast
Ġtutor
asis
Ġbookshe
Ġgiraffe
stri
Ġfestival
Ġseparate
Ġshelter
Ġgas
Ġairport
Ġolive
Ġrail
Ġbookshelf
Ġfrogs
Ġteaspoon
Ġreverse
Ġjunk
Ġriding
Ġpleased
Ġdrain
ĠMrs
Ġwipe
Ġoasis
Ġsoil
Ġahead
Ġrescue
Ġleaving
ummer
Ġpainter
Ġsqueeze
Ġchance
Ġpoked
Ġknob
ĠTeddy
Ġpeeked
Ġlumber
Ġtrains
Ġextra
Ġslipp
Ġquiz
Ġrefused
res
rmomet
Ġpage
Ġrules
Ġhappens
Ġsounded
Ġins
Ġpoint
Ġwinter
Ġdancer
ĠGrandpa
Ġbirdc
Ġdisappear
rmometer
ĠDolly
Ġweather
Ġwaste
Ġlic
Ġbirdcage
Ġtheater
Ġreef
Ġcarrying
Daisy
Ġinvite
iform
Ġgoal
Ġostri
Ġuniform
Ġswung
Ġtrade
Ġcliff
ience
Ġlawn
ola
Ġleaned
ĠPandy
angu
Ġaccept
Ġadmire
Ġfort
Ġaccidentally
Ġpastel
bbles
Ġstom
Ġlangu
Ġtwir
Ġsuff
Ġpanda
riger
Ġbet
rigerator
Ġpeek
render
Ġblinked
Ġstarts
na
Ġrefrigerator
Ġanywhere
!".
Ġimagined
Ġdreaming
Ġremove
night
Ġshower
ĠLee
ĠCo
Ġclassroom
Ġceiling
Ġcaring
ium
Ġgrand
Ġmissing
aked
Ġlicense
Ġstable
Ġthermometer
Ġmonkeys
astic
Ġwarned
Ġsummer
ĠWhere
Ġabove
Ġbrick
ected
Ġcudd
Ġproblems
amber
Ġchasing
Ġlabel
Ġapron
Ġsent
urnit
urniture
Ġlawy
Ġlid
uggage
med
Ġrespectful
Ġfurniture
Ġfrowned
Ġzoomed
Ġpages
Ġprevent
Ġbent
Ġluggage
Ġmistakes
Ġsunset
Ġostrich
ison
Ġsuggested
Ġwindows
ations
Ġjail
low
Ġwine
Ġribbon
Ġolder
Ġshouts
Ġgrape
ĠCl
Ġwigg
ucture
Ġstructure
Ġspoil
eor
Ġfixing
Ġchamber
Ġlions
Ġdelay
Ġfinds
Ġhanded
Ġsearching
Ġunite
Did
Ġfought
Ġlawyer
Ġbrightly
Ġpair
Ġmeeting
Ġchoice
Ġsurprises
ĠEllie
Ġart
ĠUn
Ch
Ġfavour
eterin
eterinarian
adium
Ġstadium
Ġproudly
iki
Ġveterinarian
vet
rod
Ġchairs
Ġslip
ĠSpe
Ġsadly
ĠBow
Ġincre
ĠCarl
Ġpuddles
Ġberry
Ġintrod
Ġranch
veal
ĠBoun
Ġargue
ĠV
Ġadmired
Ġcur
Ġfavourite
Your
Ġinf
Ġexcitedly
Ġrac
Ġgrabs
mend
Ġsteam
thank
Ġhuman
eorge
sity
ĠHel
Ġpushing
Ġsaving
ĠRed
Ġreveal
ommend
alley
Ġyield
olog
Ġmall
Ġreminded
Ġrecommend
Ġleak
Ġsurrender
Ġharb
Ġappl
cuss
aul
Ġweap
Ġregret
Ġputting
Ġvalley
Ġmineral
Ġevening
elcome
Ġmatches
Ġforgave
Ġsneezed
Ġpup
Ġaw
Ġrushed
ecause
Ġspade
Ġapolog
Ġplates
Ġdiscuss
Ġprepare
Ġharbor
Ġignore
ĠBig
Ġcountry
Ġlanguage
ĠBuzzy
Ġpulls
Ġplastic
Ġsupply
Ġfloat
Ġsniffed
ĠJazz
Ġreplace
Ġmeas
Ġshovel
ĠBill
Ġraise
ĠNext
Ġfre
Ġcared
Ġsocks
Ġstrip
Ġdoors
Ġmystery
Ġlives
Ġrestore
Ġsticker
Ġsudden
ari
Ġkinds
Ġslippery
ero
ĠOw
Ġplayer
Ġpanic
ricane
Ġhoping
iday
Ġshone
lex
hero
Ġbeg
ĠMike
ĠBinky
Ġsuperhero
Ġdelighted
Ġgro
Yay
aud
chan
Ġchickens
Ġshoulder
Ġrained
Ġcolourful
Ġbreat
ĠAlice
Ġclaw
ĠBubbles
Yuck
Ġsoftly
rise
Ġport
Grandma
Ġhol
icer
Ġholiday
Ġâƀ
Ġbarks
ason
Ġthrowing
Ġplanes
Mary
Ġbend
ĠFreddy
Ġshakes
Ġinfant
Ġended
Ġshivering
Ġkneel
Ġsunrise
Ġpushes
ĠOlive
Ġthanks
Ġfresh
Ġsuffer
Ġpoints
imed
wards
ĠPat
Ġtip
ĠSpeedy
Ġfreeze
Ġkeeping
ĠWould
Ġgiggle
Ġcopper
Ġsmells
Ġdear
Ġenter
Ġprovide
cast
chanic
Ġdishes
ĠEnd
cond
Ġunh
Next
Ġapplaud
Ġheads
Ġhurricane
Ġcherry
Ġthumb
Ġmenu
Ġmeowed
Ġmass
Ġsecond
Ġbrighter
ince
Ġsandcast
Ġmechanic
Ġwre
Ġsprayed
Ġletting
Ġevent
Ġweapon
Ġlaught
Ġx
Ġlaughter
Ġclapping
Ġfeelings
Will
icky
Ġsplashing
ement
ĠOr
acked
Ġcastles
ĠFl
cer
Ġscore
apping
Ġuniverse
Ġnavy
Ġdem
Ġsticky
ophie
Ġrooms
Ġrow
Ġflies
igi
ĠDave
Ġunhappy
Ġgreedy
Ġdare
Ġalive
Ġbreaks
Ġener
Ġcourage
Ġinvit
Ready
Ġrepeat
Ġdemand
Ġtrusted
Lisa
Ġsomewhere
arlie
Ġprune
bles
Ġwreck
ĠY
Ġskill
Ġexamine
Ġparts
year
Ġeaten
oe
All
erc
enry
Ġmention
Ġraining
ĠHelp
Buddy
Ġthrows
Ġjogged
quest
Ġstarting
Ġrush
Ġpoison
Ġpirates
heart
Ġvac
Ġcontent
Emma
ĠKiki
Ġsigh
Ġflapped
Ġdrops
Ġchirp
Ġsport
Qu
Ġsparkled
ĠZoomy
Ġgiven
Ġstreng
Ġsteel
Ann
Ġbumped
Ġyawned
Ġstud
Ġrequest
Ġscold
Ġmyself
Ġstrength
Ġshrugged
Mark
Ġcoats
Ġpunish
Ġequ
Ġsnugg
Ġuniversity
Ġpaid
ĠJohnny
Ġpigs
Ġscratch
Ġtoe
Ġexerc
Ġtracks
Ġupstairs
Ġprayed
Ġcrossed
Ġsqueezed
Ġimpressed
Ġflood
Ġbouncing
ĠRu
Alice
Ġrabbits
ges
Ġbadly
..
Ġwarn
Ġleather
Ġexpect
Ġnews
Ġtide
ĠTed
Ġminute
Ġbears
Ġclaws
Ġbuzz
Ġsweetheart
ĠSm
yth
Ġnation
Sh
ythm
Ġvacation
Ġhist
Ġheat
Ġstrawberries
Ġobserve
Ġexplored
Ġsettle
Ġsandcastle
Ġyawn
Ġhistory
ĠLilly
ĠLola
mare
ĠMummy
ĠSque
ially
inking
Ġbelieved
Ġhorses
Daddy
ĠHoppy
Ġchecked
ĠMandy
Ġtour
Ġnetwork
Ġcheek
ĠUnder
Ġoffer
Ġeasily
Ġplaced
spec
Ġspots
Ġsnowball
ween
men
Ġenergy
ĠBee
Ġimagination
Ġblueberry
otten
Ġbetween
specially
ĠGigi
izes
Ġdaisy
Ġwaving
reeze
reat
Ġvroom
Ġsoak
Ġsafari
Ġrhythm
Ġmassage
Ġstomach
Ġbaking
quake
Ġnightmare
Ġinsisted
Ġblowing
Ġentered
Before
Ġstair
Ġpalm
Ġbeauty
Ġtwisted
Ġbother
Ġwriting
Ġscoop
Ġprunes
Ġbrain
Ġing
ipment
Ġpoppy
Ġhills
noon
Ġafternoon
Ġequipment
Ġespecially
hest
Ġsir
Ġpad
ĠSee
Ġingred
Ġcalls
Ġingredient
ĠFox
Ġearthquake
Ġignored
ĠSnowy
Ġburned
Ġnobody
mble
Ġsty
apa
Ġsew
Ġtug
isty
xygen
Ġhearts
Ġlear
Ġlearnt
Ġlemonade
Ġincrease
illie
Jenny
Ġgaz
Ġbackpack
Ġmailman
Ġwhistled
Ġpedal
ĠSk
Fred
Ġshopkeeper
ffic
Ġpermit
Ġtremble
Ġyucky
anges
Ġmoves
Ġintroduce
Ġlemons
Ġcrash
Ġbeans
Ġfloated
edn
ednesday
ittens
Welcome
Ġplanned
Ġstrike
Ġtraffic
Ġinclude
Ġslap
Ġracing
ĠLucky
resses
Ġwisdom
Ġpur
Ġwags
ĠFinny
laimed
ĠGeorge
Ġluck
Ġfollowing
ĠĊ
Ġprice
ecting
Ġmama
Ġpitch
Ġbelow
ĠElly
ĠHave
Le
Ġweight
Ġexclaimed
house
Ġburied
Ġfollows
Ġcomf
Ġrecognize
Ġingredients
Ġfurt
tain
Ġcandles
Mimi
Ġmarbles
riage
unday
emember
eration
ĠAlex
Ġapart
ĠWednesday
Ġgrowled
uct
ĠSu
ores
Ġconf
Ġteaching
Ġhopes
Ġfolded
Ġclosely
ĠFinn
ĠWho
Ġheel
ĠSunday
Ġencourage
ĠPaul
ĠOwl
Ġzigzag
Ġpulling
Ġdigg
Ġbouncy
Ġfurther
Ġchewed
Ġdigging
Ġwinning
Woof
With
Ġdresses
Ġimage
rec
cery
Ġshouting
Ġgrocery
Ġtwisty
Ġpeanuts
Ġpuzzles
bbing
ĠDog
look
Ġscrat
Ġchores
Ġwhisper
ĠIs
Ġspike
ĠFroggy
Ġcape
Ġsnail
Ġacorns
Ġworms
hood
Ġdeeper
Ġurge
ifi
Ġexper
ĠWhenever
ĠTilly
ĠSqueaky
ĠGrace
Ġplanted
Ġattention
ecture
Ġexercise
ĠDanny
Ġcub
Ġoperation
Ġunderground
Ġhon
Ġagre
Ġquite
Ġcreatures
Ġsimp
Everyone
Ġstruggle
oral
ĠMittens
ddy
Ġblood
Ġlecture
Ġwashing
Ġhurting
Ġvanished
Ġgifts
Ġdressed
Ġinvitation
Ġsolved
Ġlicks
Ġsnuggled
ĠSharing
ippy
Ġble
Ġmarriage
Ġquietly
gie
Ġwarning
Ġjazz
Ġbreathe
reci
Ġelephants
Ġsizes
Ġdried
Ġfallen
Ġlandscape
ories
Ġsprink
Ġneighbour
Ġmice
uesday
Ġappreci
ĠSophie
ĠJoey
ĠâƀƓ
Ġeagerly
Ġsailing
ĠCoco
Ġpaused
ips
Ġcounter
ĠGood
ĠBounce
ĠPenny
Ġworth
looking
ĠRock
Ġoxygen
Because
Ġrelease
Ġshined
Not
pted
Ġreaches
Ġbalan
ĠZara
isses
Ġoh
Ġkisses
Ġstyle
Ġbricks
Ġplays
Ġglo
ĠTuesday
Ġideas
sed
Ġinst
Ġwob
Ġfireworks
Bella
iggly
ucked
Ġseeing
Ġflap
ops
Ġaccepted
right
ĠPip
Today
Ġblink
mm
ĠRos
Ġtremb
These
Ġmuddy
Ġmemory
Ġmarried
Ġtomatoes
Ġexit
ĠAnnie
Ġwagging
Ġfash
Remy
ĠCharlie
Ġwandered
unately
ipping
Ġgloves
Ġcaptain
Ġpillows
Ġreceive
Ġresp
ĠPinky
raged
Ġduring
ĠEverything
etch
Ġweb
Ġpetals
Ġwatered
ĠEventually
Ġsi
ived
Ġmanage
Ġpinched
Ġbrings
Ġvanish
Ġcakes
Ġfashion
ĠBluey
Ġprinter
Ġdestroyed
Ġtreasures
nce
Ġallow
ups
Ġhadn
Ġworse
ĠFifi
Surpr
Ġvel
Ġhits
Ġbur
xu
Ġvelvet
Ġappear
Ġdisagree
do
Ġcatching
Ġscattered
ĠRo
Ġmemories
Ġsorts
ĠPapa
Ġhers
Ġscolded
Ġsigns
Ġpears
Ġoranges
Ġbones
Ġrang
Ġsnapped
Ġsits
Ġseats
uxu
Ġgazed
Ġraised
Bl
ĠMaria
Ġzipped
Ġpies
Ġprints
Ġshot
Ġsliding
ĠGod
Ġfro
Ġeasier
ssible
Ġskills
Ġclimbs
Ġtwirled
ccer
Ġblankets
Ġforgotten
Ġbaked
ester
Yum
esterday
Ġdifference
orted
Ġluxu
Ġgolden
ising
Ġkitty
ĠTw
Ġcutting
Ġseason
aggie
Ġnowhere
Ġcrow
ah
Ġsoccer
Ġdared
Ġbites
ĠHenry
ĠHarry
anny
Ġlung
Ġcelebrated
choo
chie
Ġstraight
Ġunlocked
sters
Ġsorting
Ġcollected
Ġbleed
aped
ding
Ġwelcomed
Ġvisited
Ġspoons
Ġours
Ġstitch
Ġjogging
Surprise
medi
Ġemer
ĠSpark
mediately
Ġisn
Ġtong
Ġtrave
Ġwinner
umble
Ġsince
Ġruin
Ġprett
Ok
Moral
ĠTony
Ġattached
Ġweeping
Ġmarching
Ġluxury
Ġsimple
ĠEach
Ġshouldn
Ġguessed
Ġzero
Ġcreated
Ġstuffed
Ġpets
ction
Ġwaist
Ġfamil
Ġurged
Ġbowed
Ġselling
Ġfloating
rr
ĠSmith
Ġbye
ĠKing
Ġvict
Ġkingdom
Ġolives
Ġkicking
ĠWiggly
Ġpunished
ĠLiz
ĠBaby
sit
Ġtoes
Ġgrant
Ġmuscles
Ġjewels
ĠRosie
Ġbeds
Ġmelted
Goodbye
Ġslice
Ġgrin
Ġunderstanding
Ġcollection
Ġtore
Ġmeasured
aker
Ġcras
omeday
iers
Ġtrapped
Ġlined
've
Ġacted
fortunately
Ġencouraged
va
ĠSandy
Ġreceived
Ġwaffles
ĠBefore
ĠWally
Ġwest
Ġmeow
ents
Ġpatterns
rin
ino
Ġbrus
eath
Ġmouths
kins
Ġbang
ring
ĠKate
Meow
Ġpeaches
Ġbreeze
aded
une
Ġprinted
Ġsoldiers
Ġsomeday
Ġpotatoes
Ġpupil
umes
ĠMillie
Ġdrinks
Ġshed
Ġexperience
ĠTuna
Ġpresents
Ġfiref
ĠRuby
Ġsurround
Ġnone
osed
Ġvoices
eep
Ġdrinking
ĠUncle
ishing
Ġrelaxed
Ġvictory
cus
Ġpaints
Ġbreaking
eve
Ġhurried
ission
Ġtwink
Ġtongue
Ġcostumes
Ġflat
Ġmentioned
Ġbegged
Ġteasing
Ġwhistling
Ġfetch
Ġpermission
Ġsip
Ġdisagreed
Ġpearl
akes
Ġstro
vest
ĠThese
Ġesc
Ġappro
Ġskipping
Ġfishing
ĠMay
Leo
Ġhighest
Ġpra
Ġwatches
Ġsorted
Ġringing
ship
Ġtonight
ĠBo
Ġopin
Ġlets
icing
ĠQu
Ġperfectly
Ġshadows
Ġimmediately
Ġherbs
Ġwarmth
Ġspit
Ġremained
ther
ĠIts
walk
Bobby
irring
Jen
Ġsneak
Ġsix
Ġlips
Ġkneeled
Blue
Ġcontest
ĠChe
utter
Ġcartoons
Ġsidewalk
Ġcolours
Ġstamps
Ġago
Ha
ĠToto
ĠBoo
ĠFollow
Ġeast
Ġheaded
oved
",
Ġstrang
Ġladyb
Ġfed
Ġsupposed
Ġroots
Ġlick
Ġcrunch
Ġmixing
Ġworks
Ġdecorations
Ġmelting
Ġknown
Ġemergen
Mandy
Ġrested
ĠAb
Ġlines
ĠSuzy
Ġlily
ĠJul
Ġinstr
Ġlaid
ĠGr
Ġsucceeded
Ġcones
Ġwiggle
ety
sing
Ġshock
Ġsetting
ĠSlow
Ġstudied
Ġstrangers
ĠRocky
Really
Ġtwigs
Ġbrid
Ġtheirs
ĠDr
Ġgirls
boo
!",
Ġscreams
Ġlands
Ġordered
Ġstirring
Ġmoments
Ġfields
Ġalright
Ġstealing
ded
Andy
Ġrul
Ġbravely
avid
ĠBoth
Ġmister
!'
Ġinvest
Ġscratched
Ġplaytime
Ġripped
Ġinvestig
Ġtucked
Ġresting
Ġburning
ishes
ĠClara
ĠChicky
Ġbridges
Ġofficer
please
Sammy
Bird
abies
Ġsettled
Ġmatched
Ġachie
Ġtex
Ġtexture
Happy
Ġwaits
Ġturning
ĠSky
Peter
ored
Ġtrembling
isten
Ġnails
atie
Ġmuffins
ĠSomeone
ids
Ġescaped
ĠJames
Ġpiles
Ġinvestigate
osity
Ġbroom
Ġladybug
Ġsore
ĠPepper
Ġappreciate
Ġadmir
Ġthreat
Ġbabies
Ġsilence
Ġsisters
Ġemergency
Ġarea
ides
Ġdads
Ġanswers
Ġpupp
Ġkeys
Ġchewing
Ġslapped
Ġwiz
Ġimportance
Boo
Ġserved
ĠHop
Ġsafety
izing
Bu
Would
Ġsparkle
Ġtouching
ĠLater
Ġsoared
igail
Ġsings
Ġhen
allen
Ella
bers
antly
Momo
ĠDino
Ġkeeps
Ġamazement
Ġchallen
Ġtwin
Ġhesit
Ġrevealed
anna
achel
Ġitem
Ġdire
Ġsoaked
zing
Ġwrit
Ġfoods
Ġrides
Ġdinosaurs
Ġrecorded
Ġtickle
Ġinch
ĠZigzag
ĠMe
Ġwizard
Ġvet
Ġtrips
Ġglowed
ĠAn
ĠFrog
Mmm
Ġhi
Ġbeamed
Ġquack
Ġcurled
Ġhated
Ġwink
Ġshopping
Ġeats
Eventually
ĠBug
Ġpraised
Ġwooden
Ġbringing
Ġmittens
Ġstudying
Ġguy
Ġbrushes
Ġspaceship
Ġgust
Ġcrawling
ĠSomething
Cat
Ġruler
Ġflav
Ġdownstairs
Ġshooting
Ġtastes
Ġnapping
Ġsprinkles
Ġmarks
Ġcuddled
Ġdot
hello
plash
Ġfut
ales
aved
Ġfuture
Ġmonsters
Ġcollecting
Ġmeasuring
ĠHappy
'.
Ġfamilies
ĠOut
ĠFirst
ĠMo
Ġthrill
Ġoat
irts
Ġresult
Jake
Ġapproached
ĠRabbit
Ġcrunchy
act
Un
Ġremem
Ġbleeding
Ġremembers
Ġnicer
Ġbeat
Ġsneaky
Ġdisturbed
Ġleader
Ġscaring
Or
hind
Ġpeel
ĠHope
Ġfiremen
Ġneighborhood
ĠStar
Ġgrey
ĠNot
Ġmotion
Ġnoon
Ġpossible
Emily
Somet
Ġapologized
Ġweighed
ues
ĠDid
Ġtickets
Cl
Ġnaps
Ġloose
Ġpride
Ġyouth
Ġswims
ped
Ġstrings
Ġrecognized
Ġsiren
Ġpoking
fied
ĠHo
cious
ha
elvet
Ġtricked
Ġwonders
Ġgained
Ġwanting
Ġcrashed
Ġobe
Ġseesaw
Ġworker
unnies
ls
oming
Ġdraws
Ġscooped
.'
Ġzooming
Ġopinion
Ġyelling
Ġprepared
Ġgrinned
ĠSlowly
Ġawe
Ġpoems
Ġdoggy
Ġacting
ĠBeep
Ġhappiest
Ġchef
Ġsneaked
Ġrespons
Ġeff
ĠAlways
ĠLizzy
Ġowned
Ġbunnies
Ġanytime
Ġstruck
Ġpedals
oys
Ġknelt
ena
Ollie
Ġsecrets
Ġpause
Ġdecorated
Ġhorns
Ġagreement
ĠSqu
ided
Ġfrost
Ġtallest
Ġobey
Remember
riends
ogo
ĠStop
Have
Ġdecides
ĠOnce
Ġbehaved
Ġtugged
Ġsides
Ġwoof
Ġslim
zen
Ġgoodnight
Ġkeeper
Ġsparkling
Ġchirped
Ġprecious
mother
lier
ien
Tr
Ġrepeated
Ġclaps
indy
affes
Ġsnowballs
Ġcontain
ud
rs
ĠRay
Ġourselves
allow
Ġgiraffes
Ġbalancing
Ġkindly
Ġspending
Ġwrites
ays
ppers
ĠLike
omas
Ġprop
Ġhissed
First
Ġfrozen
Ġfrosting
Ġeffort
Ġbuzzing
Ġstruggled
oh
ĠSteve
Ġadmiring
Ġrele
iggy
Ġsweeties
ĠVelvet
Ġslimy
Ġbrushed
Ġbloomed
Susie
ĠAm
Ġpolished
ĠZoe
arth
anted
Ġcomfy
Ġboo
Ġstaying
Ġrubbing
Ducky
Ġrocking
Ġpockets
Ġthrilled
Ġbeside
Ġcomple
ĠAunt
ĠMaggie
Ah
Ġeight
urry
isdom
Ġmachines
Ġearlier
Ġyesterday
Ġseems
Ġrust
ĠKeep
Sp
Ġtraveled
Ġfolding
Ġboom
Ġcracked
ities
Ġhugging
Ġradishes
ĠStitch
Ġopening
Ġloving
Ġcircus
Ġsurrounded
Ġcuriosity
ĠRachel
Ġspraying
Ġdemanded
Ġpaintings
amie
ĠGreen
Ġremoved
Ġgaze
Ġhonk
Ġpebbles
Ġzookeeper
Ġhardly
Ġcatches
edding
Ġsting
Ġstripes
Ġpowers
Ġloaded
ĠPippa
Sometimes
Ġsplashes
Ġpots
Ġpetted
Ġmatching
ĠDavid
Thanks
Ġtoss
Ġstare
Ġbelly
Yummy
ibb
Ġwhatever
Ġapologize
Ġrocked
Ġcomforted
ĠBree
Ġdecision
Ġribbons
ĠJoy
ĠBirdie
ern
Ġstruggling
Ġexpected
Ġdeser
Ġsteep
wh
Ġprotected
Ġneighbors
Ġsmiley
Ġchases
During
Ġgranted
Ġcrumb
ĠMat
Ġpurred
Ġdiving
Ġsadness
Whiskers
Ġorganizing
lowers
Ġeagle
Ġheroes
Ġdipped
Ġsunlight
Ġlied
Ġpastels
ĠFrank
Ex
Ġsafer
Ġroads
Ġscru
Ġargued
ĠMilly
Ġgoals
ĠWater
Ġdiscovery
ĠAbigail
Ġvillag
Ġpeered
Ro
ĠBouncy
use
ana
loe
Ġtim
Ġdragons
Ġbuildings
Ġbuckets
Ġparties
Ġbeard
Ġwedding
Rex
Ġflutter
Ġplanets
Ġann
ĠRobby
Ġpolishing
Ġfasc
ira
Ġreleased
ĠChr
Ġcrabs
ĠGogo
Ġtails
ĠWatch
Ġsausages
ĠJu
Ġargu
Ġcontro
Ġbottles
Ġwiggled
Ġteased
uke
Ġarguing
Ġsled
Ġdragged
Ġpadd
ĠCar
Ġroaring
Ġclearing
Ġshirts
Ġmovies
Ġgathering
Ġairpl
Ġwid
joyed
Ġteaches
Ġspiders
Ġlimes
ĠRemember
ĠDare
Ġoverjoyed
Ġactually
Ġsighs
Ġcontinue
Ġcuddle
Ġsoaring
Ġsmallest
ĠJess
Ġdrives
Ġsparkles
Ġrip
Ġsitu
Ġcubes
Ġrefres
Ġtalent
Ġchallenge
ĠOlly
Ġgrandmother
ĠSplash
Ġpouring
umm
Ġpretends
Ġfascin
Ġcuts
Ġquarreling
Ġpeppers
Ġbank
Ġshivered
Ġmane
Ġdusty
ley
Ġwondering
Ġvillagers
Ġstretching
njoy
ib
Ġweeks
Ġwherever
Ġdarker
jam
Tiny
sses
ĠX
Ġrings
Ġonwards
ĠKatie
Ġunited
Achoo
Ġbead
ĠEveryday
ĠBeing
Ġprettiest
Johnny
Ġcaut
Ġrealize
Ġcompany
Ġpenguins
annah
Luna
Fr
ĠSpring
Ġbedtime
Ġcompleted
ĠWisdom
ĠLeave
âƀƝ.
Ġknights
Ġflags
ĠJe
ĠBecause
Ġplayroom
ĠPrin
Ġactions
ĠZero
Ġlearns
Ġgotten
Ġpatience
inda
dam
Ġshrug
Ġkites
Ġresponsible
Ġfears
Ġdestination
Ġwires
Ġreply
Ġwrist
Ġdam
aws
Ġpacking
Ġmountains
Ġfault
Ġapplauded
Ġscrubbed
Ġma
Ġcrept
ĠAva
Uh
ĠEarth
Ġsatis
Ġthird
Ġphot
Ġpencils
Ġwins
Ġsticking
Ġbaker
Ġvisiting
Ġwound
Ġuses
Ġpeas
Ġreminder
Ġcontrol
ashed
Grandpa
Ġjoking
Ġawake
Ġinstruct
Ġstaring
Ġhealed
ĠPut
Ġhitting
ĠFish
Ġscreaming
Ġbegin
Rob
uckily
ĠFriends
ĠMoo
icorn
Ġhelmets
enty
Ġunicorn
ler
seek
Ġtowels
Silly
ĠLou
Ġchips
ica
Ġcreation
Ġwasted
bie
Mar
ĠBehind
laire
Ġmasks
Ġitems
Ġforgi
Ġfirefight
Ġoutdo
Ġlollipops
Watch
Ġheav
Ġguns
Ġdied
ĠHippy
Ġseas
Ġglitter
uddles
Ġarrive
Ġweren
Ġstole
Ġscales
Ġperched
Ġaccom
Ġlogs
Ġachieve
die
Ġpracticing
ining
Ġwhose
Stay
Ġpumpkins
Ġinstructions
Ġswoop
Ġbatteries
Ġcandies
Ġagrees
Ġproject
Ġsnakes
Ġchirping
Benny
Ġshelves
Ġprotecting
Ġparked
Ġexact
ĠCra
Ġpatiently
Ġactiv
Ġvideos
Ġshoulders
Ġblows
hee
Fo
Ġpromises
go
Ġdent
usan
uest
ners
jamas
Ġexamined
Ġairplane
Doggy
Ġroses
Ġaccompl
Ġtasks
Dave
ĠHoot
Poppy
ĠBop
Bunny
Ġbeads
Ġbowls
Ġcrumbs
zes
Ġlistens
ĠLove
ĠCatty
ĠBrownie
Pete
ĠOl
Ġdolphins
Ġcough
Ġbunch
Ġguest
cakes
Ġrequested
Ġremote
Ġimproved
anta
Ġreaching
Ġbrand
ĠJan
ayla
Ġalien
ĠBye
irm
Ġcopy
ĠSun
Ġcheering
Ġphotos
ĠJulie
ĠChew
Bad
ĠBlink
Time
Ġcans
ĠCuddles
Ġtimer
ĠBy
Ġreplaced
athy
Ġworkers
Ġstern
ĠEnjoy
aster
Ġneither
Mike
Ġpassing
Ġmisses
Ġcurtains
Ġconfl
Chirpy
Ġrainbows
Ġrubs
George
uctantly
Ġrolls
Ġpatted
ilo
Ġpajamas
Ġoutdoors
esome
dies
Ġcomplaining
ĠSquirrel
Lola
Run
Ġpuppet
ĠPrincess
Ġcloses
Ġbeneath
Ġlap
Ġdrums
Ġtune
ĠBeth
ĠMouse
Ġfilling
Miss
angled
Ġrefuse
ĠSorry
Ġsweat
Ġfaced
...
Ġseven
Ġbalanced
Ġrescued
neath
bl
Ġquacked
ĠAbby
Paul
istle
Ġawesome
Ġ1
Ġmission
ĠHowever
Ġguys
Ġconflict
Ġcautious
Ġvent
Ġobserved
Ġcause
Ġintroduc
ĠThomas
Ġpastries
nie
ĠĠ
ĠOur
Ġexactly
Ġdoctors
Ġrule
Ġbecoming
Ġpoliceman
Ġmes
uly
Ġrockets
you
ĠYes
ĠDot
Ġfairies
lay
Ġpout
An
Ġinsist
Ġblooming
Ġtractor
Ġfarther
ĠSad
avi
Oops
Great
Ġremembering
Ġincluded
Ġcurly
Zoom
Fine
Ġteamwork
zie
Ġfascinated
Ġwobbled
Ġslam
Ġtruly
Ġhelpers
Ġsights
Ġpaddle
Ġstumble
Ġfirm
Henry
ĠJilly
acob
Ġcaused
Ġprayer
Ġspong
Ġrecording
kelly
ais
Ġtraded
Ġstarfish
Ġsupplies
Ġthro
Ġpointy
Ġsituation
Ġinviting
eah
gers
Ġneighbourhood
Ġeveryday
Ġornaments
ĠAlly
inkle
Ġvalued
Ġadding
Some
Ġreluctantly
Ġdots
Ġstays
Ġtables
Ġprettier
Ġbare
Ġdesert
Ġsnowmen
Ġsteady
Ġminerals
araway
Ġthorn
ody
Ġast
Ġglasses
Ġfaraway
ĠGet
ĠFoxy
Ġswooped
ĠWelcome
ĠTwo
ĠSure
Ġunf
Ġforks
Ġusually
Ġusual
Polly
Ġdar
ĠJamie
Ġwinked
Ġsneezing
Ġsolut
Ġloading
Ġsponge
ĠQuick
Ġinsects
Ġpans
Dog
Ġsobbed
ĠSanta
James
Ġgrowling
sm
arter
Ġthroat
ĠChloe
Ġnoses
ĠJosh
ĠDizzy
Ġscarves
Ġconfident
Ġyourselves
ĠWant
agull
Ġhomework
Ġsuperheroes
ĠStay
Joey
Ġsmarter
Ġwindy
Ġlibrarian
Tina
ĠKids
Ġgems
Days
ora
Ġunderneath
Ġkicks
Ġknowled
Ġitchy
Ġknowledge
Ġjackets
ĠSkelly
ĠFor
Ġsurface
Ġuntie
Ġcomm
ĠDuck
Ġprincesses
..."
Those
ido
eed
Hold
Yeah
coon
Ġsquares
ĠHenny
Ġwarnings
Ġgiggling
iar
Ġreads
vin
Our
Ġchoo
son
Ġyounger
Ġclowns
ĠMix
Toby
Ġropes
Ġbiting
Ġcrowd
ĠUnfortunately
pite
Danny
True
Ġseagull
Ġpaddled
Ġwears
Ġdelivered
ĠMon
Ġtwirl
Ġonions
Ġbuzzed
Ġcomplained
Ġbumpy
Ġstem
Ew
Ġpiggy
Mrs
ĠAnne
Ġdirection
ouch
Ġdived
Roar
Ġtangled
Ġstartled
ults
Ġleaning
bbie
ĠAnt
ĠJones
Ġbadge
ĠPo
Grace
Ġunp
Ġdeal
though
Annie
Ġvowed
Ġnapkins
anes
Ġtickled
Ġrisk
Ġcovers
Ġpec
Shh
Ġyells
Ġsatisfied
int
Ġknocks
Ġrefreshed
tuce
ĠSc
cuse
Ġcous
Ġarrows
Maggie
ĠWhistle
Pe
Ġwipes
Ġspeaking
Ġlettuce
Ġguessing
Unfortunately
ĠQuack
Ġripe
ĠSusan
Ġhides
Ġchoices
ĠDodo
ĠRover
Buzz
Ġsigned
Ġslower
Ġseeker
Ġintroduced
Ġsinger
Ġcreating
ĠMatt
Ġfroze
Ġcent
uggles
Ġjoked
Ġsqueal
Ġtoaster
Ġexplorers
fit
Ġavo
anging
Sophie
Ġpraying
Ġwritten
Ġdiscovering
Ġprovided
ĠDara
Ġrefle
ĠLion
Excuse
Ġmushrooms
ĠJeff
ĠPaws
Ġpaying
Ġknees
ences
Ġhider
Ġwandering
ĠAsh
Ġimages
Charlie
Ġstung
ĠWink
Ġmagnets
Ġbarely
Ġbehaving
Ġtipto
?",
Ġmarked
brush
rrr
Ġrestored
ĠDee
Ġleading
lled
Ġchuck
ados
Ġnine
Ġgreet
Teddy
Ġgears
Ġbravery
ĠSnuggles
ky
Ġcompetition
eal
Ġoutfit
oline
Ġwishing
Ġproperly
Ġventured
tle
aa
Ġmuscle
Ġdances
Ġchat
Ġsalty
Ġpens
amb
ĠBetsy
Ġranger
ĠZiggy
Ġdeserve
Ġhowever
sequ
Ġmatters
Ġdarkness
Ġburst
ĠFu
Ġrainy
Ġcobwebs
Ġruining
Ġchefs
Ġconsequ
Ġblocking
Ġbak
usted
itely
sty
Ġscur
Ġvines
Ġfab
abel
Ġfabric
Ġentire
Ġbasement
Ġperformed
Ġleast
ĠBuggy
Sn
Ġscratches
Ġheavier
ĠClaire
Ġmints
Ġtwirling
Ġavocados
However
ĠLinda
rink
fl
Ġscurried
Ġlosing
Ġsunflowers
ĠJenna
Ġrainco
Ġswords
Tweet
Ġclick
agic
ĠLaser
Ġsilent
Ġjobs
Ġnecklaces
Ġflames
ĠLuke
Ġrelief
ĠGrumpy
Ġsnat
Ġsewed
Ġrotting
len
Listen
Follow
Ġtricky
Jerry
Ġlighter
ophia
Ġbows
ĠSkip
Ġexha
Ġsolution
Ġconsequences
Alex
ĠLena
Ġtires
Ġstain
Beep
Ġunpacked
Ab
Ġpartic
rance
Ġraces
Ġpins
Ġbumps
Ġwraps
aisies
Ġwow
Ġdecorating
Ġbacked
cher
Ġdentist
Ġpurr
Ġneedles
Ġcautiously
Ġlifting
izzie
ĠPr
Ġaccomplish
Ġtriangles
Ġdaisies
ept
Ġhesitated
Ġannoy
ĠThose
Ġgrowls
Ġcrackers
oke
Ġstomped
Ġgrabbing
Ġcott
Ġfigured
Ġbodies
Ġmater
Ġbuying
ĠTree
Ġmaterial
ĠRolly
ĠFido
ĠAdam
Ġswans
Ġties
Ġgri
vers
Ġgrows
ĠĊĠ
Ġsweets
ĠGoodbye
Ġowners
Ġflavor
Ġcheeks
ĠCathy
Big
Ġsuffering
ĠJessie
ĠEl
vroom
Ġfact
Ġgroups
bly
Ġforehead
Ġlungs
Harry
Ġrepa
Ġinterested
Ġbakery
ĠMilo
Ġfreed
Lilly
itches
ĠNothing
Ġchuckled
For
Ġswept
Ġconn
?'
Ġthud
Ġexhausted
Tw
Ġtwinkling
Ġtapped
Ru
Ġnect
rosty
Ġnectar
elle
Ġfeast
Ġdarling
indr
ĠMad
Ġworries
Ġuns
Ġtunnels
Ġfuzzy
Ġrepaired
Ġreason
ĠTrust
ĠCopper
ĠBall
Ġactivities
lets
Ġpecked
ĠHannah
Ġentrance
ĠTry
Ġraindr
Ġmeals
ĠListen
Ġparticular
Ġcompletely
Ġmailed
ctions
Ġnests
Ġwaiter
Ġcuddly
Ġsense
ĠNana
Ġcolored
arky
Ġleap
step
band
Ġplenty
Ġpeeking
Ġslammed
ĠCara
no
Ġplayers
Ġmonth
Ġbudge
ĠBirthday
ĠQ
Ġscra
Ġforgets
Ġden
Ġhandful
ĠOliver
Ġmer
ossible
Ġgenie
ĠChrist
Ġstool
iggie
Ġtalks
ĠPup
ĠSuzie
Ġpassports
Ġfeeding
Ġfilms
Ġbaths
Ġimpossible
Ġdetermination
May
Ġprinting
boat
Ġdesigned
Ġbuses
Ġopp
ueen
lephant
Ġsuitcase
Ġbars
Ġcounts
Ġstolen
Ġspreading
Ġspikes
ĠSnap
Ġwiping
Ġsteer
Ġlamb
ĠRain
Ġhonked
etty
nies
Whee
Ġcowb
Ġseparated
blings
Ġsiblings
Ġhops
Ġchop
Ġsewing
Ġfires
ĠTwinkle
Ġfever
Ġtwinkle
Ġty
Ġcamping
ĠMira
Ġlower
Ġchanging
yes
retch
Ġbehavi
ĠBloom
mas
Ġliqu
Ġcelebration
but
Ġsquealed
Ġdollhouse
Sunny
Ġbackward
Ġage
Ġsnatched
Ġcash
ho
Ġtwice
lee
Ġsway
itched
Ġcelebrating
ĠPeanut
Ġshrinking
Ġache
weed
Ġkings
rious
Ġshops
Ġkittens
cope
Rose
ĠJessica
ĠJacob
ĠGina
aura
Ġhus
Ġtouches
airy
Ġpancakes
Ġavoid
Ġspat
ĠFrosty
rig
hog
ĠNina
Ġpaths
ives
cky
ĠHold
Ġrotten
Ġcalmed
Sandy
Ġseaweed
Ġdropping
ĠJon
ĠMel
iles
Pipp
Ġtwisting
Ġstroked
Ġuntied
llen
Ġplayhouse
ne
Millie
Ġstudents
Ġpuppies
cl
ĠSof
hi
Ġscrews
Ġastron
ĠRe
Ġsomebody
igning
Ġliquid
ammy
Ġwakes
Ġsquish
ĠWoof
Ġbracelets
Ġastronaut
immer
aren
Ġthrown
Ġloops
ĠOther
Luckily
Ġwrapping
Ġplain
Ġtramp
Ġplanning
Ġskunk
Ġaimed
Ġpennies
Ġshoo
Ġlifts
Ġdancers
Ġsparks
Ġfirefly
pen
Dan
Ġposter
yan
endy
Ġcust
ĠChristmas
Ġrewarded
Ġobjects
Ġdirections
using
ingo
Ġreflection
Ġhusband
âƀƔ
Take
river
Ġclues
uppy
Ġleads
Ġincreased
Ġblocked
Ġrising
Ġdod
Ġcousin
ĠYesterday
ĠWithout
Ġforgetting
rigued
Ġcustom
Kate
ude
Ġtrampoline
Ġbeginning
Ġstorekeeper
Ġpouted
Ġzebras
Ġhedgehog
Ġaff
ĠâƀƘ
Ġborrowed
ĠRollie
Ġsnowfl
Ġcountryside
Jump
Ġmesmer
ĠJay
Ġvehicles
Ġinstrum
ĠMic
ĠKayla
ĠUp
Ġfrowning
ivity
Pat
Under
Ġmarker
yond
Ġpresses
Ġbeyond
ĠQueen
Ġdamage
ĠOnly
iece
ivery
Ġfart
ĠTara
ĠBiggie
jo
Ġhealth
Ġwhispers
Ġswimsuit
Ġslips
Ġnibb
ĠJulia
armer
Ġwarmer
Ġflapping
Ġtiptoed
Ġregretted
itted
Zip
Ġlaying
ĠRobo
ades
Ġyelp
ĠFire
Ġrains
Ġglued
Ġeverybody
Ġcreations
Ġhearing
Ġswir
Ġcolder
iversity
ael
Ġshaped
ĠElephant
Ġstreets
Ġfins
Ġrusty
Ġcushions
Out
Ġsan
Ġfarthest
Ġcreativity
ĠMikey
ans
Ġsale
Always
Co
Ġstrongest
ibbit
Ġfits
ĠSparky
Ġbells
Ġdollars
ĠLarry
Ġearn
iam
angle
Ġlending
ĠMoon
ĠChirp
eese
Ġcashier
Milly
Ġincluding
Ġsniffs
Ġsank
Ġraincoat
ĠRich
Ġtrembled
Ġstopping
Ġsource
iti
imon
ĠMissy
Ġwobbly
Ġindeed
ters
Ġguests
Ġsingle
Ġrecommended
Ġwee
Ġspells
Ġaccomplishment
Ġbelts
Ġsurprising
Ġends
Ġhopeful
Ġseasons
ĠTake
ĠSnowman
ĠEls
Bear
Ġplans
ichael
Ġencourag
Ġsupported
stick
illed
Ġsuffered
Ġartist
Ġperformance
eet
Nina
Ġslowed
Ġgross
Ġflavors
iding
ertain
Ġspins
cho
Quack
Ġlabels
Ġraindrops
Ġdelivery
uing
arac
Ġraccoon
Ġforgiving
obody
ĠWoo
Ġpours
the
ility
Ġvanilla
Ġturtles
Ġstands
Bill
uess
Ġrecipe
Ġbeam
Ġtying
ĠSw
Ġgeese
Ġwilling
Ġrobber
Ġdrawn
Vroom
Ġwept
ĠBones
Ġcharac
Ġpops
Ġcorners
ĠSophia
elia
Ġqueens
Ġsailboat
Ġgrip
Ġdie
Ġdrivers
itude
Ġmoo
Ġhallway
Ġimagining
Ġseconds
ĠFuzzy
Mine
Ġpreparing
Ġwidened
Ġadult
ĠSpirit
Ġgrocer
Ġcoop
Ġtalented
ĠPam
ĠBeaky
ĠIzzy
ummies
Ġsailors
lling
Ġsofter
Ġaside
Ġwatering
Ġsending
Ġknots
Ġunsure
Ġtipped
Lulu
Ġtreehouse
Ġhoriz
ĠLizzie
Ġnotes
Ġecho
igers
Ġachieved
Ġhorizon
Ġsqueak
Ġdelivering
Ġpleasure
Ġhotter
ĠStella
Clara
Ġpupils
Ġburrow
Ġangels
Ġcuriously
Ellie
Ġyum
Ġblinking
ĠJune
Ġtweet
Ġsymbols
Ġdet
ĠStretch
wk
Ġpassen
ĠRudy
ĠCindy
Ġtummies
Ġtiss
Ġpigeons
Ġfigures
umbling
oey
Ġbandages
ĠRobert
Ġcoup
ĠDoctor
Ġrobots
alph
Ġtossed
Ġhour
Ġbackwards
Ġroars
Baby
Ġmerma
uzz
Ġrather
atur
Maria
cited
ĠPlay
ĠCrab
Moo
ighting
Dolly
Ġgroceries
Ġzipping
Put
Very
Ġunw
prin
Ġamong
Ġblown
Ġicing
!âƀƝ.
Ġrumble
Ġafterwards
ipper
Ġscrewd
ushing
Ġsped
Ġprove
Ġglee
ĠTiti
ĠTia
Ġdip
Ġovercome
Ruby
Quick
Ġsurfboard
Ġshovels
Ġslices
ĠToot
Ġmerry
Ġwobble
Ġmate
ĠTurt
ĠAbbie
Ġheading
Ġdisturbing
Ġswall
Ġreversed
Ġfirefighters
Jul
Ġswallowed
Ġchip
eds
Ġscored
Ġflipped
ĠJump
Ġsqueezing
usty
Frank
aty
Su
Ġwaking
Ġintrigued
Sad
Like
Ġmaker
ĠBarky
awn
Betty
Ġpuff
Ġhawk
Ġencouraging
Ġaud
ĠEx
osen
onies
Ġchosen
ĠRon
hew
ĠFarmer
ĠAng
Ġcouple
Ġdesigns
Ġslipping
Ġscrewdriver
Ġsquishy
ĠEmmy
Ġgardener
Ġcenter
Ġrivers
Ġrespond
Ġmarkers
iley
Ġtigers
Ġjars
pecting
Ġfrowns
bird
Ġfluttered
ĠSadly
ĠKit
Ribbit
Ġfirefighter
ĠSl
ĠRyan
Ġsuits
Ġsecure
Ġsprinkled
Ġcreamy
ashes
Ġsharks
Ġignoring
Ġbru
Ġgiggles
Ġtissue
Ġtighter
Ġfirmly
ounce
ĠLaura
fly
Ġshown
Ġfamiliar
Ġthorns
Spike
ĠWo
Ġdrawers
child
ĠZee
Ġexpress
Car
ments
Ġdef
Ġdaring
Ġcrossing
Ġaudience
Ġperforming
Ġcoloured
Ġcloudy
Ġcor
Ġais
ĠNick
ae
rat
Ġpedaled
Get
Ġmixture
Ġtil
Ġgracefully
ggy
Ġhaircuts
Ġyielded
Ġponies
Ġdisob
Ġcrowns
Ġbits
Ġtodd
ĠSleep
Ġnervously
Ġhangers
bbled
ĠPatch
Zoomy
Ġpays
Ġ2
Ġpeck
Ġstroke
Ġev
fall
Bang
een
Ġrespected
Ġnapped
aven
Ġminded
ddie
Bessie
ably
Boys
Ġtested
ading
parent
ĠChris
Kim
ĠUniversity
ĠNear
Ġbeeh
ĠTurtle
Ġsurfing
Ġneighbours
arrow
vered
Ġshady
iona
arlings
Ġmagician
Ġenthusiasm
Ġdarlings
Ġwisely
Ġstitches
Ġsails
kend
Dear
Ġweekend
Ġthoughts
Freddy
ĠTweetie
Ġreminds
Ġtemper
oring
tha
antha
Ġsurroundings
Ġspits
Ġfleas
Ġteams
Ġlessons
Ġfills
Ġflip
ĠAlong
Ġpaintbrush
Ġmelons
Ġmermaid
oni
Katie
Ġgrandchild
Ġhoops
Ġexplo
Ġelbow
Ġsports
Guess
Ġlies
ĠFighting
rac
Ġpanicked
Ġcleaner
Ġamount
cused
Ġlongest
Ġscooters
Ġlent
ita
immering
Ġsill
Ġbeloved
Pippin
Ġbeehive
Alright
ongrat
oga
lle
ongratul
Ġoysters
Ġgrandparent
Ġforgiven
Ġmagazines
Ġarr
ĠWise
Ġelf
Ġrepeating
Ġdiscussed
Ġsweetest
ĠThanks
Keep
Ġwadd
ĠMaya
Ġreass
Ġlace
ĠGranny
Ġnightmares
Ġtubes
ĠWilly
Ġunderstands
Ġspoonful
Ġnood
Ġbathing
ĠZoey
asty
Am
Ġsweep
Ġmanners
crow
Uncle
Ġwrink
Ġsprang
Ġnur
Ġbully
ĠHolly
Ġguide
ĠYet
onna
ancy
Ġcrew
romise
Jazz
Ġbreathed
while
steps
ilda
ently
ĠBally
Ġbulbs
Ġneare
Ġgrassy
Ġwiggly
Ġtesting
Ġspies
Ġcoug
Ġsolving
Ġsheets
ĠRoo
Ġfootsteps
ntil
Afterwards
Ġspeeding
Ġfocused
ounced
cept
?!"
Ġmesmerized
Ġcamel
Ġbraver
Ġhesitant
ĠSparkle
Ġlicking
Ġrushing
ĠWell
Ġjoining
ĠPuppy
Ġpolar
Ġgreeted
ĠMartha
espite
--
ĠBubb
Which
Kiki
Ġworn
Ġmaterials
Ġchanges
ĠNobody
undred
Ġstored
Ġbicycles
Ġmast
Ġanger
Leave
Ġpeacefully
Ġships
Ġspice
Ġterrified
Ġnuzz
Ġgonna
ĠShow
Ġpolitely
Snow
Ġspills
Ġscarecrow
Ġknives
Ġevil
ĠMixy
ppies
Ġburying
ca
Ġhealing
Ġaren
Ġdonkey
Ġaeroplanes
freeze
Even
Ġseals
Ġscattering
Ġmiles
ĠChewy
amboo
Ġdump
Ġworrying
Bee
zoom
beep
David
ĠLenny
Ġpuzzled
Ġstacked
ĠKip
Penny
ĠNice
Ġloses
dding
Ġtravelled
Ġbaskets
ĠWin
ĠOkay
Ġgazing
Ġblast
ipes
ĠTess
Hurry
Ġtemperature
Ġund
Ġtasting
Ġdripping
Ġclue
Ġbelieving
Ġpinching
erm
Ġsoaking
Ġrats
Ġ10
isc
Ġsandy
rect
ĠIsn
ĠSimon
rey
anwhile
ĠAbi
Binky
Ġpunishment
Ġbanged
Ġhumans
Ġcrashing
Ġforce
ĠAna
Ġhundred
Ġgest
ĠLia
Ġswimmer
ĠChess
Ġsnowflakes
Ġrelaxing
Ġresisted
Ġbeeped
ĠFairy
Ġquarreled
form
elie
Ġramp
ĠWendy
Ġjoins
abby
Ġbackpacks
ĠPh
years
Ġdressing
Ġdelayed
Ġtoddler
ĠLuckily
Ġflight
Ġcovering
ĠTe
orter
Two
Open
By
Ġencouragement
Ġbenches
Ġtoward
Ġscraped
Ġpurpose
Ġfocus
ĠJudy
Bow
Ġcorrect
'."
Ġlipstick
Ġbamboo
Spe
Ġtwinkled
Ġpotion
Ġpermitted
Ġmonths
ĠCow
Ġlanguages
Ġorders
Ġfreedom
Tony
Ġrisks
Ġpoppies
Ġmaster
shm
Ġnoodles
Ġfaded
Ġwounds
shmallow
rier
Kids
isions
ĠJojo
Ġcreams
Ġbirdhouse
Ġcells
Ġannoyed
ĠHerb
opes
Ġsniffing
Ġcheers
Ġadults
Birdy
Ġunwra
ecca
Buzzy
Ġpuck
Ġopinions
Ġfloats
andas
Instead
Ġflown
Ġsneezes
Ġscen
Ġhandsome
Ġnodding
ĠMint
Ġsmelling
Ġburnt
Ġ5
Ġdrifted
ider
bage
Ġwithin
Ġscient
Ġheight
Ġdamaged
Ġbothering
Ġtearing
Ġslither
Ġpleaded
Ġinstruments
Ġease
ĠAli
da
Back
Ġscientist
ĠMarie
Mira
Goodnight
Ġpound
Ġseller
Ġhanding
Ġgerm
ĠSay
Ġwasting
Ġfiles
Ġresults
Ġdreamt
ĠMabel
bell
Ġexplains
Ġdestroying
Ġbrushing
ousy
Ġhiss
Ġcharacters
ĠRazor
ĠCr
Carl
Ġcertain
ĠSte
Pandy
Behind
Ġsweaty
ĠHug
unched
Ġbusiness
ĠRobbie
Ġtalents
Ġonward
Try
Ġengines
Ġbravest
ition
Ġsternly
ĠPen
ĠJanie
prints
Ġpostman
Ġmosquitoes
Ġminds
under
cake
Ġtuck
Ġscares
urious
Ġstomp
Ġapologised
uel
Ġmanag
Ġsnuck
Ġbitten
attered
Ġtilted
Ġswitched
Ġreminding
Ġdecisions
Ġsingers
Ġdesper
Ġbehavior
ĠPoor
ashing
ĠJudge
bbers
inny
Ġsqueaked
Ġpeeled
ĠEverybody
Ġyumm
Ġpurrs
ĠBra
Ġtreated
Ġsmashed
Ġrustling
Ġdisplayed
ĠUntil
Ġneatly
Ġmatey
Ġplanting
ĠBess
Ġmarshmallow
Ġinsp
Ġyelped
Ġsy
Ġgrandparents
Ġcracks
Ġbellies
aver
Ġshines
Ġscamp
ĠNavy
Ġhoo
Ġfailed
Ġcoloring
ĠYoga
line
Ġzooms
ĠMake
rup
Ġnasty
Ġbreathing
Ġcombed
Ġpandas
Ġdespite
Ġaddress
ighing
Ġwaterfall
uffin
omp
cc
ĠLoop
ĠAngel
Tilly
Ġwider
Ġrobbers
Ġantic
Play
Abigail
Ġsweaters
Ġechoed
Ġdoorway
ĠTodd
evin
Ġedges
Ġinj
ĠShadow
Aunt
Ġgap
Ġdisobey
ĠBlinky
wise
Liz
ĠMichael
Ġtar
ĠFlick
oscope
orking
Wake
Ġtaped
Ġmagnif
ulp
father
Ġscolds
Ġflaps
Ġaction
Ġcrawls
ĠMindy
Ros
Ġswap
Ġgobbled
Ġbacks
ĠGary
Ġwarri
ĠFishy
ĠEddie
Slow
Ġsteth
Ġsever
Ġshinier
Ġprobably
Ġnewspapers
Ġseveral
Ġocc
Rock
Lena
Ġencount
ĠMeg
Ġserving
Ġquieter
Ġplucked
Ġconnected
tock
ĠShare
Ġouch
igger
Ted
Adam
Ġgesture
Too
Fl
Ġstudent
Ġplot
Ġdoorbell
Ġsquaw
Ġcares
fire
Ġrescuing
Ġgrandson
ĠSe
Ġspy
Ġsimply
Ġrows
Ġgoo
iel
Ġwhistles
mies
vant
Shrink
Magic
Ġsnaps
Ġshorter
Ġastronauts
ssss
Ġunpacking
Ġcottage
ĠTime
Ġswo
Ġaccidents
ibi
Ġswollen
Ġmood
ĠNut
Steve
abelle
ĠZippy
ĠMousy
anie
Zara
Ġbothered
Hannah
Ġstethoscope
found
Ġtrusting
Ġcausing
Mat
Mad
Ġleapt
Ġdresser
aint
Ġsou
Ġproper
Ġpills
retty
Ġthroughout
Olive
Ġrunner
Ġprayers
ĠDina
Ġjoyful
Thomas
mates
Ġlocks
ĠPrince
Jamie
Ġgoats
what
Ġtarget
rest
ĠWait
ĠKaren
Ġdears
ĠBang
artled
Red
Ġwaddled
Ġmunch
Ġflips
ĠCro
Ġlowered
Ġstepping
Ġcons
ĠJackie
Ġteachers
Ġcowboy
ĠToys
Ġinches
Ġenvelopes
ears
Ġchar
ĠVroom
Ġexplorer
Ġanticip
Ġplayd
ĠReady
ĠRuff
ĠRalph
unity
Nice
Finn
ĠBad
ening
Ġknocking
Ġfloors
Ġefforts
ĠPl
Ġuniforms
lied
ĠTri
Ġaware
Ġfootprints
Someone
Ġnearly
ĠFiona
llas
Ġdisc
ĠRia
ivi
Ġwhimp
Ġtrot
Ġsens
Ġglitt
Ġappreciation
oosh
Ġnecks
Ġcollap
Ġchecks
Ġlapt
Ġexcept
Ġplug
Ġcharge
ĠJacky
Ġfluttering
Ġumbrellas
Ġstamped
acy
Ġsandcastles
ĠDavey
Ġstatues
ĠHoney
omb
iscuit
ails
Hoppy
Ġshrank
ĠAmelia
rily
Ġprick
Ġfinishing
Ġadds
rons
Ġstroll
Ġhunters
Ġdodged
Ġchocolates
Ġpassengers
Ġgerms
oger
Ġwrigg
Ġaprons
Ġaisle
Ġsets
.'"
ĠGerry
Ġweeds
Ġnovels
order
Ġdemanding
ĠTaking
Ġscratching
Ġmeows
issa
Dr
Ġnurses
Lucky
Ġminding
Ġdiscussing
urrender
Ġkilled
Ġdriveway
ĠCari
Ġbecomes
Ġtoolbox
Ġlaptop
Ġhaird
ĠEliz
Ġposit
Ġattack
ĠSadie
ĠDespite
Speedy
ĠGl
sol
Ġscampered
Ġbounces
Ġsupplied
Ġsprays
Ġdeed
Ġtempt
Ġsuggestion
Ġfriendships
Ġburns
Coco
Ġslapping
Ġclosing
Arrr
Ġinvites
Ġbelongings
Ġanticipation
Ġspringing
Ġform
Ġerase
Ġcotton
ĠStan
Ġtwists
Ġrays
Ġsnuggle
Ġforgives
Ġmodels
Ġshall
Ġmassages
Ġhumming
onnie
Ġresponded
Ġnewfound
Ġghosts
Ġexpecting
ĠShelly
Ġcheated
Does
ĠWooly
Gigi
otte
Ġtraveling
ĠNe
Ġcond
Ġbattle
Ġalthough
alloween
Ġmommies
Ġinvitations
Ġcarries
Ġaim
Ġrefreshing
Ġpresented
Ġconc
hel
Ġtwenty
Ġrowed
ĠBumpy
ots
Ġsquir
rie
arlotte
Ġfoxes
Ġcooper
Ġfinal
Ġduckling
Ġcafe
ĠBibi
Pip
Ġmarshmallows
Ġclicked
ĠZipper
oor
Ġjets
Ġdesigning
Ġbeaver
five
ĠMuffin
ĠHalloween
Ġmugs
ĠWhoever
Ġdrown
ĠAlthough
Ġtricycle
Ġpicnics
Ġoppos
Ġconvin
ĠRuth
ĠExcited
iens
ĠCle
po
Ġscoops
Ġcongratul
ĠPop
ĠMaddie
Sadly
ĠâƀƔ
Ġtravels
Ġaliens
Ġtests
Ġquestioned
ĠSpeed
inted
Ġstrips
Ġcraft
Near
atty
Mouse
covered
Ġdefe
ĠFlutter
ĠBubba
iri
Br
Ġfights
roken
Ball
Ġopposite
ĠBiggy
Hmm
Find
Elly
Chloe
ĠIm
Ġrout
Ġgrandfather
Ġencountered
Ġafford
ĠNever
Ġdecl
inch
Ġraising
iment
Ġupside
ĠVivi
Meanwhile
Jess
Ġflashed
Ġcalmly
ĠRita
Ġyawning
Ġsincere
Ġrealizes
aturday
Trust
Choo
Ġcrystals
Ġbuddy
ĠSamantha
Ġcupcakes
Ġbuckled
byes
Both
Ġwinners
Ġdefin
verse
ris
',
Ġweapons
Ġcaw
shadow
Josh
Ġpackages
Ġcheat
ĠSaturday
Ġsacks
Ġmesses
Ġgoodbyes
Ġcoach
Ġattem
quet
Ġconvers
ĠTruck
ĠFlo
val
Ġdrift
Ġcaps
ĠMina
ĠEva
emies
Ġenemies
asha
Ġyummiest
Ġscrub
Ġswallow
Ġreturning
rian
Ġadmiration
ĠSofty
ĠMegan
Since
Ġsprout
ĠLouise
Ġunable
ĠPlaying
ĠAnother
ugging
ooks
Ġsadder
Ġfreezing
Ġbrightest
Ġbless
ĠYawn
Ġrespon
ĠMan
reverse
Ġresponse
Ġcosy
ĠOh
Ġdiamonds
Ġbride
stalk
Ġreapp
Ġopport
Ġhonking
Ġgarbage
Ġwhispering
Ġstretches
Ġprevented
erk
antastic
Ġwhoever
Ġodd
Ġawful
ĠGray
alth
Ġweighs
Ġjourneys
Ġawoke
Brrr
Ġtraps
Ġspices
Ġdragonfly
off
Ġborn
Ġreassured
Ġclip
ivia
Ġstall
Ġbeanstalk
Ġargum
Ġexamining
Ġdefinitely
Ġbeetles
Ġautomobiles
ĠMaisy
mine
ici
Hop
Ġvisitors
Ġstuffing
Ġplaydate
Ġwashes
cie
broken
Ġwiser
Ġcustomer
uper
emma
Rachel
Ġtravelling
ĠSofia
ĠJolly
ĠFlop
ouquet
Ġhairdress
Ġbouquet
ĠNurse
orse
bble
,'
Ġtumbled
Ġdecoration
Ġcampfire
ĠElle
Ġhonesty
Ġbud
vy
ebecca
Only
Ġbomb
Ġwelcoming
Ġoffering
Ġwealth
Ġtroubles
Ġoccas
Ġincreasing
ĠOt
ĠJax
ĠHello
Ġloudest
Ġinspired
Ġtype
Ġparted
Ġgroan
ĠChick
ĠNutty
irac
Ġwhales
ĠThunder
ĠRicky
yl
Ġdeclared
Ġcorrectly
yler
ooky
fus
Ġbeaks
ĠQuacky
athan
Ġcleared
Ġcowboys
Ġnuzzled
ĠDotty
Ġprizes
Ġexch
Finny
Ġwarmly
ĠMissile
Ġrewards
Ġobeyed
Ġcustomers
Should
Ġsirens
Ġcomforting
ĠFel
shaped
Ġconnect
ĠFlappy
match
Ġtowns
ĠMagic
ĠBingo
elieve
Ġrely
ĠVicky
Honey
Ġtrigger
Ġowns
Ġinsisting
Ġfantastic
Ġbends
ĠFe
Ġspoiling
Ġhairdresser
Ġsurrendered
Ġsupporting
Ġshares
Ġposes
Ġpipes
Ġcleans
rench
Sun
Outside
Julie
Ġwrinkled
ĠCook
Ġchopped
Ġrecorder
Ġmoons
Ġbeaming
unes
ellow
Beth
Ġthanking
Ġsnowy
ĠWolf
Ġscurry
Ġexperien
Ġenjoyable
Ġactive
Ġcoral
ĠPiggy
Ġenviron
Ġdollar
ĠKevin
worm
elope
Ġloc
Je
Ġstreamers
ĠBub
udged
ĠPatty
ĠMother
ĠZack
inger
Suzy
Ġexamp
Ġshorts
Ġshooed
Ġenvironment
Tree
Ġill
Ġscent
Ġbruises
uster
Ġgrat
ĠLuc
Bo
Ġhisses
Ġsteering
Ġself
Ġplugged
ĠElsa
Ġwarrior
Ġvisits
Ġexercises
screen
irl
aptain
Ġdangers
Ġcuddles
ĠRel
ĠMin
ĠAr
Ġunfortunately
Ġsquished
Ġsigning
ĠLight
bee
Ray
Ġpilots
Ġdisappoint
munk
Ġgratitude
Ġapplauding
Ġproviding
ĠMoppy
alf
Ġtickles
Ġting
ĠRub
Grow
Ġstorms
Ġnights
Ġjud
Ġconvinced
Ġbadger
ĠElsie
Ġyoun
Ġresponsib
Ġchoosing
ĠKelly
Joy
Ġyoungest
Ġnearest
Ġbrains
Ġactivity
Abby
Ġexploded
Ġcoughed
Ġarranged
Claire
Ġrewarding
ĠTre
ĠFly
pr
good
erpiece
Ġsunscreen
Ġpeep
Ġbond
ĠFloppy
asers
Mon
ĠTweety
ĠSweet
ĠKaty
ĠJoan
ĠSal
ilities
Ġannoying
sn
Ġsoapy
meow
Splash
Ġrails
Ġlaces
Ġthreads
Ġtapping
Ġoffic
Ġappreciated
ĠPine
ĠPhil
boards
Ġweighing
Ġheartbroken
Ġemerged
Ġcongratulated
ĠPick
Danger
Ġtin
ĠSil
Ġcrocodiles
Ġclerk
Ġscram
Ġattempt
ĠNancy
water
Ahoy
Ġsnug
Ġmessed
Ġexample
Ġdial
ĠKay
ĠAny
Momma
Ġhooks
ĠJonny
Ġtops
Ġchipmunk
Ġsoot
Ġguarding
Ġbathed
Ġmanager
ĠTippy
ortunately
ĠMicroscope
Friends
ĠDe
etah
Snowy
Ġmasterpiece
ĠBaa
Ġerasers
Ġtips
Ġfinishes
Ġfet
Ġcommon
ĠTomorrow
mbers
Ġtrotted
Ġnibbled
Ġmembers
Ġdigs
People
Ġkinder
Ġcheetah
Ġparticularly
Ġchews
Ġblond
ircle
Ġrips
Ġbeast
Lizzy
Ġargument
ative
Ġfaith
ĠHelping
Ġearned
Anne
Ġobserving
Ġforgiveness
ĠJoke
ĠCici
chievous
Ġinstantly
Ġfishes
Ġexperienced
Ġcurl
Ġcheaper
ĠJumpy
Rosie
Ġmischievous
Ġgenerosity
Ġcages
ĠTwist
Gr
Baa
Ġmeowing
Ġfoam
mered
Cindy
Ġstores
Ġgrandd
ĠAg
etchup
Ġmattered
Ġteles
Ġpasses
Ġlimp
Sque
Ġsleeps
iolet
Ġbreaths
ordinary
ettle
ending
Ġtrans
Ġrin
Ġgasps
ĠFreddie
Got
Ġrumbling
Ġhatch
ĠMomma
over
abra
Ġgrassho
Ġaccomplished
ĠHopper
acing
Ġthump
Ġtelescope
Ġstrum
Ġsmartest
Ġmats
Ġwhined
Ġmoat
Gina
Ġscrambled
Ġjugg
Ġfarmers
ĠIce
Ġdrip
Robbie
Ġsyrup
Ġgardens
Ġcollapsed
Ġangrily
ĠMore
ouraged
idey
Ġvegg
Ġstyles
Ġforests
Ġexperiences
Ġdiscoveries
hole
Ġtor
Ġmedals
Ġtypes
Ġotters
Ġmeaning
Ġfaint
Ġconqu
ĠDoes
pit
adabra
acock
Ġsnapping
Ġhardest
Ġfif
ering
Ġmovements
Ġexpression
Ġsurv
Ġchilly
Ġbubbly
Ġaffect
Pinky
Ġvests
Ġunfair
Ġcourt
Whenever
Ġtoothbrush
Ġscores
Ġextraordinary
Never
Ġattitude
Ġvibr
Ġhorri
Ġbluebird
ĠMonkey
mel
lls
Mo
Ġspears
Ġketchup
ĠBerry
Mother
Ġsooner
Ġgrasshopper
Ġbehaviour
Ġpatches
Ġhabit
yd
erts
Karen
Ġpokes
Ġmomma
Ġafar
ĠAshley
lo
ieves
Jacob
Ġthicker
Ġscri
ĠFriend
Jon
Ġsqueezes
Ġslithered
Ġshrunk
Ġclassmates
ĠTerry
ĠFle
Ġicky
Ġprickly
Ġglittering
Ġexpert
Ġtopp
Ġkneeling
Ġannounced
ĠSuper
ĠRiri
elling
Ġpeacock
Ġmarking
ctric
Ġcosts
ĠCally
ĠAchoo
Ġzigzags
Ġwatermel
Ġthieves
Ġskirts
Ġjumper
Ġhood
Ġacts
ĠZog
ĠApp
Ġwolves
ĠSwim
ĠCloud
Papa
Ġthumbs
Ġsqueaky
Ġconcer
Ġcocoon
Ġwoodcut
Ġboards
ĠEliza
ĠBecky
Ġservant
idence
affle
Ġcheating
ĠJason
bu
Ġtrading
Ġraking
cat
Jessie
Ġexplaining
ĠEric
rick
Ġtidied
Ġbiscuit
Ġlunchtime
Ġluckily
ĠAc
anced
Frog
ĠPuffy
Ġspilling
ĠDay
Fire
Ġtransform
Ġdesserts
ĠUse
ĠMaddy
ĠDaniel
ĠAnimal
âƀ¦
ror
ĠPig
ĠMine
ĠStill
ĠGill
rough
amma
Ġmessages
Ġmirac
ĠCaptain
idy
Ġwindowsill
Ġchill
Ġbeating
ĠTammy
ĠLung
ĠGilly
oot
Ġseeking
Ġactor
ĠRainbow
ĠLina
ĠWilliam
sess
its
ĠMath
pril
Any
Ġforeshadow
war
acles
Bluey
Ġleans
ĠStep
ĠPinch
ĠHi
racadabra
Freeze
Bounce
Ġwatermelon
Ġhissing
Ġflashing
Ġdev
Ġcloths
ĠTiger
ĠMonster
ĠFrankie
Ġwinding
Ġpositive
Ġfunn
Ġdiscouraged
ĠWil
pop
Ġwoodcutter
Ġforts
Ġdripped
Ġcompete
Ġteapot
Ġpressing
Ġdisagreeing
icking
Ġglimmering
Ġveggies
Ġtrusts
Ġtidying
Ġkangaroos
ĠPeep
Ġtempted
Ġlanding
ĠFlora
Ġdock
Ġshallow
Ġoverw
Ġformed
lers
Ġrack
Ġfade
ĠTooth
flowers
Ġworst
Ġelectric
Ġcops
eling
Nothing
Ġapology
iving
creams
ai
Ġsleds
ĠSilver
ĠLife
upid
Ġcomets
Ġass
Owl
Ġsav
ĠShark
ĠMag
ĠJelly
Bug
Ġsituations
Ġpapa
Ġofficers
Ġconversation
Ġ4
Rain
ĠRoger
ĠCharlotte
storm
aye
Ġsuns
Ġding
âƀƝ,
Ġzips
Ġstructures
Ġscurrying
Ġpizzas
Ġoverwhel
Ġmiller
ĠButter
Ġgranddaughter
Ġfoggy
ĠOlivia
ĠHurry
ĠAmber
Zoe
ĠJaney
Ġwebs
Ġdeserved
Rabbit
Ġopportunity
Ġcubs
ĠYummy
ĠSpidey
ĠSasha
ĠMixie
ĠBuster
Ġsnorted
Ġrhino
Ġdifferences
ĠGold
Ġquacking
ĠTell
ifully
ended
Fifi
Ġheaven
ĠBirds
Ġunlo
Ġlevers
Ġinchworm
Ġinter
Ġapproach
ĠTyler
ssess
Ġseagulls
Ġpossess
Ġcooperate
ĠRufus
ĠFelix
ĠBoom
welcome
sers
ragon
of
?âƀƝ.
andra
Ġpose
Ġdisappointment
ĠSmoke
ocular
Ġspeaks
Ġsneaks
snap
Ġbinocular
Ġartwork
Ġsurfed
Ġscowl
Ġanswering
ĠSnake
Ġshortcut
ĠGrand
Ġsipped
Ġrobin
Ġdep
Climb
Ġarrest
ĠInky
ssy
Ġunwrapped
Ġribbit
Ġreun
Ġamused
ĠAmanda
ugar
Ġrepeats
Ġpepperoni
Ġapplause
Ġkeyhole
Ġcheckout
ĠMae
ĠCars
Lia
Deal
Ġvisitor
Ġstriking
Ġpuppets
Ġpaddling
Eat
Ġunz
Ġcroaked
Ġattacked
ĠCircle
ĠBrian
orsie
Ġspooky
ĠOtto
ĠGus
Each
Ġgroaned
Ġbeautifully
ĠJean
gar
cidents
Ġswimsuits
Ġconsider
Ġchecking
uses
ĠYellow
jest
Ġwaters
Ġgroom
ĠSqueak
ĠSlinky
yle
Ġinvent
Luke
Ġnets
Ġexams
otion
ets
Ġdrying
ĠRebecca
udy
artin
agine
Ġshrugs
Ġlump
ĠAuntie
sie
lest
Ġsobbing
Ġshyly
Ġshoots
Ġhonks
Ġheels
Ġcheerfully
ĠSince
ili
hny
esses
Ġshh
Ġchin
anish
Ġwhimpered
Ġhealthier
Ġhangs
icious
Milo
ĠMus
Ġcaterpillars
izzes
Slowly
Ġsquinted
Ġmagnifying
Ġfries
ĠRatty
Ġfascinating
Ġblamed
ĠFind
ulpture
ching
Ġsculpture
Ġfrustration
ĠTip
ouched
Ġshimmering
ĠPenelope
Ġposs
ĠPeace
edic
Sharing
Ġsuck
Ġpleas
Ġnumbered
Ġnibble
ĠWaffle
othy
ibbles
ellie
amil
Ġflowing
Ġbaa
hings
Pepper
Ġraked
Ġgrumbled
ĠOff
that
Bubbles
Ġbuilder
racted
eat
Ġswaying
Ġpetting
Ġguards
Ġfacing
ĠWoolly
Ġsprinkle
Ġmysteries
Ġdetails
ĠHar
sey
Ġsnort
Ġflock
Ġenemy
ĠBoat
Ġtextures
Ġtablet
Ġgoodies
ĠCurious
ĠBarry
Yesterday
Ġwig
Ġpopping
Ġwildflowers
Ġstacks
Ġmarve
Ġfans
Ġcrops
Ġcountries
ĠJenn
ĠGracie
how
Ġknobs
ĠTessa
ĠSeeing
Ġlocal
Ġbushy
Ġstew
Ġpeeped
Ġhunting
Ġdrowned
Ġbowing
Ġbinoculars
Ġangrier
ĠBubu
Ġmaps
ĠMatch
Ġquizzes
Ġniece
Ġmoonlight
ĠGlow
Ġoutfits
ĠJohnson
ĠDeal
OO
Ġwhoosh
Ġweaker
Ġwrench
Ġmindful
Ġcrowded
cycles
Squ
Ġendings
ĠBeef
oll
Im
Ġproperty
Ġhesitation
Ġflashes
amiliar
Ġunless
Ġimaginations
Ġfond
Ġcarts
Ġboil
Ġability
ĠOxy
ĠAndrew
getic
Ġglared
ĠRight
ĠAccidents
stand
Ġunfamiliar
Ġspaces
Ġmicrow
Ġknit
Ġhaven
Ġfolds
ths
saw
Tuna
Ġresponsibility
Ġdirtier
ĠPet
bank
Ġpouch
Ġmicrowave
Ġdesks
ibly
Bless
Ġcracker
rnie
Ġswapped
Ġmember
Ġdate
Ġaston
ĠOxygen
ĠRing
ĠRavi
lt
free
Want
Cra
Ġwhine
Ġsoftened
Ġrebu
Ġdoorstep
Ġdisappearing
ĠPeggy
ĠHelen
ĠBun
Ġquacks
Ġnatur
ĠChip
scar
Ġwriter
Ġlistener
ĠToo
ĠFix
Ġpriv
Ġblushed
ĠSpicy
venir
Ġpalms
Ġnoticing
upt
repe
poison
Ġsouvenir
ĠPast
repeat
entr
Ġlaws
Ġdisaster
ĠTra
ĠRes
ĠGabby
str
reg
endant
Robby
Ġphones
ala
Ava
Ġconfidence
ĠLi
ĠCoal
ĠCut
ĠBert
Ġtimid
Ġstirs
Ġoverwhelmed
ingly
Being
Ġmayor
Ġflick
guess
asmine
Che
Ġtugging
ĠPretty
ĠMole
lor
Ġuntangle
Ġsatisfa
Ġowls
Ġmailing
Ġinjured
Whose
Ġsatisfaction
Ġconcentr
ĠWhite
ĠImmediately
ĠBooks
Fly
ĠMarch
ĠAnimals
mers
Sc
Mittens
Ġlim
ĠEat
this
Mabel
Ġprank
ĠWonder
ĠNora
ĠBonnie
Wiggly
Ġhooves
ĠTriangle
ĠRun
ĠPot
ĠMelissa
ĠKn
well
Jeff
Ġfixer
ĠStartled
ĠSir
ĠClean
ĠClose
icate
Ġsnar
Ġclut
lish
bling
Excited
Ġskies
Ġinstrument
ĠTrucky
Ġcapt
ĠMatilda
ĠHorsie
ĠFaye
adually
Ġdisagre
iky
Ġwriggled
Ġstains
Ġrinse
Ġpecks
Ġcreak
ĠSleepy
Susan
Ġshave
Ġbumping
ĠSing
ĠIcy
ĠHeli
ĠCrabby
ulf
Ġswirl
Ġruff
Ġbending
cessary
Playing
Close
Ġsandpit
Ġexploration
Ġchatted
ĠScissors
Make
Ġrods
Ġlever
Ġfacts
Sm
Ġattaching
ĠCandy
Ġfooled
Ġburger
ĠBro
Ġglows
Ġconcerned
Ġclearly
Maya
Ġsalon
Ġreversing
Ġlava
Ġcompan
Ġcertainly
els
Wally
Ġsmelt
Ġmotorcycles
Ġfetched
Ġcirc
Ġtroll
Ġtunes
Ġsometime
Ġprod
Ġoldest
Ġfireflies
Ring
Ġkissing
Ġchallenges
Ġblonde
Kayla
Ġwarmed
ĠBobbie
Ġunlocking
Ġnatural
Ġdifferently
Ġbound
ĠLots
urple
sa
erg
Tara
Dino
Abracadabra
Ġrubb
Ġriverbank
Ġdetect
Ġcutter
Ġcupcake
Ġconquered
Ġhates
Ġalley
ĠFlap
sorry
Ġswirls
Ġsends
Ġrealise
ĠOpen
ĠFlopsy
Julia
Isn
Ġwiggling
Ġsensation
Ġmunched
Ġbanging
ĠCammy
Ġtoppings
Ġhippos
Ġfist
Ġclips
ĠReliable
Doctor
Ġswayed
Ġstings
Ġrobe
Ġmiracle
Ġhalves
Ġbrakes
ĠGreeny
Hope
Fish
Ġsurvive
Ġostriches
ĠPink
ĠClimb
ula
keepers
bert
Michael
Ġtorto
Ġotherwise
Ġembra
Ġcrushed
Ġbubbling
Ġtents
ĠLooking
ani
Ġrepairing
ĠOf
Ġvinegar
Ġstretchy
Ġrubbish
Ġlizards
ĠWorking
ĠFlicker
Ġpassenger
ĠEd
aste
Many
Ġvibrant
Ġtortoise
Ġpounced
ĠWhich
Suzie
Ġscene
ĠRh
ĠGrump
gr
Ġmooed
Ġglided
Ġdesperately
Ġbas
Ġsnip
Ġpoop
Ġmajest
Ġintently
Ġcopied
Ġcalmer
ĠSundays
ĠLightning
rap
net
Ġwoken
Ġtwel
Ġrags
Ġjudges
Ġjoyfully
Ġjing
Ġcoolest
ĠPer
smelling
Ġlectures
Ġglob
ĠJody
lyn
isible
Ġhips
Ġcousins
Ġastonished
Ġcapes
ĠOutside
ĠLu
uno
Eww
Ġsuccessfully
Ġspeaker
Ġreunited
Ġinvisible
Ġguesses
Ġgooey
Ġarrives
why
Ġtwelve
Ġbats
urity
Mikey
Ġgoodness
Ġcomputers
Ġchatting
ĠCarla
nded
mie
Ġstacking
Ġsnowflake
istory
Ġreappeared
Ġracer
Ġpounds
Ġparks
Ġdesperate
Ġcompanion
Ġcommun
bed
Zigzag
Ol
Ġluckiest
Ġlevel
Ġdou
Ġank
Ġtale
Ġstomachs
Ġsells
Ġgall
Ġdumb
Ġcrickets
ĠSugar
iggles
Nick
Ġwinds
Ġsus
Ġgates
Ġdisobeyed
Ġdisagreement
ĠSteven
hile
More
Ġpearls
Ġhoses
Ġcrisp
Ġawhile
ĠWhee
ites
Lou
Ġsoda
Ġpopsic
Ġloyalty
ĠOrange
Linda
Ġtongues
ĠRosa
usion
rent
Ġrider
ĠCD
Ooh
ĠBlack
pan
Ġsurely
Ġabo
ĠLaw
ĠAnnabelle
des
colored
Ġoccasion
Ġbund
rum
izza
dog
!âƀƙ
Ġstun
Ġguitars
Ġchicks
chief
Ġseparating
Ġseashe
Ġrebuild
Ġintelligence
Ġalligators
Ġaboard
ĠRaven
ĠIron
ĠApril
Found
Ġcroak
Ġcreep
ĠWinky
ĠViolet
aids
Something
Catch
Ġlearner
Ġcaution
Ġcuc
ĠOld
ĠCare
solut
Ġwhines
Ġspiky
Ġrevealing
Ġrins
ĠUni
working
Ġtickling
Ġescap
ĠSettle
Ġunderwater
Ġglobe
Ġcrouched
ĠRoar
ĠCoby
ĠBa
udge
everse
!'.
Ġprog
Ġblooms
Ġappearance
Ġ''
urricane
stop
seph
ifer
fived
Jan
Ġstrokes
Ġleaking
Ġhatched
Ġguardian
ĠSocky
ealing
arning
Ġzookeepers
Ġtant
Ġroutine
Ġpersistence
Ġdoves
Snap
Sleep
Chicky
Ġtaps
Ġsquashes
Ġquilt
Ġpainful
Ġlighting
Ġblame
Ġadmit
Toys
Ahh
Ġtempting
Ġshattered
Ġripp
Ġmold
Ġdeeply
ĠPuff
ggles
Three
Ralph
Matt
Ġthrone
Ġsquirted
Ġsecurity
Ġpeeks
Ġelectricity
Ġcentre
Ġburgers
ĠSpin
emon
con
Ġrealizing
Ġcooks
Ġallowing
ĠLiam
ushes
orth
oss
cker
Jessica
Ġlar
Ġexchange
Ġchopping
Share
Sophia
Ġsweetly
ĠRace
ĠQuickly
ĠAlf
vering
Ġsweeter
Ġrinsed
Ġglittered
isapp
Zero
Sw
Ġmelts
Ġmelody
Ġgoggles
Ġfurious
Ġenergetic
Ġdefeated
Ġbuilders
ĠInch
asy
Ġwaded
Ġtantrum
Ġsniffled
Ġchooses
ĠOtherwise
ĠCats
ĠComet
Ġcontainer
Ġcompeting
ĠGiant
eremy
bang
ĠSharp
ĠMila
arted
Ġundone
Ġseriously
Ġprotection
Ġlarger
Ġlull
Ġhudd
Ġattempts
ĠRara
ĠPark
ĠDuke
Shoo
Lizzie
Ġtossing
Ġhelicopters
Ġcooed
Ġcluck
Ġbuckles
ĠWhale
ĠPinchy
ĠCher
Sweet
ĠTears
ĠSmo
ĠOver
solutely
Still
Squeaky
Ġhummed
Ġdedic
Ġcourageous
ĠMa
ĠHor
ĠDin
Maddy
Everything
Curious
Ġracers
Ġpatients
Ġmuster
Ġgod
Ġdeserves
Ġaloud
ĠThings
aps
Use
ĠSquee
ĠDragon
Ġtours
Ġmeets
Ġmarvel
ĠRusty
ĠLiza
ĠJet
Froggy
Ġwrapper
ĠReddy
ĠHops
ĠCrusty
Ġwhiskers
Ġnicest
Ġimproving
Ġbooth
ĠLand
Surrender
Rocky
Ġmeadows
Ġimaginary
Ġbold